#include "person_detect_model_data.h"
const unsigned char model_tflite[] = {
  0x1C, 0x00, 0x00, 0x00, 0x54, 0x46, 0x4C, 0x33, 0x14, 0x00,
  0x20, 0x00, 0x1C, 0x00, 0x18, 0x00, 0x14, 0x00, 0x10, 0x00,
  0x0C, 0x00, 0x00, 0x00, 0x08, 0x00, 0x04, 0x00, 0x14, 0x00,
  0x00, 0x00, 0x1C, 0x00, 0x00, 0x00, 0x88, 0x00, 0x00, 0x00,
  0xE0, 0x00, 0x00, 0x00, 0xA4, 0x0F, 0x00, 0x00, 0xB4, 0x0F,
  0x00, 0x00, 0xF4, 0x21, 0x00, 0x00, 0x03, 0x00, 0x00, 0x00,
  0x01, 0x00, 0x00, 0x00, 0x04, 0x00, 0x00, 0x00, 0x3A, 0xEE,
  0xFF, 0xFF, 0x0C, 0x00, 0x00, 0x00, 0x1C, 0x00, 0x00, 0x00,
  0x38, 0x00, 0x00, 0x00, 0x0F, 0x00, 0x00, 0x00, 0x73, 0x65,
  0x72, 0x76, 0x69, 0x6E, 0x67, 0x5F, 0x64, 0x65, 0x66, 0x61,
  0x75, 0x6C, 0x74, 0x00, 0x01, 0x00, 0x00, 0x00, 0x04, 0x00,
  0x00, 0x00, 0x94, 0xFF, 0xFF, 0xFF, 0x16, 0x00, 0x00, 0x00,
  0x04, 0x00, 0x00, 0x00, 0x05, 0x00, 0x00, 0x00, 0x64, 0x65,
  0x6E, 0x73, 0x65, 0x00, 0x00, 0x00, 0x01, 0x00, 0x00, 0x00,
  0x04, 0x00, 0x00, 0x00, 0x3E, 0xEE, 0xFF, 0xFF, 0x04, 0x00,
  0x00, 0x00, 0x0D, 0x00, 0x00, 0x00, 0x72, 0x65, 0x73, 0x68,
  0x61, 0x70, 0x65, 0x5F, 0x69, 0x6E, 0x70, 0x75, 0x74, 0x00,
  0x00, 0x00, 0x02, 0x00, 0x00, 0x00, 0x34, 0x00, 0x00, 0x00,
  0x04, 0x00, 0x00, 0x00, 0xDC, 0xFF, 0xFF, 0xFF, 0x19, 0x00,
  0x00, 0x00, 0x04, 0x00, 0x00, 0x00, 0x13, 0x00, 0x00, 0x00,
  0x43, 0x4F, 0x4E, 0x56, 0x45, 0x52, 0x53, 0x49, 0x4F, 0x4E,
  0x5F, 0x4D, 0x45, 0x54, 0x41, 0x44, 0x41, 0x54, 0x41, 0x00,
  0x08, 0x00, 0x0C, 0x00, 0x08, 0x00, 0x04, 0x00, 0x08, 0x00,
  0x00, 0x00, 0x18, 0x00, 0x00, 0x00, 0x04, 0x00, 0x00, 0x00,
  0x13, 0x00, 0x00, 0x00, 0x6D, 0x69, 0x6E, 0x5F, 0x72, 0x75,
  0x6E, 0x74, 0x69, 0x6D, 0x65, 0x5F, 0x76, 0x65, 0x72, 0x73,
  0x69, 0x6F, 0x6E, 0x00, 0x1A, 0x00, 0x00, 0x00, 0xC0, 0x0E,
  0x00, 0x00, 0xB8, 0x0E, 0x00, 0x00, 0xA4, 0x0E, 0x00, 0x00,
  0x90, 0x0E, 0x00, 0x00, 0x7C, 0x0E, 0x00, 0x00, 0x74, 0x0E,
  0x00, 0x00, 0x5C, 0x0E, 0x00, 0x00, 0x44, 0x0E, 0x00, 0x00,
  0x34, 0x06, 0x00, 0x00, 0xE4, 0x05, 0x00, 0x00, 0xD4, 0x01,
  0x00, 0x00, 0x84, 0x01, 0x00, 0x00, 0xE4, 0x00, 0x00, 0x00,
  0xDC, 0x00, 0x00, 0x00, 0xD4, 0x00, 0x00, 0x00, 0xCC, 0x00,
  0x00, 0x00, 0xC4, 0x00, 0x00, 0x00, 0xBC, 0x00, 0x00, 0x00,
  0xB4, 0x00, 0x00, 0x00, 0xAC, 0x00, 0x00, 0x00, 0xA4, 0x00,
  0x00, 0x00, 0x9C, 0x00, 0x00, 0x00, 0x94, 0x00, 0x00, 0x00,
  0x8C, 0x00, 0x00, 0x00, 0x6C, 0x00, 0x00, 0x00, 0x04, 0x00,
  0x00, 0x00, 0x22, 0xEF, 0xFF, 0xFF, 0x04, 0x00, 0x00, 0x00,
  0x58, 0x00, 0x00, 0x00, 0x0C, 0x00, 0x00, 0x00, 0x08, 0x00,
  0x0E, 0x00, 0x08, 0x00, 0x04, 0x00, 0x08, 0x00, 0x00, 0x00,
  0x10, 0x00, 0x00, 0x00, 0x28, 0x00, 0x00, 0x00, 0x00, 0x00,
  0x06, 0x00, 0x08, 0x00, 0x04, 0x00, 0x06, 0x00, 0x00, 0x00,
  0x04, 0x00, 0x00, 0x00, 0x01, 0x00, 0x00, 0x00, 0xEB, 0x03,
  0x00, 0x00, 0x00, 0x00, 0x0A, 0x00, 0x10, 0x00, 0x0C, 0x00,
  0x08, 0x00, 0x04, 0x00, 0x0A, 0x00, 0x00, 0x00, 0x01, 0x00,
  0x00, 0x00, 0x02, 0x00, 0x00, 0x00, 0x04, 0x00, 0x00, 0x00,
  0x06, 0x00, 0x00, 0x00, 0x32, 0x2E, 0x31, 0x32, 0x2E, 0x30,
  0x00, 0x00, 0x86, 0xEF, 0xFF, 0xFF, 0x04, 0x00, 0x00, 0x00,
  0x10, 0x00, 0x00, 0x00, 0x31, 0x2E, 0x31, 0x34, 0x2E, 0x30,
  0x00, 0x00, 0x00, 0x00, 0x00, 0x00, 0x00, 0x00, 0x00, 0x00,
  0xB4, 0xE0, 0xFF, 0xFF, 0xB8, 0xE0, 0xFF, 0xFF, 0xBC, 0xE0,
  0xFF, 0xFF, 0xC0, 0xE0, 0xFF, 0xFF, 0xC4, 0xE0, 0xFF, 0xFF,
  0xC8, 0xE0, 0xFF, 0xFF, 0xCC, 0xE0, 0xFF, 0xFF, 0xD0, 0xE0,
  0xFF, 0xFF, 0xD4, 0xE0, 0xFF, 0xFF, 0xD8, 0xE0, 0xFF, 0xFF,
  0xDC, 0xE0, 0xFF, 0xFF, 0xCE, 0xEF, 0xFF, 0xFF, 0x04, 0x00,
  0x00, 0x00, 0x90, 0x00, 0x00, 0x00, 0x04, 0x20, 0x71, 0x1B,
  0x7F, 0x0D, 0xB1, 0x8E, 0x0A, 0xFE, 0x81, 0x37, 0x19, 0x3E,
  0x22, 0x34, 0x5B, 0x32, 0x1D, 0x84, 0x56, 0x1B, 0xAF, 0xDF,
  0x7F, 0x83, 0x7D, 0xF0, 0x40, 0xB4, 0x5D, 0x66, 0x81, 0x48,
  0x2E, 0x94, 0x12, 0x81, 0x3F, 0xDC, 0xCE, 0x8A, 0x42, 0x5F,
  0x4B, 0x8B, 0xD2, 0x55, 0x8A, 0x0C, 0xD2, 0x1D, 0x81, 0x5A,
  0x84, 0x01, 0xB1, 0x05, 0x84, 0x58, 0x7F, 0x4D, 0x72, 0x81,
  0x23, 0xD1, 0x98, 0xDC, 0xC3, 0x60, 0x9C, 0x7B, 0x39, 0x0F,
  0xED, 0x59, 0xDB, 0x7F, 0x51, 0x41, 0xFA, 0x47, 0x7F, 0x76,
  0xBE, 0xB1, 0x2B, 0x3B, 0x53, 0x44, 0x87, 0x36, 0xB0, 0x81,
  0x08, 0x61, 0x78, 0x36, 0x46, 0x2F, 0x51, 0x7F, 0x3B, 0x9E,
  0x3E, 0x50, 0x79, 0x57, 0x1C, 0x72, 0x0E, 0x3C, 0x74, 0x43,
  0x7F, 0xCF, 0x6C, 0xC4, 0x7F, 0x68, 0xF5, 0x51, 0x22, 0x53,
  0xBA, 0xA2, 0xAE, 0x7C, 0x0E, 0x73, 0x98, 0x3D, 0x95, 0xF1,
  0x7F, 0xF8, 0x4F, 0x9D, 0xDE, 0xB9, 0x7F, 0x8E, 0xD8, 0x8F,
  0x6A, 0xF0, 0xFF, 0xFF, 0x04, 0x00, 0x00, 0x00, 0x40, 0x00,
  0x00, 0x00, 0x77, 0x00, 0x00, 0x00, 0xE0, 0x04, 0x00, 0x00,
  0x96, 0x01, 0x00, 0x00, 0x09, 0xFD, 0xFF, 0xFF, 0x60, 0x09,
  0x00, 0x00, 0x70, 0x03, 0x00, 0x00, 0x72, 0xF9, 0xFF, 0xFF,
  0x9D, 0xF7, 0xFF, 0xFF, 0xBA, 0xFA, 0xFF, 0xFF, 0x11, 0xFF,
  0xFF, 0xFF, 0x7A, 0x01, 0x00, 0x00, 0xAA, 0xFD, 0xFF, 0xFF,
  0xB1, 0xFA, 0xFF, 0xFF, 0x4E, 0xFD, 0xFF, 0xFF, 0xE9, 0x03,
  0x00, 0x00, 0xB7, 0xFF, 0xFF, 0xFF, 0xB6, 0xF0, 0xFF, 0xFF,
  0x04, 0x00, 0x00, 0x00, 0x00, 0x04, 0x00, 0x00, 0x1F, 0x8B,
  0xFC, 0xE1, 0x2C, 0x8A, 0x06, 0xF0, 0xA7, 0x31, 0xCB, 0xF5,
  0x01, 0x43, 0xD2, 0x10, 0x1C, 0xFC, 0xC2, 0x14, 0xAC, 0x42,
  0x42, 0x32, 0xAF, 0x1D, 0x76, 0x07, 0x63, 0xFF, 0x39, 0x6B,
  0x75, 0x1E, 0xDA, 0x30, 0xBD, 0xEC, 0xD0, 0x35, 0x9D, 0x2D,
  0xF7, 0x2E, 0x61, 0xD3, 0x28, 0x75, 0x65, 0x13, 0x2B, 0xCC,
  0x20, 0x45, 0x0D, 0xA5, 0xFE, 0xB9, 0xBF, 0x08, 0xE8, 0xDC,
  0x20, 0x87, 0x69, 0xC7, 0x8D, 0xDD, 0xC8, 0x0F, 0x2D, 0x3B,
  0xC4, 0xF9, 0x99, 0x1F, 0x2A, 0xDB, 0x4C, 0xE3, 0xEB, 0xE0,
  0x17, 0xBF, 0x5D, 0xC3, 0x9C, 0x03, 0xF4, 0xA8, 0xEC, 0x3F,
  0x0B, 0x66, 0xBD, 0x9D, 0x47, 0x42, 0x07, 0xD6, 0xF2, 0x2D,
  0x35, 0x4E, 0x18, 0x8F, 0x81, 0xA9, 0x22, 0x54, 0xAA, 0xF0,
  0xB8, 0xE0, 0xC6, 0x7C, 0x2C, 0x3E, 0x21, 0xA6, 0x26, 0xA9,
  0xCA, 0x6C, 0x81, 0x0A, 0x8D, 0x97, 0x72, 0x24, 0xC0, 0xB6,
  0x15, 0xE2, 0x25, 0xD0, 0x1E, 0x1A, 0x35, 0x36, 0x24, 0xE4,
  0xB4, 0x15, 0x38, 0x9B, 0x42, 0xE1, 0xD0, 0xA7, 0x5B, 0x22,
  0xF0, 0x0A, 0x4D, 0x38, 0xFC, 0x57, 0x08, 0xFB, 0xD0, 0xBF,
  0xC6, 0x4D, 0xF8, 0x60, 0x52, 0x0D, 0x9F, 0xA9, 0x4F, 0xAF,
  0x1B, 0x03, 0x93, 0x17, 0x44, 0x0D, 0xBA, 0xC3, 0xAD, 0xFF,
  0x53, 0x11, 0xD3, 0xA2, 0x29, 0x05, 0x63, 0x26, 0x95, 0x43,
  0xA4, 0x08, 0x99, 0xB1, 0xA9, 0x3B, 0x84, 0x24, 0xB7, 0x9F,
  0xE9, 0x79, 0xF1, 0x04, 0x81, 0xAD, 0xF3, 0x3A, 0x84, 0x8D,
  0x18, 0x55, 0xBC, 0x3C, 0xD4, 0x35, 0xE8, 0xF5, 0xAC, 0x1A,
  0x34, 0xAC, 0x76, 0x1A, 0x5C, 0x34, 0x16, 0xC6, 0x1F, 0xAA,
  0x39, 0xC7, 0xE1, 0x01, 0xE1, 0x2D, 0x97, 0xC5, 0xCA, 0xCC,
  0x09, 0x4E, 0x35, 0x58, 0xCE, 0xB4, 0xC4, 0x3A, 0x4F, 0x1D,
  0x1A, 0x42, 0x22, 0x0E, 0xE8, 0xCB, 0xEA, 0xED, 0xD7, 0xEE,
  0x07, 0x29, 0x09, 0xC1, 0xCE, 0x6B, 0xA2, 0xD0, 0x68, 0x22,
  0xEB, 0x51, 0xA4, 0xF0, 0xFD, 0xCE, 0xD1, 0x47, 0x72, 0x24,
  0x95, 0xC0, 0x46, 0xD2, 0x12, 0x5C, 0x08, 0x24, 0x52, 0x3C,
  0x06, 0x48, 0x14, 0x2E, 0xF2, 0xC7, 0x2E, 0xCA, 0x2F, 0xF4,
  0x1F, 0x51, 0xF0, 0x08, 0x30, 0xFC, 0x96, 0xF8, 0x9C, 0x4D,
  0xC6, 0x5C, 0x6A, 0xA3, 0x6B, 0xD8, 0x2E, 0x0A, 0x14, 0xEA,
  0x0E, 0x13, 0x57, 0x1C, 0x58, 0xD9, 0xCC, 0x9F, 0x3A, 0xCA,
  0xC7, 0xEA, 0x56, 0x41, 0xF2, 0xA9, 0x54, 0x30, 0x23, 0x6E,
  0x1E, 0x59, 0xCA, 0x4D, 0x5F, 0xBB, 0xB6, 0x33, 0x61, 0x6B,
  0xA4, 0x3D, 0x9F, 0x59, 0xC5, 0x58, 0x9F, 0xCA, 0x40, 0x6E,
  0x68, 0x16, 0xEE, 0x27, 0xC6, 0xED, 0x23, 0x42, 0x14, 0xDB,
  0xA9, 0x50, 0x1F, 0x0A, 0x7F, 0x2F, 0xDE, 0x6C, 0x8E, 0xC0,
  0xFE, 0xAE, 0x0F, 0xE8, 0x01, 0x64, 0x3C, 0x1D, 0x3D, 0x59,
  0xD7, 0xB2, 0x77, 0xA5, 0xE9, 0xE9, 0xDB, 0xA1, 0x98, 0x04,
  0xE5, 0x44, 0x05, 0x56, 0xAA, 0xB9, 0x4C, 0x05, 0x50, 0x3B,
  0xB9, 0xA6, 0xA3, 0xB9, 0x2B, 0x26, 0x9E, 0xCA, 0xC3, 0x0D,
  0x10, 0x08, 0xAF, 0x4F, 0x4B, 0xE2, 0x6C, 0x64, 0xFE, 0x46,
  0xBF, 0xB5, 0x15, 0x7E, 0xC7, 0xDF, 0x3F, 0xE0, 0xAC, 0xF5,
  0x25, 0x51, 0xF7, 0x01, 0x40, 0x4A, 0xCA, 0x91, 0xB3, 0x55,
  0x0D, 0xDB, 0xEE, 0x28, 0x9F, 0x3E, 0x8D, 0x20, 0x00, 0x6C,
  0x66, 0x8D, 0x27, 0x49, 0xBC, 0x14, 0x0D, 0x5A, 0x8B, 0x20,
  0xE1, 0x94, 0x2B, 0x1E, 0xE9, 0xF4, 0xBC, 0x12, 0x1C, 0x93,
  0xE2, 0x12, 0xFF, 0xD3, 0x42, 0xD3, 0x3B, 0xF8, 0x7C, 0x73,
  0x47, 0x3D, 0x3B, 0xF1, 0x12, 0x8C, 0x28, 0x7F, 0xF1, 0xE0,
  0x4E, 0x69, 0x3C, 0x9B, 0xF5, 0xE6, 0xEE, 0x18, 0x7D, 0x1A,
  0xEE, 0x96, 0x8B, 0x10, 0x08, 0x4A, 0xDF, 0xAD, 0xAE, 0xB1,
  0x96, 0x7D, 0x4F, 0xE4, 0x37, 0x5C, 0xC8, 0x99, 0x89, 0x5A,
  0xD1, 0x63, 0xD2, 0x7F, 0x23, 0xB6, 0x21, 0xC8, 0x52, 0xF3,
  0x72, 0x50, 0xBF, 0xC9, 0x94, 0x63, 0xD9, 0xED, 0x81, 0x48,
  0xD9, 0xDB, 0x9C, 0xD3, 0xE8, 0x7F, 0xDD, 0xED, 0x62, 0x86,
  0xFA, 0x55, 0x2A, 0x19, 0x2C, 0xF8, 0x4B, 0x0F, 0xEF, 0x5E,
  0x51, 0x00, 0xEC, 0x51, 0x61, 0xAB, 0x5E, 0xAB, 0x0C, 0xD5,
  0xD4, 0x45, 0xC7, 0x45, 0x42, 0xBC, 0xE3, 0x32, 0x21, 0x78,
  0x34, 0x30, 0xC8, 0x9B, 0xFE, 0x68, 0x40, 0x17, 0xA4, 0x37,
  0x28, 0xA6, 0xBC, 0xAF, 0x72, 0xF5, 0x43, 0x09, 0x90, 0xFE,
  0xBB, 0x54, 0xDB, 0xB5, 0x7C, 0x44, 0xB6, 0x01, 0xD2, 0x00,
  0xA1, 0x88, 0x9F, 0xB1, 0xD7, 0x7B, 0xFC, 0x2D, 0xB9, 0x16,
  0x5E, 0x18, 0x00, 0x4D, 0x99, 0xB7, 0x4D, 0xB8, 0x18, 0xC8,
  0x37, 0xEA, 0x12, 0x34, 0x3D, 0xF7, 0xAF, 0xEF, 0x91, 0xBB,
  0x2D, 0x3C, 0xA9, 0x31, 0xC4, 0x23, 0x47, 0xF6, 0x04, 0x47,
  0xC9, 0x8D, 0xFA, 0x15, 0xA2, 0xB7, 0xF9, 0xA0, 0xDD, 0xED,
  0xBD, 0xEF, 0x30, 0x0B, 0x56, 0xDC, 0x37, 0xB6, 0x34, 0xF8,
  0xEE, 0xC6, 0xD8, 0x16, 0x7E, 0x5D, 0x4D, 0x50, 0xB3, 0x0C,
  0x18, 0x7F, 0x8C, 0x0B, 0x70, 0x81, 0x05, 0x06, 0x03, 0xD9,
  0xAE, 0x5C, 0x00, 0xB5, 0xB6, 0x02, 0x61, 0xDC, 0x0F, 0xFE,
  0xA5, 0x14, 0x9A, 0x73, 0xB0, 0x42, 0xD2, 0xB5, 0xF7, 0xAF,
  0x81, 0x6B, 0xBC, 0xD0, 0x52, 0x87, 0xD4, 0x9A, 0x67, 0xFF,
  0xB6, 0xD6, 0x9C, 0xBF, 0xEF, 0x38, 0xA8, 0x25, 0x3D, 0xF7,
  0xC0, 0x06, 0x48, 0x0A, 0xC9, 0x45, 0x89, 0x4E, 0x0E, 0x20,
  0xA0, 0x30, 0x9B, 0xC4, 0xD6, 0xE9, 0x90, 0x5A, 0x5F, 0xAE,
  0x56, 0xEF, 0xC2, 0xF3, 0x46, 0xF2, 0x5B, 0xE2, 0x01, 0x78,
  0xB6, 0x17, 0x4C, 0x07, 0xF9, 0xC0, 0xBD, 0x35, 0xD7, 0x5E,
  0x43, 0x0F, 0x7F, 0x18, 0x5C, 0xEE, 0x0D, 0x3E, 0xD2, 0xEE,
  0x57, 0x4C, 0xBF, 0xF1, 0x02, 0x1C, 0x38, 0xA1, 0x34, 0x81,
  0x14, 0x8F, 0xFA, 0xE1, 0x45, 0x9D, 0x5B, 0xE0, 0xDE, 0xA5,
  0x50, 0x19, 0x2A, 0xB7, 0x78, 0x93, 0xE9, 0x62, 0x18, 0x43,
  0xE6, 0xAA, 0xF3, 0xC6, 0x3B, 0xEA, 0xB9, 0x0D, 0xD2, 0xAB,
  0x2F, 0x1C, 0x41, 0x28, 0x9D, 0x3D, 0xA8, 0xEF, 0x1C, 0x9A,
  0x34, 0x23, 0x42, 0xDF, 0xE4, 0x27, 0xEC, 0x1C, 0x90, 0xE9,
  0xD3, 0xB9, 0xAF, 0x03, 0xA2, 0xCA, 0xFB, 0x52, 0xD8, 0xE7,
  0x19, 0xEF, 0x69, 0x0D, 0x54, 0x54, 0x33, 0xDE, 0x97, 0x52,
  0xD8, 0xFD, 0xF0, 0xF5, 0x5B, 0x34, 0x77, 0xD3, 0xE9, 0xD0,
  0xB6, 0xB4, 0x3D, 0x47, 0x00, 0x40, 0x63, 0xE8, 0x55, 0xCA,
  0xA7, 0xA2, 0xAE, 0x2E, 0xE9, 0x3D, 0x45, 0xF3, 0xE2, 0xF5,
  0x05, 0x30, 0x0F, 0x11, 0xFA, 0x7A, 0xDB, 0xC7, 0xF7, 0xBE,
  0x6D, 0xA3, 0x09, 0x78, 0xE0, 0x59, 0xD8, 0x91, 0x0D, 0xE8,
  0xE8, 0xD2, 0x4F, 0xCF, 0xC0, 0x81, 0xB1, 0xF9, 0xC8, 0x15,
  0x49, 0xF3, 0x8E, 0x41, 0xF7, 0x5F, 0x08, 0xB4, 0x1D, 0xE8,
  0x7E, 0x34, 0xAA, 0x18, 0xE9, 0x16, 0x7F, 0x38, 0x19, 0x4F,
  0x72, 0x20, 0x41, 0x39, 0x03, 0xDD, 0x6E, 0x48, 0x30, 0x92,
  0x8A, 0x52, 0x6E, 0x19, 0x84, 0xEE, 0xD1, 0xC1, 0xC6, 0x7F,
  0xFD, 0xBF, 0x77, 0x26, 0xA2, 0xE1, 0xDE, 0x61, 0x67, 0xD4,
  0xA2, 0x49, 0xC6, 0xD4, 0x8F, 0xFD, 0x42, 0x40, 0x43, 0xF7,
  0x59, 0x4B, 0x19, 0x42, 0x32, 0x12, 0x07, 0x19, 0xEE, 0xA7,
  0xC7, 0x2A, 0x3B, 0xBE, 0x35, 0x2C, 0x21, 0x99, 0xA7, 0xFD,
  0x16, 0x0A, 0xEA, 0xA5, 0x5C, 0xCE, 0x4C, 0x1D, 0xFD, 0x97,
  0xE1, 0xB5, 0xC2, 0xF4, 0xFF, 0xFF, 0x04, 0x00, 0x00, 0x00,
  0x40, 0x00, 0x00, 0x00, 0x6C, 0x14, 0x00, 0x00, 0xA3, 0xF3,
  0xFF, 0xFF, 0x9D, 0xF8, 0xFF, 0xFF, 0xB3, 0xF8, 0xFF, 0xFF,
  0xEE, 0x09, 0x00, 0x00, 0x1C, 0x09, 0x00, 0x00, 0x2D, 0xEB,
  0xFF, 0xFF, 0xB7, 0xF2, 0xFF, 0xFF, 0x3C, 0x09, 0x00, 0x00,
  0x6F, 0xED, 0xFF, 0xFF, 0xB5, 0x00, 0x00, 0x00, 0x71, 0x03,
  0x00, 0x00, 0x27, 0x02, 0x00, 0x00, 0x52, 0x0D, 0x00, 0x00,
  0xB6, 0x07, 0x00, 0x00, 0xCC, 0x09, 0x00, 0x00, 0x0E, 0xF5,
  0xFF, 0xFF, 0x04, 0x00, 0x00, 0x00, 0x00, 0x08, 0x00, 0x00,
  0xC4, 0x04, 0x17, 0xEF, 0xBD, 0xC1, 0x52, 0xF4, 0xF6, 0xD3,
  0xA8, 0x31, 0xF3, 0x9B, 0xA6, 0xF2, 0x5F, 0x02, 0xCF, 0xA2,
  0xD2, 0xDA, 0x2A, 0xF7, 0x21, 0x50, 0xE5, 0x3C, 0xF3, 0x0F,
  0x97, 0x2A, 0xE9, 0xD3, 0xC8, 0x93, 0x12, 0xE6, 0x92, 0x2B,
  0x9E, 0x97, 0xB9, 0x24, 0xBF, 0xB0, 0x8D, 0xEF, 0x25, 0xB7,
  0x9C, 0x2C, 0x44, 0xC3, 0xDC, 0x1E, 0x1E, 0xBA, 0xF7, 0x08,
  0xCB, 0x36, 0xAD, 0xF1, 0x98, 0xD3, 0xEC, 0x86, 0xB7, 0x2A,
  0x1A, 0x2A, 0xDF, 0xD3, 0xC6, 0x06, 0x03, 0x2B, 0x4A, 0xA0,
  0xA3, 0xA4, 0x53, 0xBF, 0xD4, 0x21, 0x42, 0x93, 0xC7, 0x3C,
  0xC2, 0x12, 0x03, 0x43, 0xD8, 0xC6, 0x1F, 0xC4, 0x3F, 0xD4,
  0xE4, 0x9C, 0x22, 0x13, 0xC4, 0x02, 0xB1, 0xBA, 0xFC, 0x4D,
  0x45, 0xBE, 0xD2, 0xBB, 0xFE, 0x01, 0xF7, 0x61, 0xFA, 0x9C,
  0xD4, 0x2C, 0x51, 0x00, 0x44, 0x1A, 0x98, 0x9E, 0x24, 0xB1,
  0xC2, 0xDB, 0xDB, 0xA3, 0xD9, 0xC9, 0xA8, 0xCD, 0x1E, 0x4E,
  0xA5, 0xEF, 0x47, 0xB1, 0x1E, 0x12, 0x23, 0x16, 0xD4, 0x21,
  0xE1, 0xDC, 0xB0, 0x09, 0xE0, 0xD2, 0x22, 0x8A, 0x2E, 0x19,
  0x0A, 0x10, 0xD4, 0x11, 0xC0, 0x49, 0xAE, 0x08, 0xF3, 0x24,
  0xD4, 0x94, 0xCD, 0xF1, 0x46, 0x5C, 0x20, 0x1F, 0x4D, 0x44,
  0x25, 0x94, 0xC4, 0x40, 0x0D, 0xA3, 0x41, 0xF6, 0x35, 0x9E,
  0xFD, 0xE8, 0x18, 0xF1, 0x5E, 0x18, 0x3C, 0x3C, 0xE6, 0xC7,
  0x16, 0xFF, 0x4F, 0xE7, 0x29, 0x3F, 0x0D, 0xDB, 0xBA, 0x61,
  0xE1, 0xEF, 0xFB, 0xD8, 0x2B, 0x2D, 0x50, 0xD4, 0x3A, 0x45,
  0x35, 0x9D, 0x2C, 0x38, 0x3C, 0xF4, 0x1A, 0x91, 0xA1, 0xDF,
  0xCF, 0x17, 0xDD, 0x25, 0xF3, 0xBE, 0x44, 0xCA, 0xFF, 0xC5,
  0x01, 0x3D, 0xBE, 0x18, 0x59, 0xA3, 0x8E, 0xA8, 0x19, 0x48,
  0x51, 0x42, 0x2A, 0x62, 0x15, 0xA4, 0xDB, 0xD2, 0x54, 0x0A,
  0x27, 0x03, 0xFB, 0xEE, 0x47, 0x32, 0x2B, 0x48, 0xD9, 0xD4,
  0x99, 0xE7, 0x09, 0x29, 0x34, 0x4D, 0x7D, 0x47, 0x26, 0xAD,
  0xED, 0xAA, 0xF5, 0xEC, 0xB0, 0xA6, 0xE7, 0x9D, 0xED, 0xCA,
  0xCB, 0x11, 0x62, 0x99, 0x4E, 0xE4, 0xA9, 0xC8, 0x30, 0x2D,
  0x01, 0x36, 0xAD, 0x59, 0xE0, 0x4F, 0x5F, 0xEF, 0x55, 0xFF,
  0xB8, 0x36, 0xBF, 0xBA, 0xC6, 0xB2, 0xEE, 0x08, 0x17, 0xC2,
  0x17, 0x0E, 0x46, 0x03, 0xEF, 0x2B, 0xD1, 0x03, 0xA6, 0x40,
  0x29, 0xCC, 0xB9, 0xFF, 0x97, 0x01, 0x05, 0x63, 0xB9, 0xFC,
  0xA9, 0xB3, 0x93, 0xF0, 0x39, 0x1E, 0x1F, 0x99, 0xB8, 0xDD,
  0xA4, 0x5A, 0xEA, 0x1E, 0xE4, 0x14, 0x51, 0x2A, 0xE7, 0xED,
  0x53, 0xF7, 0xA9, 0x54, 0xB4, 0x53, 0x07, 0x47, 0xE6, 0xE2,
  0x43, 0x9D, 0x62, 0x0F, 0xF5, 0x3B, 0x62, 0x0E, 0x1C, 0x3C,
  0x1C, 0x01, 0x50, 0x95, 0x28, 0x46, 0x37, 0xEA, 0x7D, 0xA9,
  0x9C, 0x0B, 0x40, 0x51, 0xFA, 0xE2, 0x9E, 0xF5, 0xE3, 0x2E,
  0x33, 0xF7, 0xF8, 0xB5, 0x54, 0xBF, 0x97, 0x37, 0xB5, 0xD6,
  0xE2, 0xD7, 0x06, 0x4F, 0xC3, 0x60, 0xD4, 0xEF, 0xE9, 0x8B,
  0x24, 0x06, 0x34, 0x3B, 0xD2, 0x52, 0xCC, 0x04, 0x49, 0x20,
  0x4C, 0x07, 0x22, 0xCD, 0xDD, 0x05, 0xF5, 0xB3, 0xA3, 0x27,
  0x48, 0x11, 0x1E, 0xB4, 0x01, 0x4B, 0xBF, 0x0A, 0xD0, 0x5E,
  0xEC, 0xBC, 0xF3, 0xF0, 0x32, 0x34, 0xF3, 0x46, 0xA6, 0x0A,
  0xC6, 0xC0, 0x24, 0xD3, 0x3B, 0xA8, 0x33, 0x9F, 0x2A, 0x94,
  0xB9, 0x60, 0x18, 0x27, 0x9D, 0xB9, 0xC7, 0x66, 0x31, 0xB9,
  0xDC, 0xC2, 0xEC, 0x1D, 0x14, 0x40, 0x12, 0xEC, 0x90, 0x15,
  0xE9, 0xDD, 0xCA, 0xB8, 0xB0, 0x3D, 0xBA, 0x10, 0x51, 0xD3,
  0x14, 0xDA, 0x51, 0xCE, 0xE5, 0xD2, 0x45, 0xA4, 0xA3, 0x3B,
  0xC3, 0x08, 0x63, 0xB5, 0xAA, 0xED, 0xF1, 0x0F, 0xE0, 0x3F,
  0x05, 0xC5, 0x1C, 0xD9, 0x42, 0x23, 0x45, 0x18, 0x41, 0xC9,
  0xF6, 0x96, 0x24, 0x00, 0x18, 0x08, 0x88, 0xE3, 0x54, 0xF8,
  0x28, 0xFC, 0xC9, 0xBA, 0x16, 0xE9, 0x1B, 0x54, 0xC5, 0x3A,
  0x11, 0x60, 0xFE, 0xA2, 0x4A, 0xE0, 0x40, 0xF0, 0x1C, 0x0B,
  0xFB, 0x31, 0x49, 0x4B, 0x1A, 0xAB, 0x0C, 0x6B, 0x35, 0x2A,
  0xA2, 0x0C, 0x43, 0x00, 0x5B, 0x60, 0x45, 0x1E, 0xE0, 0xCD,
  0x1E, 0xC2, 0xEB, 0x5E, 0x5A, 0x3C, 0xE8, 0x14, 0xFC, 0xFE,
  0x06, 0xC4, 0x34, 0xC7, 0x5C, 0xD9, 0x35, 0xD3, 0xF0, 0xD1,
  0x85, 0x9D, 0xA6, 0x29, 0xA0, 0xAA, 0x9E, 0xEB, 0x63, 0x58,
  0xB7, 0x04, 0xAC, 0x02, 0xA8, 0xFB, 0xC4, 0x30, 0xDC, 0xCC,
  0x1F, 0x15, 0x45, 0xFB, 0xB4, 0x22, 0xE6, 0xE3, 0x25, 0xA3,
  0x37, 0xF4, 0x06, 0xA5, 0x17, 0xB6, 0xFB, 0x17, 0x0F, 0xFC,
  0x4D, 0x12, 0xDC, 0xBC, 0x69, 0xE5, 0xB2, 0xD9, 0xE9, 0x16,
  0xCF, 0xD7, 0x23, 0x28, 0xFE, 0x33, 0x08, 0xF1, 0x29, 0xF4,
  0x4C, 0xA2, 0x9C, 0x15, 0x0E, 0xAF, 0xE3, 0xDB, 0xC0, 0xBC,
  0xE3, 0xE7, 0x05, 0x1C, 0x2A, 0x47, 0xFB, 0xF6, 0xC2, 0xF7,
  0xE3, 0x50, 0x41, 0x50, 0xE1, 0x2A, 0x1E, 0x29, 0xF3, 0x50,
  0xAA, 0x13, 0xA9, 0xF0, 0x31, 0xD9, 0xAD, 0xF4, 0xCD, 0xA6,
  0x97, 0x3E, 0x19, 0xF8, 0x65, 0xCD, 0x9B, 0x49, 0xD8, 0x2E,
  0xD4, 0x34, 0x4B, 0x03, 0x26, 0x9C, 0xF0, 0x2A, 0xEB, 0x24,
  0x72, 0xB7, 0x63, 0x1A, 0x06, 0xBD, 0x36, 0xD4, 0x4A, 0xED,
  0x07, 0x12, 0x68, 0xDB, 0xB4, 0x46, 0x4D, 0x10, 0x23, 0xDE,
  0xE0, 0x0B, 0x41, 0x2B, 0xBF, 0xE7, 0x3C, 0x91, 0x1F, 0x31,
  0x4E, 0xE9, 0x50, 0x37, 0xA5, 0xF6, 0x32, 0xEC, 0x34, 0xAE,
  0x41, 0x44, 0x5F, 0xC0, 0xA2, 0xC0, 0xD7, 0x23, 0x2F, 0x18,
  0x99, 0x1D, 0x95, 0xE3, 0xA1, 0x9B, 0x61, 0x12, 0x47, 0xDC,
  0xAC, 0x60, 0x19, 0x9C, 0xE8, 0xB9, 0xA1, 0x0B, 0xC3, 0x24,
  0x12, 0xD3, 0xD7, 0xF8, 0xE2, 0xB2, 0x4C, 0xB3, 0xA5, 0x34,
  0x0C, 0x29, 0x37, 0x9F, 0x41, 0x43, 0x11, 0x9F, 0x09, 0xEC,
  0xF5, 0x3A, 0x09, 0xF1, 0x56, 0x1F, 0xE9, 0x5A, 0xDF, 0xC9,
  0x2E, 0x35, 0xC1, 0xF0, 0x37, 0x02, 0x42, 0xB0, 0xF0, 0xBB,
  0x12, 0xA0, 0x74, 0x29, 0x25, 0xAF, 0xD8, 0x10, 0x2B, 0xC6,
  0xB2, 0x08, 0xB5, 0xA3, 0x26, 0xFD, 0xBE, 0xC6, 0x29, 0x57,
  0x20, 0x94, 0x78, 0x2F, 0xDF, 0xEF, 0x23, 0xFA, 0x36, 0xD6,
  0x3B, 0x62, 0x19, 0x46, 0x45, 0x02, 0x16, 0x0C, 0x41, 0x4E,
  0x30, 0x49, 0x55, 0xE4, 0xF4, 0xF4, 0x22, 0xDE, 0xBA, 0x13,
  0x5A, 0xB4, 0xF4, 0xED, 0x19, 0xF1, 0x29, 0xE0, 0x37, 0xDD,
  0x1D, 0x27, 0xD3, 0x1B, 0x2B, 0x21, 0x3A, 0xBF, 0x27, 0x98,
  0x41, 0xF4, 0x01, 0xF8, 0x5B, 0x0A, 0x91, 0x9A, 0x34, 0xAA,
  0xAC, 0xED, 0x91, 0x00, 0x0A, 0xBB, 0x41, 0x57, 0xEC, 0x9A,
  0xD1, 0x48, 0xF8, 0x35, 0xAA, 0xE1, 0x1A, 0xBC, 0xCF, 0xAB,
  0x37, 0xF2, 0x60, 0xC6, 0x4F, 0x5B, 0xCB, 0xB1, 0xD6, 0x0F,
  0x1E, 0xF6, 0x3B, 0xFB, 0x0E, 0xA9, 0x57, 0x4E, 0xD3, 0xAA,
  0xFA, 0xB8, 0xE0, 0x21, 0xF2, 0x4C, 0x22, 0xFB, 0xA5, 0x5F,
  0x4C, 0xC1, 0xCB, 0xC8, 0xD7, 0xA5, 0xD1, 0x07, 0xF6, 0xC4,
  0xF3, 0x90, 0xDB, 0x9D, 0x3A, 0x1B, 0x3A, 0x2A, 0xE9, 0x0F,
  0xE0, 0x2F, 0x21, 0x07, 0x48, 0xEC, 0x44, 0x9F, 0x60, 0x34,
  0xC2, 0x9D, 0xB9, 0x52, 0xA9, 0x49, 0x49, 0x28, 0xB1, 0xCF,
  0xB6, 0xD1, 0xD3, 0x42, 0xF1, 0x34, 0x22, 0x2C, 0xAE, 0x59,
  0x39, 0xE0, 0xD9, 0xEB, 0xE1, 0x58, 0x26, 0x53, 0x0C, 0xAA,
  0xBD, 0x4C, 0x28, 0xEC, 0x07, 0x45, 0x3F, 0x51, 0xA8, 0xD7,
  0xB4, 0xBD, 0xB3, 0x01, 0xFE, 0x2A, 0xD4, 0x0C, 0x63, 0x3D,
  0x27, 0xFE, 0x30, 0xE6, 0x2C, 0xDC, 0xC3, 0x64, 0x52, 0xAD,
  0xF0, 0xC5, 0x18, 0x2E, 0x5A, 0x26, 0x32, 0x64, 0xE5, 0x22,
  0x9D, 0xBB, 0x59, 0x2A, 0x3B, 0x55, 0x55, 0x58, 0xD6, 0x64,
  0xEC, 0x57, 0x14, 0x3A, 0xD1, 0x25, 0x08, 0xEA, 0xF8, 0xAE,
  0xA8, 0xE1, 0xB2, 0xC0, 0xCF, 0x11, 0x70, 0xC0, 0xE0, 0xB7,
  0xFC, 0xC2, 0x36, 0x2E, 0xF7, 0xF6, 0x2A, 0x3B, 0xED, 0xCA,
  0x40, 0xEE, 0x47, 0x0F, 0x1C, 0x58, 0x0B, 0x03, 0x11, 0xCB,
  0xB2, 0x10, 0x3A, 0xBE, 0x1C, 0x66, 0x15, 0xBF, 0xF9, 0xEC,
  0x9F, 0xF2, 0x03, 0x5D, 0x03, 0xAF, 0x4E, 0x28, 0xD5, 0x22,
  0xCA, 0xD1, 0x36, 0x19, 0x45, 0x4E, 0xC3, 0xB7, 0x24, 0x49,
  0xF1, 0x9D, 0xE2, 0xD5, 0x23, 0xE4, 0xFC, 0x6B, 0x3E, 0x1B,
  0x33, 0x04, 0xB3, 0x13, 0xE5, 0xF9, 0x69, 0xC7, 0xE9, 0xC4,
  0x30, 0x0D, 0x25, 0xEC, 0xE2, 0x0F, 0x1E, 0xD2, 0xD1, 0xAA,
  0x33, 0x45, 0xFC, 0xC7, 0x15, 0xCF, 0x00, 0xAA, 0x63, 0x19,
  0x10, 0xED, 0xFB, 0x05, 0x50, 0xF8, 0xD2, 0x6F, 0x17, 0x41,
  0xB3, 0x4B, 0x0E, 0xE2, 0xAC, 0xCA, 0xC2, 0xBE, 0xED, 0xFA,
  0x08, 0x0F, 0x09, 0x7D, 0x0C, 0x33, 0x2A, 0x28, 0x30, 0x3E,
  0x14, 0x31, 0x21, 0x5B, 0xFA, 0x08, 0x2C, 0xE4, 0x19, 0xC7,
  0x15, 0xB1, 0x18, 0xEA, 0x3B, 0x3B, 0xCF, 0x4D, 0xAA, 0x24,
  0x53, 0x35, 0x19, 0xDE, 0x69, 0x6C, 0x30, 0x5A, 0x1A, 0xDE,
  0xF5, 0x67, 0xC6, 0xCF, 0xB7, 0x05, 0xBB, 0xEF, 0xCA, 0xA7,
  0xAC, 0xDD, 0xC5, 0x24, 0xC2, 0xD1, 0x45, 0x36, 0x0D, 0xCC,
  0x37, 0x48, 0xD1, 0x2F, 0x17, 0x3A, 0xD3, 0x5B, 0x0D, 0xCE,
  0xC1, 0xE1, 0x85, 0x21, 0x68, 0xC5, 0x55, 0xE2, 0x41, 0x6D,
  0xF4, 0xA8, 0x4F, 0xFC, 0xEB, 0x5C, 0x5D, 0xD1, 0x50, 0xBC,
  0xDE, 0xD8, 0x61, 0xD9, 0x22, 0x20, 0x1F, 0xEC, 0xFD, 0xD7,
  0x1B, 0xDB, 0x3D, 0x20, 0xF1, 0xE7, 0xAA, 0x69, 0xE0, 0x49,
  0xB4, 0x5F, 0x10, 0xBD, 0x5D, 0xBB, 0xFE, 0x2F, 0xED, 0xEA,
  0xCF, 0xDE, 0x1A, 0x61, 0xC9, 0x1F, 0x35, 0x33, 0x08, 0xBE,
  0xAB, 0x5F, 0xB1, 0xB6, 0x5C, 0xF5, 0xFB, 0x11, 0x4D, 0xF2,
  0xF0, 0x32, 0xC9, 0xF1, 0xCD, 0xD6, 0xF0, 0xD0, 0x16, 0xEB,
  0xB9, 0x00, 0xF8, 0xF1, 0x06, 0x0C, 0xDB, 0xCA, 0x2E, 0x44,
  0xA8, 0x3B, 0xC7, 0x3F, 0xF5, 0x71, 0xBE, 0x0C, 0xF3, 0x05,
  0x5F, 0xEA, 0x5E, 0xFA, 0x39, 0x52, 0x26, 0x56, 0xD6, 0x30,
  0x9D, 0x06, 0x3F, 0x35, 0xE0, 0xCF, 0x15, 0x30, 0x75, 0xC2,
  0xF8, 0xCC, 0x36, 0x64, 0x2F, 0x63, 0x06, 0x19, 0xAE, 0x0F,
  0x31, 0x67, 0x19, 0x38, 0xC7, 0x30, 0x3F, 0xD4, 0xA0, 0x2E,
  0xBA, 0x66, 0x24, 0x3E, 0x2F, 0x13, 0xE6, 0xE5, 0x54, 0xD5,
  0xEB, 0xB5, 0x23, 0xDF, 0xEF, 0xD2, 0x43, 0xB2, 0x81, 0x6D,
  0xCA, 0x60, 0xC8, 0x00, 0xD0, 0x2E, 0x3E, 0x2E, 0x5C, 0xFF,
  0xF8, 0xA5, 0x05, 0xC6, 0xF8, 0x4D, 0xB2, 0xAB, 0x47, 0xE2,
  0xCA, 0x1A, 0x6F, 0x34, 0x29, 0x5A, 0xF2, 0x59, 0x38, 0x3A,
  0xF7, 0x45, 0x2F, 0x00, 0x32, 0xBB, 0xEA, 0xF2, 0xEF, 0xC6,
  0x16, 0xE1, 0xA2, 0xFC, 0x16, 0xF9, 0xDB, 0x10, 0xC5, 0x08,
  0x3A, 0x10, 0x4B, 0xAE, 0x71, 0x42, 0xEC, 0xA1, 0x0D, 0x60,
  0x53, 0x59, 0x22, 0x30, 0xC9, 0xE6, 0x2D, 0x2E, 0xFB, 0xCC,
  0xF1, 0xA4, 0xD5, 0xA5, 0xC3, 0xB8, 0xD5, 0xD0, 0x87, 0x1D,
  0x28, 0x2C, 0xC6, 0xCF, 0x3E, 0x36, 0x41, 0x45, 0x47, 0xB1,
  0xF6, 0x05, 0xC9, 0xDA, 0x97, 0xCF, 0x2C, 0x59, 0x66, 0xBC,
  0xF3, 0x13, 0xAE, 0x17, 0x02, 0xE4, 0xDE, 0x3B, 0x9A, 0x00,
  0xFA, 0x1A, 0xB4, 0xBE, 0x2C, 0x2F, 0xE3, 0xC0, 0xFB, 0x92,
  0xAE, 0x62, 0x29, 0xEF, 0x35, 0xEC, 0xE1, 0xD1, 0x62, 0xB0,
  0x65, 0x3D, 0x0C, 0x51, 0x2F, 0xF2, 0x66, 0x53, 0x93, 0x0E,
  0x0E, 0xB5, 0xB7, 0x50, 0x24, 0x01, 0x2C, 0x2A, 0x54, 0xE1,
  0x6F, 0xED, 0x0C, 0x29, 0xB4, 0x32, 0x62, 0xBB, 0xB9, 0xC5,
  0x5F, 0x31, 0xAE, 0xFB, 0xC3, 0x6C, 0xBB, 0x38, 0xDD, 0xF7,
  0xCE, 0x22, 0xA2, 0xCB, 0x52, 0x01, 0x3A, 0xD9, 0xA6, 0xAB,
  0x1A, 0x31, 0xF0, 0xA5, 0x32, 0xA5, 0x96, 0xA9, 0x29, 0x0A,
  0xC7, 0x6B, 0xB3, 0x0B, 0xFC, 0xE5, 0xC0, 0xEF, 0x5A, 0x62,
  0x01, 0x0A, 0xDA, 0x22, 0x15, 0x3B, 0x30, 0xFD, 0xAD, 0xDB,
  0xFB, 0x97, 0x92, 0xAE, 0x16, 0x9B, 0xCB, 0xDC, 0xE0, 0x55,
  0xA9, 0x2E, 0x17, 0x3F, 0x30, 0x44, 0x34, 0xFD, 0x1E, 0xF7,
  0xBB, 0x0E, 0xAD, 0xD9, 0xC7, 0x98, 0x16, 0xDA, 0xC6, 0x34,
  0xEA, 0xAF, 0xC6, 0x3B, 0xB5, 0xBF, 0xF3, 0xFB, 0xE8, 0x1B,
  0x52, 0x00, 0xD9, 0x60, 0x9E, 0x5A, 0x36, 0x4F, 0xDD, 0x01,
  0x5E, 0xE3, 0xF7, 0x8B, 0x45, 0xCB, 0x11, 0x0A, 0xF4, 0xD2,
  0xD7, 0xFB, 0x42, 0x64, 0x47, 0xB1, 0xBE, 0x1B, 0x5B, 0xBB,
  0xFD, 0x3F, 0xE4, 0xCC, 0x31, 0xDB, 0xB8, 0x19, 0x3A, 0xF8,
  0xEC, 0xD7, 0x8F, 0x6C, 0xC4, 0xB8, 0xDD, 0x59, 0x2A, 0x59,
  0xC1, 0x6B, 0x59, 0xA6, 0x15, 0x0C, 0x68, 0xEB, 0xC6, 0xFF,
  0xFA, 0xE4, 0x5F, 0x31, 0xFC, 0xB0, 0x44, 0xAC, 0x63, 0xF0,
  0xC8, 0x05, 0xE9, 0x9D, 0x8C, 0xE7, 0x19, 0xA9, 0x51, 0x4B,
  0xB3, 0xA2, 0xA0, 0x62, 0xDD, 0xB9, 0x56, 0x0A, 0x2F, 0xC0,
  0x23, 0x31, 0x16, 0xCE, 0x18, 0x06, 0x13, 0x41, 0x1C, 0x57,
  0x28, 0xB0, 0xE3, 0xE9, 0xDB, 0x02, 0x58, 0xB4, 0x5A, 0xB8,
  0x3C, 0xDC, 0x2C, 0xE8, 0xC3, 0xD6, 0x34, 0x0B, 0xCC, 0xCD,
  0x48, 0x14, 0x57, 0x2D, 0x1A, 0x4A, 0xDD, 0xE5, 0x18, 0x32,
  0xDD, 0xD2, 0xB1, 0xD1, 0xDA, 0x4C, 0x50, 0x20, 0x4A, 0x3D,
  0x31, 0x03, 0x21, 0xFF, 0xDB, 0xFC, 0xBB, 0x4C, 0x2C, 0xAD,
  0xB0, 0x6A, 0xB8, 0x43, 0x47, 0x17, 0xED, 0xC2, 0x4C, 0x07,
  0x04, 0x2C, 0xE2, 0xDD, 0x3B, 0xC5, 0x6F, 0x18, 0x54, 0x07,
  0xC5, 0xB0, 0xB3, 0x9C, 0xC8, 0xA8, 0x0A, 0xCE, 0x1A, 0xBF,
  0xE5, 0x38, 0x5D, 0xDE, 0xE0, 0xD1, 0xCD, 0x05, 0x8E, 0xFE,
  0xD5, 0x32, 0x39, 0xDF, 0xCC, 0x0D, 0xEC, 0xE0, 0xBB, 0xA8,
  0x37, 0x50, 0x11, 0xE0, 0x1A, 0xEE, 0xEA, 0xFC, 0xB3, 0xB5,
  0x32, 0xAF, 0xB7, 0xD7, 0xC9, 0xC6, 0xA0, 0xE1, 0xCA, 0x2A,
  0x49, 0x27, 0x00, 0xA4, 0x40, 0x1E, 0x59, 0xB7, 0x26, 0x03,
  0x0A, 0xC4, 0x48, 0x07, 0x0B, 0x53, 0xDB, 0xDC, 0x50, 0xF2,
  0x08, 0xBF, 0x1B, 0xC0, 0x59, 0x0B, 0x38, 0xE8, 0xE4, 0x52,
  0x49, 0x0D, 0x7B, 0x57, 0x09, 0x61, 0x32, 0x17, 0x44, 0x19,
  0x9E, 0x5E, 0x56, 0xB3, 0x15, 0xB8, 0x15, 0xBC, 0x1A, 0xB4,
  0x3F, 0x32, 0x09, 0x5F, 0x32, 0xB5, 0x22, 0x46, 0xFD, 0x2F,
  0x74, 0x73, 0xD2, 0xEB, 0x10, 0x05, 0xC0, 0x29, 0x13, 0x32,
  0xE3, 0xE1, 0xF4, 0x14, 0xCF, 0x35, 0xFA, 0xCB, 0x68, 0xF7,
  0x57, 0x3C, 0xD2, 0x39, 0x2D, 0x25, 0xB0, 0x31, 0xBD, 0x00,
  0x40, 0xB1, 0x48, 0xC0, 0xAA, 0xEB, 0xBD, 0x45, 0x1E, 0x1D,
  0xA5, 0xFE, 0xFA, 0x64, 0x43, 0x59, 0xE7, 0xD0, 0x27, 0x58,
  0x2B, 0xF6, 0xF3, 0xF4, 0xF5, 0xEE, 0xBE, 0xB8, 0xAA, 0xC9,
  0xA7, 0x30, 0xC8, 0x03, 0x47, 0x0F, 0x5C, 0xF8, 0x42, 0xB1,
  0x5E, 0xE5, 0xD6, 0xBD, 0xEA, 0x5D, 0x32, 0x5F, 0x02, 0xAA,
  0xC5, 0x28, 0x3A, 0xF9, 0x63, 0x28, 0xD5, 0xA5, 0x1A, 0xFD,
  0xFF, 0xFF, 0x04, 0x00, 0x00, 0x00, 0x08, 0x00, 0x00, 0x00,
  0x41, 0xE7, 0xFF, 0xFF, 0xBF, 0x18, 0x00, 0x00, 0x2E, 0xFD,
  0xFF, 0xFF, 0x04, 0x00, 0x00, 0x00, 0x08, 0x00, 0x00, 0x00,
  0xFF, 0xFF, 0xFF, 0xFF, 0x00, 0x04, 0x00, 0x00, 0x54, 0xEE,
  0xFF, 0xFF, 0x46, 0xFD, 0xFF, 0xFF, 0x04, 0x00, 0x00, 0x00,
  0x04, 0x00, 0x00, 0x00, 0x60, 0x00, 0x00, 0x00, 0x56, 0xFD,
  0xFF, 0xFF, 0x04, 0x00, 0x00, 0x00, 0x04, 0x00, 0x00, 0x00,
  0x01, 0x00, 0x00, 0x00, 0x66, 0xFD, 0xFF, 0xFF, 0x04, 0x00,
  0x00, 0x00, 0x04, 0x00, 0x00, 0x00, 0x00, 0x00, 0x00, 0x00,
  0x88, 0xEE, 0xFF, 0xFF, 0x8C, 0xEE, 0xFF, 0xFF, 0x0F, 0x00,
  0x00, 0x00, 0x4D, 0x4C, 0x49, 0x52, 0x20, 0x43, 0x6F, 0x6E,
  0x76, 0x65, 0x72, 0x74, 0x65, 0x64, 0x2E, 0x00, 0x01, 0x00,
  0x00, 0x00, 0x14, 0x00, 0x00, 0x00, 0x00, 0x00, 0x0E, 0x00,
  0x18, 0x00, 0x14, 0x00, 0x10, 0x00, 0x0C, 0x00, 0x08, 0x00,
  0x04, 0x00, 0x0E, 0x00, 0x00, 0x00, 0x14, 0x00, 0x00, 0x00,
  0x1C, 0x00, 0x00, 0x00, 0x14, 0x03, 0x00, 0x00, 0x18, 0x03,
  0x00, 0x00, 0x1C, 0x03, 0x00, 0x00, 0x04, 0x00, 0x00, 0x00,
  0x6D, 0x61, 0x69, 0x6E, 0x00, 0x00, 0x00, 0x00, 0x0B, 0x00,
  0x00, 0x00, 0xC4, 0x02, 0x00, 0x00, 0x64, 0x02, 0x00, 0x00,
  0x0C, 0x02, 0x00, 0x00, 0xE4, 0x01, 0x00, 0x00, 0x88, 0x01,
  0x00, 0x00, 0x34, 0x01, 0x00, 0x00, 0xDC, 0x00, 0x00, 0x00,
  0x98, 0x00, 0x00, 0x00, 0x70, 0x00, 0x00, 0x00, 0x38, 0x00,
  0x00, 0x00, 0x04, 0x00, 0x00, 0x00, 0xD2, 0xFD, 0xFF, 0xFF,
  0x14, 0x00, 0x00, 0x00, 0x00, 0x00, 0x00, 0x09, 0x14, 0x00,
  0x00, 0x00, 0x18, 0x00, 0x00, 0x00, 0x08, 0x00, 0x00, 0x00,
  0x16, 0xFE, 0xFF, 0xFF, 0x00, 0x00, 0x80, 0x3F, 0x01, 0x00,
  0x00, 0x00, 0x16, 0x00, 0x00, 0x00, 0x01, 0x00, 0x00, 0x00,
  0x15, 0x00, 0x00, 0x00, 0x02, 0xFE, 0xFF, 0xFF, 0x14, 0x00,
  0x00, 0x00, 0x00, 0x00, 0x00, 0x08, 0x10, 0x00, 0x00, 0x00,
  0x14, 0x00, 0x00, 0x00, 0x07, 0x00, 0x00, 0x00, 0x58, 0xEF,
  0xFF, 0xFF, 0x01, 0x00, 0x00, 0x00, 0x15, 0x00, 0x00, 0x00,
  0x03, 0x00, 0x00, 0x00, 0x14, 0x00, 0x00, 0x00, 0x07, 0x00,
  0x00, 0x00, 0x06, 0x00, 0x00, 0x00, 0xAA, 0xFE, 0xFF, 0xFF,
  0x0C, 0x00, 0x00, 0x00, 0x10, 0x00, 0x00, 0x00, 0x03, 0x00,
  0x00, 0x00, 0x01, 0x00, 0x00, 0x00, 0x14, 0x00, 0x00, 0x00,
  0x02, 0x00, 0x00, 0x00, 0x13, 0x00, 0x00, 0x00, 0x05, 0x00,
  0x00, 0x00, 0x5A, 0xFE, 0xFF, 0xFF, 0x14, 0x00, 0x00, 0x00,
  0x00, 0x00, 0x00, 0x05, 0x24, 0x00, 0x00, 0x00, 0x28, 0x00,
  0x00, 0x00, 0x05, 0x00, 0x00, 0x00, 0x6A, 0xFF, 0xFF, 0xFF,
  0x02, 0x00, 0x00, 0x00, 0x02, 0x00, 0x00, 0x00, 0x02, 0x00,
  0x00, 0x00, 0x02, 0x00, 0x00, 0x00, 0x00, 0x00, 0x00, 0x01,
  0x01, 0x00, 0x00, 0x00, 0x13, 0x00, 0x00, 0x00, 0x01, 0x00,
  0x00, 0x00, 0x12, 0x00, 0x00, 0x00, 0x9A, 0xFE, 0xFF, 0xFF,
  0x24, 0x00, 0x00, 0x00, 0x00, 0x00, 0x00, 0x02, 0x30, 0x00,
  0x00, 0x00, 0x34, 0x00, 0x00, 0x00, 0x06, 0x00, 0x00, 0x00,
  0x00, 0x00, 0x0E, 0x00, 0x14, 0x00, 0x00, 0x00, 0x10, 0x00,
  0x0C, 0x00, 0x08, 0x00, 0x07, 0x00, 0x0E, 0x00, 0x00, 0x00,
  0x00, 0x00, 0x00, 0x01, 0x01, 0x00, 0x00, 0x00, 0x03, 0x00,
  0x00, 0x00, 0x03, 0x00, 0x00, 0x00, 0x01, 0x00, 0x00, 0x00,
  0x12, 0x00, 0x00, 0x00, 0x03, 0x00, 0x00, 0x00, 0x11, 0x00,
  0x00, 0x00, 0x09, 0x00, 0x00, 0x00, 0x08, 0x00, 0x00, 0x00,
  0xEE, 0xFE, 0xFF, 0xFF, 0x24, 0x00, 0x00, 0x00, 0x00, 0x00,
  0x00, 0x05, 0x34, 0x00, 0x00, 0x00, 0x38, 0x00, 0x00, 0x00,
  0x05, 0x00, 0x00, 0x00, 0x00, 0x00, 0x0E, 0x00, 0x18, 0x00,
  0x17, 0x00, 0x10, 0x00, 0x0C, 0x00, 0x08, 0x00, 0x04, 0x00,
  0x0E, 0x00, 0x00, 0x00, 0x02, 0x00, 0x00, 0x00, 0x02, 0x00,
  0x00, 0x00, 0x02, 0x00, 0x00, 0x00, 0x02, 0x00, 0x00, 0x00,
  0x00, 0x00, 0x00, 0x01, 0x01, 0x00, 0x00, 0x00, 0x11, 0x00,
  0x00, 0x00, 0x01, 0x00, 0x00, 0x00, 0x10, 0x00, 0x00, 0x00,
  0x3E, 0xFF, 0xFF, 0xFF, 0x20, 0x00, 0x00, 0x00, 0x00, 0x00,
  0x00, 0x01, 0x28, 0x00, 0x00, 0x00, 0x2C, 0x00, 0x00, 0x00,
  0x04, 0x00, 0x00, 0x00, 0x0C, 0x00, 0x10, 0x00, 0x00, 0x00,
  0x0C, 0x00, 0x08, 0x00, 0x07, 0x00, 0x0C, 0x00, 0x00, 0x00,
  0x00, 0x00, 0x00, 0x01, 0x01, 0x00, 0x00, 0x00, 0x01, 0x00,
  0x00, 0x00, 0x01, 0x00, 0x00, 0x00, 0x10, 0x00, 0x00, 0x00,
  0x03, 0x00, 0x00, 0x00, 0x0F, 0x00, 0x00, 0x00, 0x0B, 0x00,
  0x00, 0x00, 0x0A, 0x00, 0x00, 0x00, 0x00, 0x00, 0x0A, 0x00,
  0x10, 0x00, 0x0C, 0x00, 0x08, 0x00, 0x04, 0x00, 0x0A, 0x00,
  0x00, 0x00, 0x0C, 0x00, 0x00, 0x00, 0x10, 0x00, 0x00, 0x00,
  0x03, 0x00, 0x00, 0x00, 0x01, 0x00, 0x00, 0x00, 0x0F, 0x00,
  0x00, 0x00, 0x02, 0x00, 0x00, 0x00, 0x00, 0x00, 0x00, 0x00,
  0x0E, 0x00, 0x00, 0x00, 0xBA, 0xFF, 0xFF, 0xFF, 0x1C, 0x00,
  0x00, 0x00, 0x00, 0x00, 0x00, 0x3B, 0x1C, 0x00, 0x00, 0x00,
  0x20, 0x00, 0x00, 0x00, 0x02, 0x00, 0x00, 0x00, 0x00, 0x00,
  0x06, 0x00, 0x08, 0x00, 0x04, 0x00, 0x06, 0x00, 0x00, 0x00,
  0x04, 0x00, 0x00, 0x00, 0x01, 0x00, 0x00, 0x00, 0x0E, 0x00,
  0x00, 0x00, 0x04, 0x00, 0x00, 0x00, 0x0D, 0x00, 0x00, 0x00,
  0x03, 0x00, 0x00, 0x00, 0x03, 0x00, 0x00, 0x00, 0x04, 0x00,
  0x00, 0x00, 0x00, 0x00, 0x0E, 0x00, 0x1A, 0x00, 0x14, 0x00,
  0x10, 0x00, 0x0C, 0x00, 0x0B, 0x00, 0x04, 0x00, 0x0E, 0x00,
  0x00, 0x00, 0x24, 0x00, 0x00, 0x00, 0x00, 0x00, 0x00, 0x20,
  0x24, 0x00, 0x00, 0x00, 0x28, 0x00, 0x00, 0x00, 0x01, 0x00,
  0x00, 0x00, 0x00, 0x00, 0x0E, 0x00, 0x08, 0x00, 0x00, 0x00,
  0x00, 0x00, 0x00, 0x00, 0x00, 0x00, 0x04, 0x00, 0x0E, 0x00,
  0x00, 0x00, 0x01, 0x00, 0x00, 0x00, 0x01, 0x00, 0x00, 0x00,
  0x0D, 0x00, 0x00, 0x00, 0x04, 0x00, 0x00, 0x00, 0x0C, 0x00,
  0x00, 0x00, 0x01, 0x00, 0x00, 0x00, 0x02, 0x00, 0x00, 0x00,
  0x02, 0x00, 0x00, 0x00, 0x00, 0x00, 0x0E, 0x00, 0x16, 0x00,
  0x00, 0x00, 0x10, 0x00, 0x0C, 0x00, 0x0B, 0x00, 0x04, 0x00,
  0x0E, 0x00, 0x00, 0x00, 0x18, 0x00, 0x00, 0x00, 0x00, 0x00,
  0x00, 0x37, 0x18, 0x00, 0x00, 0x00, 0x1C, 0x00, 0x00, 0x00,
  0x00, 0x00, 0x06, 0x00, 0x08, 0x00, 0x07, 0x00, 0x06, 0x00,
  0x00, 0x00, 0x00, 0x00, 0x00, 0x02, 0x01, 0x00, 0x00, 0x00,
  0x0C, 0x00, 0x00, 0x00, 0x01, 0x00, 0x00, 0x00, 0x00, 0x00,
  0x00, 0x00, 0x01, 0x00, 0x00, 0x00, 0x16, 0x00, 0x00, 0x00,
  0x01, 0x00, 0x00, 0x00, 0x00, 0x00, 0x00, 0x00, 0x17, 0x00,
  0x00, 0x00, 0x64, 0x0E, 0x00, 0x00, 0xF0, 0x0D, 0x00, 0x00,
  0x7C, 0x0D, 0x00, 0x00, 0x2C, 0x0D, 0x00, 0x00, 0xDC, 0x0C,
  0x00, 0x00, 0x90, 0x0C, 0x00, 0x00, 0x1C, 0x0C, 0x00, 0x00,
  0xB0, 0x0B, 0x00, 0x00, 0x7C, 0x0A, 0x00, 0x00, 0x30, 0x09,
  0x00, 0x00, 0x04, 0x08, 0x00, 0x00, 0x58, 0x06, 0x00, 0x00,
  0x0C, 0x06, 0x00, 0x00, 0xBC, 0x05, 0x00, 0x00, 0x68, 0x05,
  0x00, 0x00, 0xD8, 0x04, 0x00, 0x00, 0xCC, 0x03, 0x00, 0x00,
  0x38, 0x03, 0x00, 0x00, 0x24, 0x02, 0x00, 0x00, 0x90, 0x01,
  0x00, 0x00, 0x14, 0x01, 0x00, 0x00, 0x80, 0x00, 0x00, 0x00,
  0x04, 0x00, 0x00, 0x00, 0x0E, 0xF2, 0xFF, 0xFF, 0x00, 0x00,
  0x00, 0x01, 0x18, 0x00, 0x00, 0x00, 0x20, 0x00, 0x00, 0x00,
  0x3C, 0x00, 0x00, 0x00, 0x17, 0x00, 0x00, 0x00, 0x00, 0x00,
  0x00, 0x09, 0x50, 0x00, 0x00, 0x00, 0x02, 0x00, 0x00, 0x00,
  0xFF, 0xFF, 0xFF, 0xFF, 0x02, 0x00, 0x00, 0x00, 0xF4, 0xF1,
  0xFF, 0xFF, 0x08, 0x00, 0x00, 0x00, 0x10, 0x00, 0x00, 0x00,
  0x01, 0x00, 0x00, 0x00, 0x80, 0xFF, 0xFF, 0xFF, 0xFF, 0xFF,
  0xFF, 0xFF, 0x01, 0x00, 0x00, 0x00, 0x00, 0x00, 0x80, 0x3B,
  0x19, 0x00, 0x00, 0x00, 0x53, 0x74, 0x61, 0x74, 0x65, 0x66,
  0x75, 0x6C, 0x50, 0x61, 0x72, 0x74, 0x69, 0x74, 0x69, 0x6F,
  0x6E, 0x65, 0x64, 0x43, 0x61, 0x6C, 0x6C, 0x3A, 0x30, 0x00,
  0x00, 0x00, 0x02, 0x00, 0x00, 0x00, 0x01, 0x00, 0x00, 0x00,
  0x02, 0x00, 0x00, 0x00, 0x86, 0xF2, 0xFF, 0xFF, 0x00, 0x00,
  0x00, 0x01, 0x18, 0x00, 0x00, 0x00, 0x20, 0x00, 0x00, 0x00,
  0x3C, 0x00, 0x00, 0x00, 0x16, 0x00, 0x00, 0x00, 0x00, 0x00,
  0x00, 0x09, 0x68, 0x00, 0x00, 0x00, 0x02, 0x00, 0x00, 0x00,
  0xFF, 0xFF, 0xFF, 0xFF, 0x02, 0x00, 0x00, 0x00, 0x6C, 0xF2,
  0xFF, 0xFF, 0x08, 0x00, 0x00, 0x00, 0x10, 0x00, 0x00, 0x00,
  0x01, 0x00, 0x00, 0x00, 0x24, 0x00, 0x00, 0x00, 0x00, 0x00,
  0x00, 0x00, 0x01, 0x00, 0x00, 0x00, 0x4E, 0x05, 0x47, 0x3B,
  0x30, 0x00, 0x00, 0x00, 0x73, 0x65, 0x71, 0x75, 0x65, 0x6E,
  0x74, 0x69, 0x61, 0x6C, 0x2F, 0x64, 0x65, 0x6E, 0x73, 0x65,
  0x2F, 0x4D, 0x61, 0x74, 0x4D, 0x75, 0x6C, 0x3B, 0x73, 0x65,
  0x71, 0x75, 0x65, 0x6E, 0x74, 0x69, 0x61, 0x6C, 0x2F, 0x64,
  0x65, 0x6E, 0x73, 0x65, 0x2F, 0x42, 0x69, 0x61, 0x73, 0x41,
  0x64, 0x64, 0x00, 0x00, 0x00, 0x00, 0x02, 0x00, 0x00, 0x00,
  0x01, 0x00, 0x00, 0x00, 0x02, 0x00, 0x00, 0x00, 0x16, 0xF3,
  0xFF, 0xFF, 0x00, 0x00, 0x00, 0x01, 0x18, 0x00, 0x00, 0x00,
  0x20, 0x00, 0x00, 0x00, 0x3C, 0x00, 0x00, 0x00, 0x15, 0x00,
  0x00, 0x00, 0x00, 0x00, 0x00, 0x09, 0x50, 0x00, 0x00, 0x00,
  0x02, 0x00, 0x00, 0x00, 0xFF, 0xFF, 0xFF, 0xFF, 0x00, 0x04,
  0x00, 0x00, 0xFC, 0xF2, 0xFF, 0xFF, 0x08, 0x00, 0x00, 0x00,
  0x10, 0x00, 0x00, 0x00, 0x01, 0x00, 0x00, 0x00, 0x80, 0xFF,
  0xFF, 0xFF, 0xFF, 0xFF, 0xFF, 0xFF, 0x01, 0x00, 0x00, 0x00,
  0x6B, 0xCB, 0x0B, 0x3B, 0x1A, 0x00, 0x00, 0x00, 0x73, 0x65,
  0x71, 0x75, 0x65, 0x6E, 0x74, 0x69, 0x61, 0x6C, 0x2F, 0x66,
  0x6C, 0x61, 0x74, 0x74, 0x65, 0x6E, 0x2F, 0x52, 0x65, 0x73,
  0x68, 0x61, 0x70, 0x65, 0x00, 0x00, 0x02, 0x00, 0x00, 0x00,
  0x01, 0x00, 0x00, 0x00, 0x00, 0x04, 0x00, 0x00, 0x8E, 0xF3,
  0xFF, 0xFF, 0x00, 0x00, 0x00, 0x01, 0x18, 0x00, 0x00, 0x00,
  0x28, 0x00, 0x00, 0x00, 0x44, 0x00, 0x00, 0x00, 0x14, 0x00,
  0x00, 0x00, 0x00, 0x00, 0x00, 0x09, 0x60, 0x00, 0x00, 0x00,
  0x04, 0x00, 0x00, 0x00, 0xFF, 0xFF, 0xFF, 0xFF, 0x08, 0x00,
  0x00, 0x00, 0x08, 0x00, 0x00, 0x00, 0x10, 0x00, 0x00, 0x00,
  0x7C, 0xF3, 0xFF, 0xFF, 0x08, 0x00, 0x00, 0x00, 0x10, 0x00,
  0x00, 0x00, 0x01, 0x00, 0x00, 0x00, 0x80, 0xFF, 0xFF, 0xFF,
  0xFF, 0xFF, 0xFF, 0xFF, 0x01, 0x00, 0x00, 0x00, 0x6B, 0xCB,
  0x0B, 0x3B, 0x22, 0x00, 0x00, 0x00, 0x73, 0x65, 0x71, 0x75,
  0x65, 0x6E, 0x74, 0x69, 0x61, 0x6C, 0x2F, 0x6D, 0x61, 0x78,
  0x5F, 0x70, 0x6F, 0x6F, 0x6C, 0x69, 0x6E, 0x67, 0x32, 0x64,
  0x5F, 0x31, 0x2F, 0x4D, 0x61, 0x78, 0x50, 0x6F, 0x6F, 0x6C,
  0x00, 0x00, 0x04, 0x00, 0x00, 0x00, 0x01, 0x00, 0x00, 0x00,
  0x08, 0x00, 0x00, 0x00, 0x08, 0x00, 0x00, 0x00, 0x10, 0x00,
  0x00, 0x00, 0x1E, 0xF4, 0xFF, 0xFF, 0x00, 0x00, 0x00, 0x01,
  0x18, 0x00, 0x00, 0x00, 0x28, 0x00, 0x00, 0x00, 0x48, 0x00,
  0x00, 0x00, 0x13, 0x00, 0x00, 0x00, 0x00, 0x00, 0x00, 0x09,
  0xE0, 0x00, 0x00, 0x00, 0x04, 0x00, 0x00, 0x00, 0xFF, 0xFF,
  0xFF, 0xFF, 0x10, 0x00, 0x00, 0x00, 0x10, 0x00, 0x00, 0x00,
  0x10, 0x00, 0x00, 0x00, 0x0C, 0xF4, 0xFF, 0xFF, 0x08, 0x00,
  0x00, 0x00, 0x14, 0x00, 0x00, 0x00, 0x01, 0x00, 0x00, 0x00,
  0x80, 0xFF, 0xFF, 0xFF, 0xFF, 0xFF, 0xFF, 0xFF, 0x00, 0x00,
  0x00, 0x00, 0x01, 0x00, 0x00, 0x00, 0x6B, 0xCB, 0x0B, 0x3B,
  0x9D, 0x00, 0x00, 0x00, 0x73, 0x65, 0x71, 0x75, 0x65, 0x6E,
  0x74, 0x69, 0x61, 0x6C, 0x2F, 0x64, 0x65, 0x70, 0x74, 0x68,
  0x77, 0x69, 0x73, 0x65, 0x5F, 0x63, 0x6F, 0x6E, 0x76, 0x32,
  0x64, 0x2F, 0x52, 0x65, 0x6C, 0x75, 0x3B, 0x73, 0x65, 0x71,
  0x75, 0x65, 0x6E, 0x74, 0x69, 0x61, 0x6C, 0x2F, 0x64, 0x65,
  0x70, 0x74, 0x68, 0x77, 0x69, 0x73, 0x65, 0x5F, 0x63, 0x6F,
  0x6E, 0x76, 0x32, 0x64, 0x2F, 0x42, 0x69, 0x61, 0x73, 0x41,
  0x64, 0x64, 0x3B, 0x73, 0x65, 0x71, 0x75, 0x65, 0x6E, 0x74,
  0x69, 0x61, 0x6C, 0x2F, 0x64, 0x65, 0x70, 0x74, 0x68, 0x77,
  0x69, 0x73, 0x65, 0x5F, 0x63, 0x6F, 0x6E, 0x76, 0x32, 0x64,
  0x2F, 0x64, 0x65, 0x70, 0x74, 0x68, 0x77, 0x69, 0x73, 0x65,
  0x3B, 0x73, 0x65, 0x71, 0x75, 0x65, 0x6E, 0x74, 0x69, 0x61,
  0x6C, 0x2F, 0x64, 0x65, 0x70, 0x74, 0x68, 0x77, 0x69, 0x73,
  0x65, 0x5F, 0x63, 0x6F, 0x6E, 0x76, 0x32, 0x64, 0x2F, 0x42,
  0x69, 0x61, 0x73, 0x41, 0x64, 0x64, 0x2F, 0x52, 0x65, 0x61,
  0x64, 0x56, 0x61, 0x72, 0x69, 0x61, 0x62, 0x6C, 0x65, 0x4F,
  0x70, 0x00, 0x00, 0x00, 0x04, 0x00, 0x00, 0x00, 0x01, 0x00,
  0x00, 0x00, 0x10, 0x00, 0x00, 0x00, 0x10, 0x00, 0x00, 0x00,
  0x10, 0x00, 0x00, 0x00, 0x2E, 0xF5, 0xFF, 0xFF, 0x00, 0x00,
  0x00, 0x01, 0x18, 0x00, 0x00, 0x00, 0x28, 0x00, 0x00, 0x00,
  0x44, 0x00, 0x00, 0x00, 0x12, 0x00, 0x00, 0x00, 0x00, 0x00,
  0x00, 0x09, 0x60, 0x00, 0x00, 0x00, 0x04, 0x00, 0x00, 0x00,
  0xFF, 0xFF, 0xFF, 0xFF, 0x30, 0x00, 0x00, 0x00, 0x30, 0x00,
  0x00, 0x00, 0x10, 0x00, 0x00, 0x00, 0x1C, 0xF5, 0xFF, 0xFF,
  0x08, 0x00, 0x00, 0x00, 0x10, 0x00, 0x00, 0x00, 0x01, 0x00,
  0x00, 0x00, 0x80, 0xFF, 0xFF, 0xFF, 0xFF, 0xFF, 0xFF, 0xFF,
  0x01, 0x00, 0x00, 0x00, 0xA4, 0xE4, 0x7A, 0x3B, 0x20, 0x00,
  0x00, 0x00, 0x73, 0x65, 0x71, 0x75, 0x65, 0x6E, 0x74, 0x69,
  0x61, 0x6C, 0x2F, 0x6D, 0x61, 0x78, 0x5F, 0x70, 0x6F, 0x6F,
  0x6C, 0x69, 0x6E, 0x67, 0x32, 0x64, 0x2F, 0x4D, 0x61, 0x78,
  0x50, 0x6F, 0x6F, 0x6C, 0x00, 0x00, 0x00, 0x00, 0x04, 0x00,
  0x00, 0x00, 0x01, 0x00, 0x00, 0x00, 0x30, 0x00, 0x00, 0x00,
  0x30, 0x00, 0x00, 0x00, 0x10, 0x00, 0x00, 0x00, 0xBE, 0xF5,
  0xFF, 0xFF, 0x00, 0x00, 0x00, 0x01, 0x18, 0x00, 0x00, 0x00,
  0x28, 0x00, 0x00, 0x00, 0x44, 0x00, 0x00, 0x00, 0x11, 0x00,
  0x00, 0x00, 0x00, 0x00, 0x00, 0x09, 0xD8, 0x00, 0x00, 0x00,
  0x04, 0x00, 0x00, 0x00, 0xFF, 0xFF, 0xFF, 0xFF, 0x60, 0x00,
  0x00, 0x00, 0x60, 0x00, 0x00, 0x00, 0x10, 0x00, 0x00, 0x00,
  0xAC, 0xF5, 0xFF, 0xFF, 0x08, 0x00, 0x00, 0x00, 0x10, 0x00,
  0x00, 0x00, 0x01, 0x00, 0x00, 0x00, 0x80, 0xFF, 0xFF, 0xFF,
  0xFF, 0xFF, 0xFF, 0xFF, 0x01, 0x00, 0x00, 0x00, 0xA4, 0xE4,
  0x7A, 0x3B, 0x99, 0x00, 0x00, 0x00, 0x73, 0x65, 0x71, 0x75,
  0x65, 0x6E, 0x74, 0x69, 0x61, 0x6C, 0x2F, 0x63, 0x6F, 0x6E,
  0x76, 0x32, 0x64, 0x2F, 0x52, 0x65, 0x6C, 0x75, 0x3B, 0x73,
  0x65, 0x71, 0x75, 0x65, 0x6E, 0x74, 0x69, 0x61, 0x6C, 0x2F,
  0x63, 0x6F, 0x6E, 0x76, 0x32, 0x64, 0x2F, 0x42, 0x69, 0x61,
  0x73, 0x41, 0x64, 0x64, 0x3B, 0x73, 0x65, 0x71, 0x75, 0x65,
  0x6E, 0x74, 0x69, 0x61, 0x6C, 0x2F, 0x64, 0x65, 0x70, 0x74,
  0x68, 0x77, 0x69, 0x73, 0x65, 0x5F, 0x63, 0x6F, 0x6E, 0x76,
  0x32, 0x64, 0x2F, 0x64, 0x65, 0x70, 0x74, 0x68, 0x77, 0x69,
  0x73, 0x65, 0x3B, 0x73, 0x65, 0x71, 0x75, 0x65, 0x6E, 0x74,
  0x69, 0x61, 0x6C, 0x2F, 0x63, 0x6F, 0x6E, 0x76, 0x32, 0x64,
  0x2F, 0x43, 0x6F, 0x6E, 0x76, 0x32, 0x44, 0x3B, 0x73, 0x65,
  0x71, 0x75, 0x65, 0x6E, 0x74, 0x69, 0x61, 0x6C, 0x2F, 0x63,
  0x6F, 0x6E, 0x76, 0x32, 0x64, 0x2F, 0x42, 0x69, 0x61, 0x73,
  0x41, 0x64, 0x64, 0x2F, 0x52, 0x65, 0x61, 0x64, 0x56, 0x61,
  0x72, 0x69, 0x61, 0x62, 0x6C, 0x65, 0x4F, 0x70, 0x31, 0x00,
  0x00, 0x00, 0x04, 0x00, 0x00, 0x00, 0x01, 0x00, 0x00, 0x00,
  0x60, 0x00, 0x00, 0x00, 0x60, 0x00, 0x00, 0x00, 0x10, 0x00,
  0x00, 0x00, 0xC6, 0xF6, 0xFF, 0xFF, 0x00, 0x00, 0x00, 0x01,
  0x18, 0x00, 0x00, 0x00, 0x28, 0x00, 0x00, 0x00, 0x48, 0x00,
  0x00, 0x00, 0x10, 0x00, 0x00, 0x00, 0x00, 0x00, 0x00, 0x09,
  0x5C, 0x00, 0x00, 0x00, 0x04, 0x00, 0x00, 0x00, 0xFF, 0xFF,
  0xFF, 0xFF, 0x60, 0x00, 0x00, 0x00, 0x60, 0x00, 0x00, 0x00,
  0x01, 0x00, 0x00, 0x00, 0xB4, 0xF6, 0xFF, 0xFF, 0x08, 0x00,
  0x00, 0x00, 0x14, 0x00, 0x00, 0x00, 0x01, 0x00, 0x00, 0x00,
  0x80, 0xFF, 0xFF, 0xFF, 0xFF, 0xFF, 0xFF, 0xFF, 0x00, 0x00,
  0x00, 0x00, 0x01, 0x00, 0x00, 0x00, 0x00, 0x00, 0x80, 0x3F,
  0x1A, 0x00, 0x00, 0x00, 0x73, 0x65, 0x71, 0x75, 0x65, 0x6E,
  0x74, 0x69, 0x61, 0x6C, 0x2F, 0x72, 0x65, 0x73, 0x68, 0x61,
  0x70, 0x65, 0x2F, 0x52, 0x65, 0x73, 0x68, 0x61, 0x70, 0x65,
  0x00, 0x00, 0x04, 0x00, 0x00, 0x00, 0x01, 0x00, 0x00, 0x00,
  0x60, 0x00, 0x00, 0x00, 0x60, 0x00, 0x00, 0x00, 0x01, 0x00,
  0x00, 0x00, 0xC2, 0xF7, 0xFF, 0xFF, 0x00, 0x00, 0x00, 0x01,
  0x14, 0x00, 0x00, 0x00, 0x14, 0x00, 0x00, 0x00, 0x0F, 0x00,
  0x00, 0x00, 0x00, 0x00, 0x00, 0x02, 0x30, 0x00, 0x00, 0x00,
  0xAC, 0xF7, 0xFF, 0xFF, 0x20, 0x00, 0x00, 0x00, 0x73, 0x65,
  0x71, 0x75, 0x65, 0x6E, 0x74, 0x69, 0x61, 0x6C, 0x2F, 0x72,
  0x65, 0x73, 0x68, 0x61, 0x70, 0x65, 0x2F, 0x52, 0x65, 0x73,
  0x68, 0x61, 0x70, 0x65, 0x2F, 0x73, 0x68, 0x61, 0x70, 0x65,
  0x00, 0x00, 0x00, 0x00, 0x01, 0x00, 0x00, 0x00, 0x04, 0x00,
  0x00, 0x00, 0x12, 0xF8, 0xFF, 0xFF, 0x00, 0x00, 0x00, 0x01,
  0x14, 0x00, 0x00, 0x00, 0x14, 0x00, 0x00, 0x00, 0x0E, 0x00,
  0x00, 0x00, 0x00, 0x00, 0x00, 0x02, 0x30, 0x00, 0x00, 0x00,
  0xFC, 0xF7, 0xFF, 0xFF, 0x20, 0x00, 0x00, 0x00, 0x73, 0x65,
  0x71, 0x75, 0x65, 0x6E, 0x74, 0x69, 0x61, 0x6C, 0x2F, 0x72,
  0x65, 0x73, 0x68, 0x61, 0x70, 0x65, 0x2F, 0x73, 0x74, 0x72,
  0x69, 0x64, 0x65, 0x64, 0x5F, 0x73, 0x6C, 0x69, 0x63, 0x65,
  0x00, 0x00, 0x00, 0x00, 0x00, 0x00, 0x00, 0x00, 0x5E, 0xF8,
  0xFF, 0xFF, 0x00, 0x00, 0x00, 0x01, 0x14, 0x00, 0x00, 0x00,
  0x14, 0x00, 0x00, 0x00, 0x0D, 0x00, 0x00, 0x00, 0x00, 0x00,
  0x00, 0x02, 0x28, 0x00, 0x00, 0x00, 0x48, 0xF8, 0xFF, 0xFF,
  0x18, 0x00, 0x00, 0x00, 0x73, 0x65, 0x71, 0x75, 0x65, 0x6E,
  0x74, 0x69, 0x61, 0x6C, 0x2F, 0x72, 0x65, 0x73, 0x68, 0x61,
  0x70, 0x65, 0x2F, 0x53, 0x68, 0x61, 0x70, 0x65, 0x00, 0x00,
  0x00, 0x00, 0x01, 0x00, 0x00, 0x00, 0x03, 0x00, 0x00, 0x00,
  0xA6, 0xF8, 0xFF, 0xFF, 0x00, 0x00, 0x00, 0x01, 0x14, 0x00,
  0x00, 0x00, 0xE8, 0x00, 0x00, 0x00, 0x0C, 0x00, 0x00, 0x00,
  0x00, 0x00, 0x00, 0x09, 0x7C, 0x01, 0x00, 0x00, 0x0C, 0xF8,
  0xFF, 0xFF, 0x08, 0x00, 0x00, 0x00, 0x8C, 0x00, 0x00, 0x00,
  0x10, 0x00, 0x00, 0x00, 0x00, 0x00, 0x00, 0x00, 0x00, 0x00,
  0x00, 0x00, 0x00, 0x00, 0x00, 0x00, 0x00, 0x00, 0x00, 0x00,
  0x00, 0x00, 0x00, 0x00, 0x00, 0x00, 0x00, 0x00, 0x00, 0x00,
  0x00, 0x00, 0x00, 0x00, 0x00, 0x00, 0x00, 0x00, 0x00, 0x00,
  0x00, 0x00, 0x00, 0x00, 0x00, 0x00, 0x00, 0x00, 0x00, 0x00,
  0x00, 0x00, 0x00, 0x00, 0x00, 0x00, 0x00, 0x00, 0x00, 0x00,
  0x00, 0x00, 0x00, 0x00, 0x00, 0x00, 0x00, 0x00, 0x00, 0x00,
  0x00, 0x00, 0x00, 0x00, 0x00, 0x00, 0x00, 0x00, 0x00, 0x00,
  0x00, 0x00, 0x00, 0x00, 0x00, 0x00, 0x00, 0x00, 0x00, 0x00,
  0x00, 0x00, 0x00, 0x00, 0x00, 0x00, 0x00, 0x00, 0x00, 0x00,
  0x00, 0x00, 0x00, 0x00, 0x00, 0x00, 0x00, 0x00, 0x00, 0x00,
  0x00, 0x00, 0x00, 0x00, 0x00, 0x00, 0x00, 0x00, 0x00, 0x00,
  0x00, 0x00, 0x00, 0x00, 0x00, 0x00, 0x00, 0x00, 0x00, 0x00,
  0x00, 0x00, 0x00, 0x00, 0x00, 0x00, 0x10, 0x00, 0x00, 0x00,
  0x81, 0x7D, 0xC7, 0x36, 0xD7, 0x62, 0xC5, 0x36, 0x71, 0x8E,
  0xC7, 0x36, 0x10, 0x23, 0xCE, 0x36, 0x78, 0xCD, 0xA6, 0x36,
  0xAE, 0x7A, 0xC1, 0x36, 0xF5, 0xD5, 0xA6, 0x36, 0x41, 0x95,
  0x8B, 0x36, 0x84, 0x3D, 0xCF, 0x36, 0x64, 0x56, 0xC0, 0x36,
  0x42, 0xFA, 0xC8, 0x36, 0xF3, 0xBA, 0xD0, 0x36, 0xD5, 0x23,
  0x93, 0x36, 0x07, 0x53, 0xE2, 0x36, 0x67, 0x98, 0xD0, 0x36,
  0x88, 0x17, 0xA8, 0x36, 0x98, 0x00, 0x00, 0x00, 0x73, 0x65,
  0x71, 0x75, 0x65, 0x6E, 0x74, 0x69, 0x61, 0x6C, 0x2F, 0x63,
  0x6F, 0x6E, 0x76, 0x32, 0x64, 0x2F, 0x52, 0x65, 0x6C, 0x75,
  0x3B, 0x73, 0x65, 0x71, 0x75, 0x65, 0x6E, 0x74, 0x69, 0x61,
  0x6C, 0x2F, 0x63, 0x6F, 0x6E, 0x76, 0x32, 0x64, 0x2F, 0x42,
  0x69, 0x61, 0x73, 0x41, 0x64, 0x64, 0x3B, 0x73, 0x65, 0x71,
  0x75, 0x65, 0x6E, 0x74, 0x69, 0x61, 0x6C, 0x2F, 0x64, 0x65,
  0x70, 0x74, 0x68, 0x77, 0x69, 0x73, 0x65, 0x5F, 0x63, 0x6F,
  0x6E, 0x76, 0x32, 0x64, 0x2F, 0x64, 0x65, 0x70, 0x74, 0x68,
  0x77, 0x69, 0x73, 0x65, 0x3B, 0x73, 0x65, 0x71, 0x75, 0x65,
  0x6E, 0x74, 0x69, 0x61, 0x6C, 0x2F, 0x63, 0x6F, 0x6E, 0x76,
  0x32, 0x64, 0x2F, 0x43, 0x6F, 0x6E, 0x76, 0x32, 0x44, 0x3B,
  0x73, 0x65, 0x71, 0x75, 0x65, 0x6E, 0x74, 0x69, 0x61, 0x6C,
  0x2F, 0x63, 0x6F, 0x6E, 0x76, 0x32, 0x64, 0x2F, 0x42, 0x69,
  0x61, 0x73, 0x41, 0x64, 0x64, 0x2F, 0x52, 0x65, 0x61, 0x64,
  0x56, 0x61, 0x72, 0x69, 0x61, 0x62, 0x6C, 0x65, 0x4F, 0x70,
  0x00, 0x00, 0x00, 0x00, 0x04, 0x00, 0x00, 0x00, 0x10, 0x00,
  0x00, 0x00, 0x03, 0x00, 0x00, 0x00, 0x03, 0x00, 0x00, 0x00,
  0x01, 0x00, 0x00, 0x00, 0x4E, 0xFA, 0xFF, 0xFF, 0x00, 0x00,
  0x00, 0x01, 0x14, 0x00, 0x00, 0x00, 0xE4, 0x00, 0x00, 0x00,
  0x0B, 0x00, 0x00, 0x00, 0x00, 0x00, 0x00, 0x02, 0x08, 0x01,
  0x00, 0x00, 0xB4, 0xF9, 0xFF, 0xFF, 0x08, 0x00, 0x00, 0x00,
  0x88, 0x00, 0x00, 0x00, 0x10, 0x00, 0x00, 0x00, 0x00, 0x00,
  0x00, 0x00, 0x00, 0x00, 0x00, 0x00, 0x00, 0x00, 0x00, 0x00,
  0x00, 0x00, 0x00, 0x00, 0x00, 0x00, 0x00, 0x00, 0x00, 0x00,
  0x00, 0x00, 0x00, 0x00, 0x00, 0x00, 0x00, 0x00, 0x00, 0x00,
  0x00, 0x00, 0x00, 0x00, 0x00, 0x00, 0x00, 0x00, 0x00, 0x00,
  0x00, 0x00, 0x00, 0x00, 0x00, 0x00, 0x00, 0x00, 0x00, 0x00,
  0x00, 0x00, 0x00, 0x00, 0x00, 0x00, 0x00, 0x00, 0x00, 0x00,
  0x00, 0x00, 0x00, 0x00, 0x00, 0x00, 0x00, 0x00, 0x00, 0x00,
  0x00, 0x00, 0x00, 0x00, 0x00, 0x00, 0x00, 0x00, 0x00, 0x00,
  0x00, 0x00, 0x00, 0x00, 0x00, 0x00, 0x00, 0x00, 0x00, 0x00,
  0x00, 0x00, 0x00, 0x00, 0x00, 0x00, 0x00, 0x00, 0x00, 0x00,
  0x00, 0x00, 0x00, 0x00, 0x00, 0x00, 0x00, 0x00, 0x00, 0x00,
  0x00, 0x00, 0x00, 0x00, 0x00, 0x00, 0x00, 0x00, 0x00, 0x00,
  0x00, 0x00, 0x00, 0x00, 0x00, 0x00, 0x10, 0x00, 0x00, 0x00,
  0x81, 0x7D, 0xC7, 0x36, 0xD7, 0x62, 0xC5, 0x36, 0x71, 0x8E,
  0xC7, 0x36, 0x10, 0x23, 0xCE, 0x36, 0x78, 0xCD, 0xA6, 0x36,
  0xAE, 0x7A, 0xC1, 0x36, 0xF5, 0xD5, 0xA6, 0x36, 0x41, 0x95,
  0x8B, 0x36, 0x84, 0x3D, 0xCF, 0x36, 0x64, 0x56, 0xC0, 0x36,
  0x42, 0xFA, 0xC8, 0x36, 0xF3, 0xBA, 0xD0, 0x36, 0xD5, 0x23,
  0x93, 0x36, 0x07, 0x53, 0xE2, 0x36, 0x67, 0x98, 0xD0, 0x36,
  0x88, 0x17, 0xA8, 0x36, 0x28, 0x00, 0x00, 0x00, 0x73, 0x65,
  0x71, 0x75, 0x65, 0x6E, 0x74, 0x69, 0x61, 0x6C, 0x2F, 0x63,
  0x6F, 0x6E, 0x76, 0x32, 0x64, 0x2F, 0x42, 0x69, 0x61, 0x73,
  0x41, 0x64, 0x64, 0x2F, 0x52, 0x65, 0x61, 0x64, 0x56, 0x61,
  0x72, 0x69, 0x61, 0x62, 0x6C, 0x65, 0x4F, 0x70, 0x00, 0x00,
  0x00, 0x00, 0x01, 0x00, 0x00, 0x00, 0x10, 0x00, 0x00, 0x00,
  0x76, 0xFB, 0xFF, 0xFF, 0x00, 0x00, 0x00, 0x01, 0x28, 0x00,
  0x00, 0x00, 0xFC, 0x00, 0x00, 0x00, 0x0A, 0x00, 0x00, 0x00,
  0x00, 0x00, 0x00, 0x09, 0x1C, 0x01, 0x00, 0x00, 0x00, 0x00,
  0x12, 0x00, 0x10, 0x00, 0x00, 0x00, 0x00, 0x00, 0x0C, 0x00,
  0x08, 0x00, 0x00, 0x00, 0x00, 0x00, 0x04, 0x00, 0x12, 0x00,
  0x00, 0x00, 0x03, 0x00, 0x00, 0x00, 0x08, 0x00, 0x00, 0x00,
  0x88, 0x00, 0x00, 0x00, 0x10, 0x00, 0x00, 0x00, 0x00, 0x00,
  0x00, 0x00, 0x00, 0x00, 0x00, 0x00, 0x00, 0x00, 0x00, 0x00,
  0x00, 0x00, 0x00, 0x00, 0x00, 0x00, 0x00, 0x00, 0x00, 0x00,
  0x00, 0x00, 0x00, 0x00, 0x00, 0x00, 0x00, 0x00, 0x00, 0x00,
  0x00, 0x00, 0x00, 0x00, 0x00, 0x00, 0x00, 0x00, 0x00, 0x00,
  0x00, 0x00, 0x00, 0x00, 0x00, 0x00, 0x00, 0x00, 0x00, 0x00,
  0x00, 0x00, 0x00, 0x00, 0x00, 0x00, 0x00, 0x00, 0x00, 0x00,
  0x00, 0x00, 0x00, 0x00, 0x00, 0x00, 0x00, 0x00, 0x00, 0x00,
  0x00, 0x00, 0x00, 0x00, 0x00, 0x00, 0x00, 0x00, 0x00, 0x00,
  0x00, 0x00, 0x00, 0x00, 0x00, 0x00, 0x00, 0x00, 0x00, 0x00,
  0x00, 0x00, 0x00, 0x00, 0x00, 0x00, 0x00, 0x00, 0x00, 0x00,
  0x00, 0x00, 0x00, 0x00, 0x00, 0x00, 0x00, 0x00, 0x00, 0x00,
  0x00, 0x00, 0x00, 0x00, 0x00, 0x00, 0x00, 0x00, 0x00, 0x00,
  0x00, 0x00, 0x00, 0x00, 0x00, 0x00, 0x10, 0x00, 0x00, 0x00,
  0xFC, 0xC2, 0x28, 0x3A, 0xA6, 0x23, 0x26, 0x3A, 0x9B, 0x05,
  0x1F, 0x3A, 0x10, 0x9D, 0x2B, 0x3A, 0x35, 0xEA, 0x49, 0x3A,
  0x58, 0xA1, 0x47, 0x3A, 0xBF, 0x3E, 0x31, 0x3A, 0x27, 0x27,
  0x2D, 0x3A, 0xCB, 0xE3, 0x2C, 0x3A, 0xDE, 0xC6, 0x2A, 0x3A,
  0xE3, 0x11, 0x20, 0x3A, 0x97, 0xCE, 0x27, 0x3A, 0x89, 0xCB,
  0x2B, 0x3A, 0xB9, 0x05, 0x49, 0x3A, 0x86, 0xE6, 0x26, 0x3A,
  0xE1, 0xBA, 0x2A, 0x3A, 0x25, 0x00, 0x00, 0x00, 0x73, 0x65,
  0x71, 0x75, 0x65, 0x6E, 0x74, 0x69, 0x61, 0x6C, 0x2F, 0x64,
  0x65, 0x70, 0x74, 0x68, 0x77, 0x69, 0x73, 0x65, 0x5F, 0x63,
  0x6F, 0x6E, 0x76, 0x32, 0x64, 0x2F, 0x64, 0x65, 0x70, 0x74,
  0x68, 0x77, 0x69, 0x73, 0x65, 0x00, 0x00, 0x00, 0x04, 0x00,
  0x00, 0x00, 0x01, 0x00, 0x00, 0x00, 0x08, 0x00, 0x00, 0x00,
  0x08, 0x00, 0x00, 0x00, 0x10, 0x00, 0x00, 0x00, 0xBE, 0xFC,
  0xFF, 0xFF, 0x00, 0x00, 0x00, 0x01, 0x14, 0x00, 0x00, 0x00,
  0xE4, 0x00, 0x00, 0x00, 0x09, 0x00, 0x00, 0x00, 0x00, 0x00,
  0x00, 0x02, 0x10, 0x01, 0x00, 0x00, 0x24, 0xFC, 0xFF, 0xFF,
  0x08, 0x00, 0x00, 0x00, 0x88, 0x00, 0x00, 0x00, 0x10, 0x00,
  0x00, 0x00, 0x00, 0x00, 0x00, 0x00, 0x00, 0x00, 0x00, 0x00,
  0x00, 0x00, 0x00, 0x00, 0x00, 0x00, 0x00, 0x00, 0x00, 0x00,
  0x00, 0x00, 0x00, 0x00, 0x00, 0x00, 0x00, 0x00, 0x00, 0x00,
  0x00, 0x00, 0x00, 0x00, 0x00, 0x00, 0x00, 0x00, 0x00, 0x00,
  0x00, 0x00, 0x00, 0x00, 0x00, 0x00, 0x00, 0x00, 0x00, 0x00,
  0x00, 0x00, 0x00, 0x00, 0x00, 0x00, 0x00, 0x00, 0x00, 0x00,
  0x00, 0x00, 0x00, 0x00, 0x00, 0x00, 0x00, 0x00, 0x00, 0x00,
  0x00, 0x00, 0x00, 0x00, 0x00, 0x00, 0x00, 0x00, 0x00, 0x00,
  0x00, 0x00, 0x00, 0x00, 0x00, 0x00, 0x00, 0x00, 0x00, 0x00,
  0x00, 0x00, 0x00, 0x00, 0x00, 0x00, 0x00, 0x00, 0x00, 0x00,
  0x00, 0x00, 0x00, 0x00, 0x00, 0x00, 0x00, 0x00, 0x00, 0x00,
  0x00, 0x00, 0x00, 0x00, 0x00, 0x00, 0x00, 0x00, 0x00, 0x00,
  0x00, 0x00, 0x00, 0x00, 0x00, 0x00, 0x00, 0x00, 0x00, 0x00,
  0x10, 0x00, 0x00, 0x00, 0x24, 0x65, 0x25, 0x36, 0x32, 0xD3,
  0x22, 0x36, 0x80, 0xD9, 0x1B, 0x36, 0xA7, 0x30, 0x28, 0x36,
  0x0E, 0xE3, 0x45, 0x36, 0xDC, 0xA5, 0x43, 0x36, 0x94, 0xB5,
  0x2D, 0x36, 0xE2, 0xB2, 0x29, 0x36, 0xDE, 0x70, 0x29, 0x36,
  0xBB, 0x5E, 0x27, 0x36, 0x6E, 0xE0, 0x1C, 0x36, 0x9F, 0x75,
  0x24, 0x36, 0x33, 0x5E, 0x28, 0x36, 0x21, 0x03, 0x45, 0x36,
  0x2F, 0x92, 0x23, 0x36, 0xFC, 0x52, 0x27, 0x36, 0x32, 0x00,
  0x00, 0x00, 0x73, 0x65, 0x71, 0x75, 0x65, 0x6E, 0x74, 0x69,
  0x61, 0x6C, 0x2F, 0x64, 0x65, 0x70, 0x74, 0x68, 0x77, 0x69,
  0x73, 0x65, 0x5F, 0x63, 0x6F, 0x6E, 0x76, 0x32, 0x64, 0x2F,
  0x42, 0x69, 0x61, 0x73, 0x41, 0x64, 0x64, 0x2F, 0x52, 0x65,
  0x61, 0x64, 0x56, 0x61, 0x72, 0x69, 0x61, 0x62, 0x6C, 0x65,
  0x4F, 0x70, 0x00, 0x00, 0x01, 0x00, 0x00, 0x00, 0x10, 0x00,
  0x00, 0x00, 0xEE, 0xFD, 0xFF, 0xFF, 0x00, 0x00, 0x00, 0x01,
  0x14, 0x00, 0x00, 0x00, 0x34, 0x00, 0x00, 0x00, 0x08, 0x00,
  0x00, 0x00, 0x00, 0x00, 0x00, 0x09, 0x44, 0x00, 0x00, 0x00,
  0x54, 0xFD, 0xFF, 0xFF, 0x08, 0x00, 0x00, 0x00, 0x14, 0x00,
  0x00, 0x00, 0x01, 0x00, 0x00, 0x00, 0x00, 0x00, 0x00, 0x00,
  0x00, 0x00, 0x00, 0x00, 0x00, 0x00, 0x00, 0x00, 0x01, 0x00,
  0x00, 0x00, 0xC4, 0x6F, 0x48, 0x3A, 0x17, 0x00, 0x00, 0x00,
  0x73, 0x65, 0x71, 0x75, 0x65, 0x6E, 0x74, 0x69, 0x61, 0x6C,
  0x2F, 0x64, 0x65, 0x6E, 0x73, 0x65, 0x2F, 0x4D, 0x61, 0x74,
  0x4D, 0x75, 0x6C, 0x00, 0x02, 0x00, 0x00, 0x00, 0x02, 0x00,
  0x00, 0x00, 0x00, 0x04, 0x00, 0x00, 0x56, 0xFE, 0xFF, 0xFF,
  0x00, 0x00, 0x00, 0x01, 0x14, 0x00, 0x00, 0x00, 0x30, 0x00,
  0x00, 0x00, 0x07, 0x00, 0x00, 0x00, 0x00, 0x00, 0x00, 0x02,
  0x50, 0x00, 0x00, 0x00, 0xBC, 0xFD, 0xFF, 0xFF, 0x08, 0x00,
  0x00, 0x00, 0x10, 0x00, 0x00, 0x00, 0x01, 0x00, 0x00, 0x00,
  0x00, 0x00, 0x00, 0x00, 0x00, 0x00, 0x00, 0x00, 0x01, 0x00,
  0x00, 0x00, 0xE8, 0xE7, 0xDA, 0x35, 0x27, 0x00, 0x00, 0x00,
  0x73, 0x65, 0x71, 0x75, 0x65, 0x6E, 0x74, 0x69, 0x61, 0x6C,
  0x2F, 0x64, 0x65, 0x6E, 0x73, 0x65, 0x2F, 0x42, 0x69, 0x61,
  0x73, 0x41, 0x64, 0x64, 0x2F, 0x52, 0x65, 0x61, 0x64, 0x56,
  0x61, 0x72, 0x69, 0x61, 0x62, 0x6C, 0x65, 0x4F, 0x70, 0x00,
  0x01, 0x00, 0x00, 0x00, 0x02, 0x00, 0x00, 0x00, 0xC6, 0xFE,
  0xFF, 0xFF, 0x00, 0x00, 0x00, 0x01, 0x14, 0x00, 0x00, 0x00,
  0x14, 0x00, 0x00, 0x00, 0x06, 0x00, 0x00, 0x00, 0x00, 0x00,
  0x00, 0x02, 0x28, 0x00, 0x00, 0x00, 0xB0, 0xFE, 0xFF, 0xFF,
  0x18, 0x00, 0x00, 0x00, 0x73, 0x65, 0x71, 0x75, 0x65, 0x6E,
  0x74, 0x69, 0x61, 0x6C, 0x2F, 0x66, 0x6C, 0x61, 0x74, 0x74,
  0x65, 0x6E, 0x2F, 0x43, 0x6F, 0x6E, 0x73, 0x74, 0x00, 0x00,
  0x00, 0x00, 0x01, 0x00, 0x00, 0x00, 0x02, 0x00, 0x00, 0x00,
  0x0E, 0xFF, 0xFF, 0xFF, 0x00, 0x00, 0x00, 0x01, 0x14, 0x00,
  0x00, 0x00, 0x14, 0x00, 0x00, 0x00, 0x03, 0x00, 0x00, 0x00,
  0x00, 0x00, 0x00, 0x02, 0x30, 0x00, 0x00, 0x00, 0xF8, 0xFE,
  0xFF, 0xFF, 0x22, 0x00, 0x00, 0x00, 0x73, 0x65, 0x71, 0x75,
  0x65, 0x6E, 0x74, 0x69, 0x61, 0x6C, 0x2F, 0x72, 0x65, 0x73,
  0x68, 0x61, 0x70, 0x65, 0x2F, 0x52, 0x65, 0x73, 0x68, 0x61,
  0x70, 0x65, 0x2F, 0x73, 0x68, 0x61, 0x70, 0x65, 0x2F, 0x33,
  0x00, 0x00, 0x00, 0x00, 0x00, 0x00, 0x5A, 0xFF, 0xFF, 0xFF,
  0x00, 0x00, 0x00, 0x01, 0x14, 0x00, 0x00, 0x00, 0x14, 0x00,
  0x00, 0x00, 0x04, 0x00, 0x00, 0x00, 0x00, 0x00, 0x00, 0x02,
  0x30, 0x00, 0x00, 0x00, 0x44, 0xFF, 0xFF, 0xFF, 0x22, 0x00,
  0x00, 0x00, 0x73, 0x65, 0x71, 0x75, 0x65, 0x6E, 0x74, 0x69,
  0x61, 0x6C, 0x2F, 0x72, 0x65, 0x73, 0x68, 0x61, 0x70, 0x65,
  0x2F, 0x52, 0x65, 0x73, 0x68, 0x61, 0x70, 0x65, 0x2F, 0x73,
  0x68, 0x61, 0x70, 0x65, 0x2F, 0x31, 0x00, 0x00, 0x00, 0x00,
  0x00, 0x00, 0xA6, 0xFF, 0xFF, 0xFF, 0x00, 0x00, 0x00, 0x01,
  0x14, 0x00, 0x00, 0x00, 0x14, 0x00, 0x00, 0x00, 0x03, 0x00,
  0x00, 0x00, 0x00, 0x00, 0x00, 0x02, 0x38, 0x00, 0x00, 0x00,
  0x90, 0xFF, 0xFF, 0xFF, 0x28, 0x00, 0x00, 0x00, 0x73, 0x65,
  0x71, 0x75, 0x65, 0x6E, 0x74, 0x69, 0x61, 0x6C, 0x2F, 0x72,
  0x65, 0x73, 0x68, 0x61, 0x70, 0x65, 0x2F, 0x73, 0x74, 0x72,
  0x69, 0x64, 0x65, 0x64, 0x5F, 0x73, 0x6C, 0x69, 0x63, 0x65,
  0x2F, 0x73, 0x74, 0x61, 0x63, 0x6B, 0x5F, 0x31, 0x00, 0x00,
  0x00, 0x00, 0x01, 0x00, 0x00, 0x00, 0x01, 0x00, 0x00, 0x00,
  0x00, 0x00, 0x16, 0x00, 0x1C, 0x00, 0x18, 0x00, 0x17, 0x00,
  0x10, 0x00, 0x0C, 0x00, 0x08, 0x00, 0x00, 0x00, 0x00, 0x00,
  0x00, 0x00, 0x07, 0x00, 0x16, 0x00, 0x00, 0x00, 0x00, 0x00,
  0x00, 0x01, 0x18, 0x00, 0x00, 0x00, 0x18, 0x00, 0x00, 0x00,
  0x02, 0x00, 0x00, 0x00, 0x00, 0x00, 0x00, 0x02, 0x38, 0x00,
  0x00, 0x00, 0x04, 0x00, 0x04, 0x00, 0x04, 0x00, 0x00, 0x00,
  0x26, 0x00, 0x00, 0x00, 0x73, 0x65, 0x71, 0x75, 0x65, 0x6E,
  0x74, 0x69, 0x61, 0x6C, 0x2F, 0x72, 0x65, 0x73, 0x68, 0x61,
  0x70, 0x65, 0x2F, 0x73, 0x74, 0x72, 0x69, 0x64, 0x65, 0x64,
  0x5F, 0x73, 0x6C, 0x69, 0x63, 0x65, 0x2F, 0x73, 0x74, 0x61,
  0x63, 0x6B, 0x00, 0x00, 0x01, 0x00, 0x00, 0x00, 0x01, 0x00,
  0x00, 0x00, 0x00, 0x00, 0x16, 0x00, 0x20, 0x00, 0x1C, 0x00,
  0x1B, 0x00, 0x14, 0x00, 0x10, 0x00, 0x0C, 0x00, 0x00, 0x00,
  0x00, 0x00, 0x08, 0x00, 0x07, 0x00, 0x16, 0x00, 0x00, 0x00,
  0x00, 0x00, 0x00, 0x01, 0x18, 0x00, 0x00, 0x00, 0x30, 0x00,
  0x00, 0x00, 0x50, 0x00, 0x00, 0x00, 0x01, 0x00, 0x00, 0x00,
  0x00, 0x00, 0x00, 0x09, 0x68, 0x00, 0x00, 0x00, 0x03, 0x00,
  0x00, 0x00, 0xFF, 0xFF, 0xFF, 0xFF, 0x60, 0x00, 0x00, 0x00,
  0x60, 0x00, 0x00, 0x00, 0x0C, 0x00, 0x0C, 0x00, 0x00, 0x00,
  0x00, 0x00, 0x08, 0x00, 0x04, 0x00, 0x0C, 0x00, 0x00, 0x00,
  0x08, 0x00, 0x00, 0x00, 0x14, 0x00, 0x00, 0x00, 0x01, 0x00,
  0x00, 0x00, 0x80, 0xFF, 0xFF, 0xFF, 0xFF, 0xFF, 0xFF, 0xFF,
  0x00, 0x00, 0x00, 0x00, 0x01, 0x00, 0x00, 0x00, 0x00, 0x00,
  0x80, 0x3F, 0x1F, 0x00, 0x00, 0x00, 0x73, 0x65, 0x72, 0x76,
  0x69, 0x6E, 0x67, 0x5F, 0x64, 0x65, 0x66, 0x61, 0x75, 0x6C,
  0x74, 0x5F, 0x72, 0x65, 0x73, 0x68, 0x61, 0x70, 0x65, 0x5F,
  0x69, 0x6E, 0x70, 0x75, 0x74, 0x3A, 0x30, 0x00, 0x03, 0x00,
  0x00, 0x00, 0x01, 0x00, 0x00, 0x00, 0x60, 0x00, 0x00, 0x00,
  0x60, 0x00, 0x00, 0x00, 0x09, 0x00, 0x00, 0x00, 0xB0, 0x00,
  0x00, 0x00, 0x94, 0x00, 0x00, 0x00, 0x84, 0x00, 0x00, 0x00,
  0x74, 0x00, 0x00, 0x00, 0x60, 0x00, 0x00, 0x00, 0x40, 0x00,
  0x00, 0x00, 0x2C, 0x00, 0x00, 0x00, 0x18, 0x00, 0x00, 0x00,
  0x04, 0x00, 0x00, 0x00, 0xC0, 0xFF, 0xFF, 0xFF, 0x19, 0x00,
  0x00, 0x00, 0x02, 0x00, 0x00, 0x00, 0x00, 0x00, 0x00, 0x19,
  0xD0, 0xFF, 0xFF, 0xFF, 0x09, 0x00, 0x00, 0x00, 0x04, 0x00,
  0x00, 0x00, 0x00, 0x00, 0x00, 0x09, 0xE0, 0xFF, 0xFF, 0xFF,
  0x04, 0x00, 0x00, 0x00, 0x03, 0x00, 0x00, 0x00, 0x00, 0x00,
  0x00, 0x04, 0xF0, 0xFF, 0xFF, 0xFF, 0x11, 0x00, 0x00, 0x00,
  0x02, 0x00, 0x00, 0x00, 0x00, 0x00, 0x00, 0x11, 0x0C, 0x00,
  0x10, 0x00, 0x0F, 0x00, 0x00, 0x00, 0x08, 0x00, 0x04, 0x00,
  0x0C, 0x00, 0x00, 0x00, 0x03, 0x00, 0x00, 0x00, 0x03, 0x00,
  0x00, 0x00, 0x00, 0x00, 0x00, 0x03, 0xDC, 0xFF, 0xFF, 0xFF,
  0x16, 0x00, 0x00, 0x00, 0x00, 0x00, 0x00, 0x16, 0xE8, 0xFF,
  0xFF, 0xFF, 0x53, 0x00, 0x00, 0x00, 0x00, 0x00, 0x00, 0x53,
  0xF4, 0xFF, 0xFF, 0xFF, 0x2D, 0x00, 0x00, 0x00, 0x00, 0x00,
  0x00, 0x2D, 0x0C, 0x00, 0x0C, 0x00, 0x0B, 0x00, 0x00, 0x00,
  0x00, 0x00, 0x04, 0x00, 0x0C, 0x00, 0x00, 0x00, 0x4D, 0x00,
  0x00, 0x00, 0x00, 0x00, 0x00, 0x4D
};
unsigned int model_tflite_len = 8936;
