#include "person_detect_model_data.h"

const unsigned char model_tflite[] = {
  0x1C, 0x00, 0x00, 0x00, 0x54, 0x46, 0x4C, 0x33, 0x14, 0x00,
  0x20, 0x00, 0x1C, 0x00, 0x18, 0x00, 0x14, 0x00, 0x10, 0x00,
  0x0C, 0x00, 0x00, 0x00, 0x08, 0x00, 0x04, 0x00, 0x14, 0x00,
  0x00, 0x00, 0x1C, 0x00, 0x00, 0x00, 0x88, 0x00, 0x00, 0x00,
  0xE0, 0x00, 0x00, 0x00, 0xA4, 0x0F, 0x00, 0x00, 0xB4, 0x0F,
  0x00, 0x00, 0xF4, 0x21, 0x00, 0x00, 0x03, 0x00, 0x00, 0x00,
  0x01, 0x00, 0x00, 0x00, 0x04, 0x00, 0x00, 0x00, 0x3A, 0xEE,
  0xFF, 0xFF, 0x0C, 0x00, 0x00, 0x00, 0x1C, 0x00, 0x00, 0x00,
  0x38, 0x00, 0x00, 0x00, 0x0F, 0x00, 0x00, 0x00, 0x73, 0x65,
  0x72, 0x76, 0x69, 0x6E, 0x67, 0x5F, 0x64, 0x65, 0x66, 0x61,
  0x75, 0x6C, 0x74, 0x00, 0x01, 0x00, 0x00, 0x00, 0x04, 0x00,
  0x00, 0x00, 0x94, 0xFF, 0xFF, 0xFF, 0x16, 0x00, 0x00, 0x00,
  0x04, 0x00, 0x00, 0x00, 0x05, 0x00, 0x00, 0x00, 0x64, 0x65,
  0x6E, 0x73, 0x65, 0x00, 0x00, 0x00, 0x01, 0x00, 0x00, 0x00,
  0x04, 0x00, 0x00, 0x00, 0x3E, 0xEE, 0xFF, 0xFF, 0x04, 0x00,
  0x00, 0x00, 0x0D, 0x00, 0x00, 0x00, 0x72, 0x65, 0x73, 0x68,
  0x61, 0x70, 0x65, 0x5F, 0x69, 0x6E, 0x70, 0x75, 0x74, 0x00,
  0x00, 0x00, 0x02, 0x00, 0x00, 0x00, 0x34, 0x00, 0x00, 0x00,
  0x04, 0x00, 0x00, 0x00, 0xDC, 0xFF, 0xFF, 0xFF, 0x19, 0x00,
  0x00, 0x00, 0x04, 0x00, 0x00, 0x00, 0x13, 0x00, 0x00, 0x00,
  0x43, 0x4F, 0x4E, 0x56, 0x45, 0x52, 0x53, 0x49, 0x4F, 0x4E,
  0x5F, 0x4D, 0x45, 0x54, 0x41, 0x44, 0x41, 0x54, 0x41, 0x00,
  0x08, 0x00, 0x0C, 0x00, 0x08, 0x00, 0x04, 0x00, 0x08, 0x00,
  0x00, 0x00, 0x18, 0x00, 0x00, 0x00, 0x04, 0x00, 0x00, 0x00,
  0x13, 0x00, 0x00, 0x00, 0x6D, 0x69, 0x6E, 0x5F, 0x72, 0x75,
  0x6E, 0x74, 0x69, 0x6D, 0x65, 0x5F, 0x76, 0x65, 0x72, 0x73,
  0x69, 0x6F, 0x6E, 0x00, 0x1A, 0x00, 0x00, 0x00, 0xC0, 0x0E,
  0x00, 0x00, 0xB8, 0x0E, 0x00, 0x00, 0xA4, 0x0E, 0x00, 0x00,
  0x90, 0x0E, 0x00, 0x00, 0x7C, 0x0E, 0x00, 0x00, 0x74, 0x0E,
  0x00, 0x00, 0x5C, 0x0E, 0x00, 0x00, 0x44, 0x0E, 0x00, 0x00,
  0x34, 0x06, 0x00, 0x00, 0xE4, 0x05, 0x00, 0x00, 0xD4, 0x01,
  0x00, 0x00, 0x84, 0x01, 0x00, 0x00, 0xE4, 0x00, 0x00, 0x00,
  0xDC, 0x00, 0x00, 0x00, 0xD4, 0x00, 0x00, 0x00, 0xCC, 0x00,
  0x00, 0x00, 0xC4, 0x00, 0x00, 0x00, 0xBC, 0x00, 0x00, 0x00,
  0xB4, 0x00, 0x00, 0x00, 0xAC, 0x00, 0x00, 0x00, 0xA4, 0x00,
  0x00, 0x00, 0x9C, 0x00, 0x00, 0x00, 0x94, 0x00, 0x00, 0x00,
  0x8C, 0x00, 0x00, 0x00, 0x6C, 0x00, 0x00, 0x00, 0x04, 0x00,
  0x00, 0x00, 0x22, 0xEF, 0xFF, 0xFF, 0x04, 0x00, 0x00, 0x00,
  0x58, 0x00, 0x00, 0x00, 0x0C, 0x00, 0x00, 0x00, 0x08, 0x00,
  0x0E, 0x00, 0x08, 0x00, 0x04, 0x00, 0x08, 0x00, 0x00, 0x00,
  0x10, 0x00, 0x00, 0x00, 0x28, 0x00, 0x00, 0x00, 0x00, 0x00,
  0x06, 0x00, 0x08, 0x00, 0x04, 0x00, 0x06, 0x00, 0x00, 0x00,
  0x04, 0x00, 0x00, 0x00, 0x01, 0x00, 0x00, 0x00, 0xEB, 0x03,
  0x00, 0x00, 0x00, 0x00, 0x0A, 0x00, 0x10, 0x00, 0x0C, 0x00,
  0x08, 0x00, 0x04, 0x00, 0x0A, 0x00, 0x00, 0x00, 0x01, 0x00,
  0x00, 0x00, 0x02, 0x00, 0x00, 0x00, 0x04, 0x00, 0x00, 0x00,
  0x06, 0x00, 0x00, 0x00, 0x32, 0x2E, 0x31, 0x31, 0x2E, 0x30,
  0x00, 0x00, 0x86, 0xEF, 0xFF, 0xFF, 0x04, 0x00, 0x00, 0x00,
  0x10, 0x00, 0x00, 0x00, 0x31, 0x2E, 0x31, 0x34, 0x2E, 0x30,
  0x00, 0x00, 0x00, 0x00, 0x00, 0x00, 0x00, 0x00, 0x00, 0x00,
  0xB4, 0xE0, 0xFF, 0xFF, 0xB8, 0xE0, 0xFF, 0xFF, 0xBC, 0xE0,
  0xFF, 0xFF, 0xC0, 0xE0, 0xFF, 0xFF, 0xC4, 0xE0, 0xFF, 0xFF,
  0xC8, 0xE0, 0xFF, 0xFF, 0xCC, 0xE0, 0xFF, 0xFF, 0xD0, 0xE0,
  0xFF, 0xFF, 0xD4, 0xE0, 0xFF, 0xFF, 0xD8, 0xE0, 0xFF, 0xFF,
  0xDC, 0xE0, 0xFF, 0xFF, 0xCE, 0xEF, 0xFF, 0xFF, 0x04, 0x00,
  0x00, 0x00, 0x90, 0x00, 0x00, 0x00, 0x6F, 0x64, 0x81, 0x67,
  0x51, 0xB7, 0xAE, 0x40, 0xF5, 0xBC, 0x81, 0x98, 0x0C, 0x3B,
  0x84, 0xD5, 0x39, 0x9C, 0x51, 0x81, 0x5F, 0xE6, 0xBE, 0x98,
  0x32, 0x63, 0xD2, 0x0B, 0x4A, 0x5D, 0x7F, 0x6B, 0x6C, 0xF2,
  0x34, 0xE4, 0x51, 0x59, 0x87, 0x74, 0xD4, 0x9F, 0x81, 0xBC,
  0x18, 0x81, 0x66, 0xB0, 0x93, 0xAF, 0x5B, 0x98, 0x61, 0xF0,
  0x9B, 0x4A, 0x75, 0xE0, 0xC5, 0x06, 0x7F, 0xC3, 0x2D, 0x92,
  0x9A, 0x08, 0x22, 0x3A, 0x7F, 0xA3, 0xF6, 0x24, 0xD8, 0xBE,
  0x7A, 0x81, 0xDC, 0x4C, 0x36, 0xA5, 0xB8, 0x1A, 0x7F, 0x0F,
  0xC0, 0xED, 0xFF, 0x0A, 0x9F, 0xDB, 0x26, 0x8F, 0x54, 0xDA,
  0x2E, 0x0D, 0x8C, 0x7A, 0x7F, 0x67, 0xD3, 0xCD, 0xD2, 0x81,
  0xE9, 0x4C, 0x33, 0x3A, 0x9C, 0x5C, 0x2B, 0x9D, 0x8D, 0x7F,
  0xF1, 0xB8, 0x52, 0x42, 0x7D, 0x07, 0xB8, 0x8D, 0xC3, 0x73,
  0x5A, 0x7F, 0xED, 0x44, 0x0A, 0xBC, 0xD7, 0x14, 0x4A, 0x41,
  0x81, 0x12, 0x0A, 0xA2, 0xAE, 0xC4, 0xDB, 0x7F, 0x13, 0x49,
  0x6A, 0xF0, 0xFF, 0xFF, 0x04, 0x00, 0x00, 0x00, 0x40, 0x00,
  0x00, 0x00, 0xF7, 0xFA, 0xFF, 0xFF, 0x9E, 0xFC, 0xFF, 0xFF,
  0x12, 0x00, 0x00, 0x00, 0x85, 0x01, 0x00, 0x00, 0x41, 0xFE,
  0xFF, 0xFF, 0xAC, 0xF8, 0xFF, 0xFF, 0x14, 0xFC, 0xFF, 0xFF,
  0xE2, 0x03, 0x00, 0x00, 0x78, 0x02, 0x00, 0x00, 0x91, 0x0B,
  0x00, 0x00, 0xE4, 0x00, 0x00, 0x00, 0x9B, 0x06, 0x00, 0x00,
  0x37, 0x09, 0x00, 0x00, 0x92, 0xF5, 0xFF, 0xFF, 0x6A, 0x03,
  0x00, 0x00, 0xB7, 0xFB, 0xFF, 0xFF, 0xB6, 0xF0, 0xFF, 0xFF,
  0x04, 0x00, 0x00, 0x00, 0x00, 0x04, 0x00, 0x00, 0xBC, 0xEE,
  0xDA, 0xD1, 0xD4, 0x78, 0x39, 0x9E, 0x05, 0x31, 0xE7, 0x0C,
  0x52, 0x32, 0x0B, 0xA0, 0x12, 0xE1, 0x2A, 0x14, 0x29, 0xF3,
  0x4D, 0x77, 0x69, 0x52, 0x1C, 0xC4, 0x4B, 0x32, 0xC5, 0x04,
  0x9D, 0x0A, 0x9E, 0x05, 0x26, 0xDD, 0x47, 0x01, 0xD3, 0x7E,
  0x7E, 0x20, 0x98, 0xDD, 0xF6, 0xE2, 0xFB, 0x28, 0xFB, 0xCB,
  0x2F, 0x14, 0x34, 0xCA, 0x7F, 0x37, 0xA9, 0xC9, 0x7F, 0x5B,
  0x05, 0x14, 0xC8, 0x55, 0xF8, 0x3C, 0x4F, 0xDC, 0x99, 0xD0,
  0x03, 0x16, 0x04, 0x26, 0x7C, 0xF3, 0x6E, 0xFB, 0xCC, 0x02,
  0x23, 0x7F, 0x50, 0xA1, 0x2F, 0x0E, 0xE0, 0x68, 0x70, 0xFF,
  0xCB, 0x75, 0x84, 0x06, 0x69, 0x8D, 0xF6, 0xF2, 0xC7, 0xE5,
  0x32, 0xF5, 0x8C, 0x13, 0x62, 0xBD, 0x79, 0x73, 0x52, 0xBB,
  0x76, 0xF6, 0x85, 0x83, 0x05, 0x43, 0xBA, 0xAD, 0x54, 0x47,
  0x31, 0x25, 0x50, 0x60, 0x5A, 0xA1, 0x9A, 0xA0, 0xC4, 0xFE,
  0xD9, 0xD7, 0x40, 0x67, 0xA8, 0x37, 0x4F, 0x24, 0xD0, 0x9C,
  0x93, 0x98, 0x9D, 0xAB, 0xB5, 0xBC, 0x14, 0xB0, 0x99, 0x0A,
  0xBA, 0x04, 0xAF, 0xC2, 0x48, 0x93, 0xF6, 0xFD, 0xC2, 0x8B,
  0x45, 0x54, 0x4C, 0x1D, 0x05, 0xB8, 0x01, 0x18, 0x10, 0xA1,
  0x24, 0xEE, 0x8D, 0xD5, 0xA4, 0x98, 0x78, 0xAC, 0x7A, 0xE8,
  0xAB, 0x47, 0x41, 0xD0, 0x02, 0xEA, 0x0B, 0x5C, 0x1D, 0xA4,
  0x98, 0xFD, 0xDC, 0x22, 0x00, 0xD0, 0xDA, 0xB9, 0xC1, 0xB0,
  0xF2, 0x7B, 0xFA, 0xB8, 0xF2, 0x41, 0x7F, 0x1A, 0x8C, 0x16,
  0x0C, 0xAF, 0xA8, 0x16, 0xF8, 0xF3, 0x6B, 0x3A, 0xEB, 0xAC,
  0x0F, 0x5E, 0x5B, 0x5E, 0x5C, 0xFB, 0x65, 0x33, 0x8E, 0x8F,
  0x5C, 0x1B, 0xBB, 0x79, 0x4B, 0x35, 0x68, 0x6D, 0xD0, 0xB3,
  0xC5, 0x87, 0xAE, 0x31, 0xA6, 0xDA, 0x52, 0x5B, 0xF8, 0xED,
  0xB5, 0x6D, 0x6D, 0xB6, 0x72, 0x26, 0xFD, 0xC8, 0x47, 0x71,
  0x2F, 0x57, 0xB8, 0x2E, 0xCA, 0xFF, 0x9E, 0x25, 0xD8, 0xB0,
  0x90, 0x31, 0xCE, 0xF9, 0xD8, 0xDA, 0x58, 0x76, 0xDD, 0x3E,
  0xF0, 0xC4, 0xBD, 0x1D, 0x91, 0xF1, 0x10, 0x2B, 0xDF, 0xAF,
  0xAC, 0x48, 0xB7, 0x2D, 0x73, 0xC0, 0x6F, 0xC1, 0xF9, 0xBC,
  0x09, 0xB2, 0x1C, 0x16, 0x3F, 0x76, 0x57, 0xCD, 0xEF, 0xEE,
  0x55, 0xD0, 0xA7, 0x58, 0x60, 0xD1, 0x81, 0x43, 0xDE, 0x97,
  0x79, 0x53, 0x5A, 0xE1, 0x16, 0xB9, 0x1B, 0xF6, 0xCD, 0xBC,
  0x28, 0x6E, 0x1B, 0x1F, 0xEF, 0x13, 0xDC, 0x4B, 0x70, 0x38,
  0xD3, 0x3A, 0x04, 0xA9, 0xD0, 0x13, 0x33, 0x02, 0x81, 0xD2,
  0x29, 0xF9, 0x95, 0xD5, 0x24, 0xD8, 0xC5, 0xB6, 0xFA, 0x97,
  0x79, 0xBE, 0x44, 0xFF, 0xF0, 0x50, 0x73, 0x8F, 0x50, 0xA0,
  0xB4, 0xBA, 0x3C, 0xE7, 0xDE, 0x97, 0xF8, 0xE0, 0x62, 0x61,
  0xAC, 0xAB, 0x1F, 0xA9, 0x91, 0xEC, 0xF0, 0x34, 0x9A, 0x12,
  0xE4, 0xE2, 0xFC, 0xC2, 0x9F, 0x93, 0x9C, 0xAC, 0xEA, 0xD4,
  0x5A, 0x63, 0x5A, 0xA5, 0xEB, 0x3D, 0x32, 0xFA, 0x03, 0xE6,
  0xDD, 0x28, 0x4B, 0x2B, 0x54, 0x07, 0x5A, 0x67, 0x03, 0x44,
  0xCE, 0xA4, 0xB2, 0xFA, 0x09, 0x23, 0xF1, 0x9C, 0x2B, 0x56,
  0x0F, 0x23, 0x4A, 0xF4, 0x27, 0x0E, 0x53, 0x1F, 0x09, 0x30,
  0x59, 0xF8, 0x22, 0xD7, 0x68, 0x4E, 0xDE, 0xD5, 0xD0, 0x04,
  0x68, 0x56, 0xC0, 0x48, 0xE4, 0xF2, 0x2C, 0xC2, 0xF5, 0x74,
  0xEB, 0x3D, 0x67, 0xCF, 0xDC, 0xBB, 0xF4, 0x14, 0x25, 0xCA,
  0x07, 0x20, 0xF8, 0x77, 0xB9, 0x8A, 0xB3, 0xB3, 0xBA, 0x70,
  0xE2, 0xD5, 0x2D, 0xDD, 0x26, 0x3D, 0x3C, 0xFD, 0xFA, 0x12,
  0x1C, 0xE9, 0xEB, 0xC0, 0xFC, 0xE0, 0x5F, 0x85, 0xA3, 0xBE,
  0x81, 0xBC, 0x16, 0xC9, 0x75, 0x2C, 0xD2, 0x36, 0xA9, 0x97,
  0x3B, 0x23, 0x81, 0x17, 0x00, 0x61, 0xB2, 0x73, 0xB0, 0xDC,
  0x0B, 0x34, 0x43, 0xB8, 0x77, 0xA7, 0x6C, 0xC9, 0x75, 0x0F,
  0xB0, 0x15, 0x87, 0x5D, 0xBD, 0x31, 0x22, 0x73, 0x1C, 0x8F,
  0x8B, 0x25, 0xC8, 0xCF, 0x1A, 0x77, 0x99, 0xC8, 0xCA, 0xE3,
  0xA9, 0xF3, 0x32, 0xC1, 0x48, 0x19, 0x5B, 0x3D, 0xC0, 0xD4,
  0x40, 0x6E, 0x39, 0x41, 0x0B, 0xC8, 0x03, 0x1E, 0xB4, 0x7C,
  0x63, 0xC8, 0x91, 0x91, 0xD3, 0xAD, 0x3B, 0x75, 0x4C, 0x46,
  0x9C, 0x26, 0x2B, 0x24, 0x2F, 0xCE, 0xCB, 0x64, 0x27, 0x25,
  0x17, 0xAC, 0x64, 0xDC, 0x39, 0xAA, 0xB8, 0xBF, 0xC5, 0x48,
  0xEB, 0xFE, 0x06, 0xE8, 0xD3, 0x0A, 0xAE, 0x42, 0x5B, 0x8D,
  0x2B, 0xDC, 0x47, 0x60, 0x1B, 0x07, 0xDD, 0x48, 0xFD, 0xD9,
  0xD6, 0x42, 0xF2, 0x00, 0x4B, 0xBC, 0xF4, 0xC5, 0xC0, 0x06,
  0xF5, 0x31, 0x28, 0x4D, 0x21, 0x44, 0xC7, 0x95, 0xE1, 0xD8,
  0xBA, 0xCA, 0xC8, 0x22, 0xC6, 0xA3, 0x51, 0xFC, 0x5D, 0xF0,
  0xDA, 0xB0, 0xC3, 0x5A, 0xA8, 0xEB, 0x66, 0x39, 0x46, 0x6D,
  0x94, 0xA1, 0xFE, 0x20, 0xE8, 0xB7, 0x6E, 0x15, 0x9C, 0x65,
  0x6E, 0xC9, 0x22, 0x02, 0xEE, 0xCC, 0xB0, 0x3C, 0x18, 0x1E,
  0xD1, 0x4C, 0xEE, 0x05, 0x27, 0x6D, 0x9A, 0x36, 0x22, 0x43,
  0xD4, 0x81, 0x17, 0x81, 0xC1, 0x7A, 0x17, 0x74, 0x66, 0xB6,
  0xAF, 0xD8, 0x63, 0x0E, 0xCE, 0x51, 0x83, 0x09, 0x52, 0xC4,
  0x8C, 0x33, 0xE0, 0xD9, 0x19, 0xA1, 0x02, 0xD0, 0x72, 0xB1,
  0xAC, 0x7A, 0xFC, 0xFE, 0x00, 0xBF, 0x37, 0x4D, 0x11, 0xBC,
  0xEC, 0xE9, 0x04, 0x14, 0x72, 0xCF, 0xFC, 0x32, 0xFE, 0x55,
  0x1D, 0xCA, 0xEB, 0xE6, 0x7F, 0x36, 0xF8, 0xEA, 0x2F, 0x1E,
  0xA7, 0x5F, 0x96, 0x49, 0x90, 0x20, 0xD2, 0x46, 0xFE, 0x2A,
  0x30, 0x75, 0x1A, 0x8D, 0xC8, 0xEE, 0x5A, 0x9D, 0xE5, 0x5B,
  0xF2, 0xF1, 0xF7, 0x73, 0xD8, 0x7F, 0x49, 0xC7, 0x57, 0x66,
  0x3C, 0xE1, 0x40, 0xDB, 0x3F, 0x12, 0xB4, 0xB3, 0x0F, 0x22,
  0x1B, 0x2D, 0x6E, 0x75, 0xE3, 0x48, 0x07, 0x10, 0x69, 0xC4,
  0x3D, 0x56, 0x26, 0x4D, 0xD9, 0xBA, 0x08, 0x13, 0x0A, 0x5D,
  0x61, 0xA7, 0x12, 0xA9, 0x42, 0x17, 0x1A, 0x48, 0xBE, 0xB2,
  0x14, 0x0A, 0xBB, 0x60, 0x3F, 0x6B, 0x4A, 0xF7, 0xA8, 0xB4,
  0x2F, 0x5F, 0xA4, 0x0D, 0xF7, 0x08, 0x31, 0xD2, 0x51, 0x56,
  0x79, 0x66, 0x00, 0x90, 0x44, 0x68, 0x68, 0x09, 0x08, 0xD3,
  0xDB, 0xE1, 0xF6, 0x55, 0x30, 0xF8, 0xC0, 0xF4, 0x2D, 0xCB,
  0x13, 0xF8, 0x43, 0xCE, 0x21, 0xB2, 0x0B, 0x25, 0xB7, 0x4A,
  0xC9, 0x0B, 0xD7, 0x13, 0x54, 0x22, 0x94, 0x9F, 0xA8, 0x4E,
  0x29, 0x36, 0xD2, 0xF6, 0xF0, 0x3E, 0xC8, 0x13, 0x4F, 0xFB,
  0x73, 0xDD, 0xCF, 0x97, 0x0C, 0xBF, 0xB6, 0x97, 0x99, 0x24,
  0xF9, 0x70, 0x2D, 0x57, 0x6C, 0xCD, 0x28, 0xE0, 0xDA, 0xE3,
  0x04, 0x66, 0xAF, 0x7E, 0xC9, 0x7D, 0xCB, 0x3E, 0xD0, 0x21,
  0x12, 0xF5, 0x2C, 0xE8, 0x23, 0x7F, 0xA3, 0x51, 0xAC, 0xF0,
  0x7F, 0xE0, 0x05, 0x9F, 0x17, 0xC0, 0xA0, 0x4B, 0x6E, 0xE4,
  0x98, 0x2A, 0xA9, 0x22, 0x21, 0x66, 0xD5, 0xB5, 0x22, 0xB8,
  0x00, 0x0C, 0xEB, 0xCE, 0xE3, 0x7F, 0xBE, 0x20, 0x6A, 0x42,
  0x49, 0xCA, 0xDD, 0x33, 0x2E, 0xE7, 0xE9, 0x07, 0xC1, 0x01,
  0x93, 0xD9, 0x7D, 0xED, 0xF7, 0x97, 0x6A, 0xB3, 0x26, 0x1E,
  0x47, 0x4A, 0x11, 0xBC, 0xC7, 0x43, 0x0D, 0x69, 0x07, 0x30,
  0xC0, 0xFB, 0xBF, 0x35, 0x73, 0xA5, 0xB6, 0xBA, 0xF1, 0x4F,
  0x5F, 0x7F, 0x75, 0xFA, 0x04, 0x56, 0x6E, 0x81, 0x29, 0x71,
  0x15, 0x39, 0x3A, 0x63, 0xA4, 0x20, 0xAF, 0xF0, 0x28, 0xD8,
  0xBF, 0x17, 0xC2, 0xF4, 0xFF, 0xFF, 0x04, 0x00, 0x00, 0x00,
  0x40, 0x00, 0x00, 0x00, 0xE8, 0x05, 0x00, 0x00, 0x52, 0xEE,
  0xFF, 0xFF, 0xC4, 0x09, 0x00, 0x00, 0x7F, 0x07, 0x00, 0x00,
  0x93, 0x00, 0x00, 0x00, 0x18, 0xE8, 0xFF, 0xFF, 0x04, 0x00,
  0x00, 0x00, 0xAF, 0xFA, 0xFF, 0xFF, 0x77, 0x05, 0x00, 0x00,
  0x65, 0x0E, 0x00, 0x00, 0xAB, 0x08, 0x00, 0x00, 0x7D, 0x03,
  0x00, 0x00, 0xF6, 0xFE, 0xFF, 0xFF, 0x7E, 0x03, 0x00, 0x00,
  0x2B, 0x0A, 0x00, 0x00, 0xB5, 0x06, 0x00, 0x00, 0x0E, 0xF5,
  0xFF, 0xFF, 0x04, 0x00, 0x00, 0x00, 0x00, 0x08, 0x00, 0x00,
  0x06, 0x08, 0xD5, 0x3F, 0x1D, 0xBE, 0x03, 0xC2, 0xC1, 0x4E,
  0xDA, 0xFA, 0xFB, 0x9D, 0xE8, 0xFC, 0xA7, 0x2D, 0xB4, 0x45,
  0x1F, 0xF7, 0x01, 0x1D, 0xB4, 0x27, 0xDD, 0x39, 0xA6, 0x19,
  0xCB, 0xA0, 0x26, 0x1A, 0xCD, 0x16, 0x02, 0xE2, 0xB9, 0xAD,
  0xB7, 0xA1, 0xB4, 0x02, 0x25, 0x09, 0xE7, 0xD9, 0x35, 0xEB,
  0xC0, 0x35, 0xDD, 0x40, 0x22, 0xE4, 0x42, 0xF7, 0x28, 0xE8,
  0xF6, 0xE1, 0x50, 0x31, 0xDC, 0xB3, 0x3A, 0x50, 0xFD, 0x3A,
  0x4E, 0xFD, 0xFD, 0xE6, 0xA4, 0xFF, 0x30, 0x01, 0xC8, 0xE9,
  0xCD, 0xD9, 0xC2, 0xA3, 0xF1, 0x01, 0x12, 0xBD, 0xA6, 0x50,
  0xFC, 0x3C, 0xC5, 0xBA, 0x41, 0x29, 0x0A, 0x36, 0xBD, 0x01,
  0xA7, 0xC6, 0xB1, 0x10, 0xFC, 0x0C, 0x06, 0xA0, 0xD6, 0x40,
  0x3E, 0xE0, 0x01, 0xD2, 0x01, 0xA6, 0x5F, 0xB4, 0xB9, 0xB6,
  0x2C, 0x36, 0xFC, 0xCD, 0xC0, 0x2F, 0x1D, 0x24, 0x46, 0xED,
  0xAB, 0x44, 0x0A, 0x2C, 0x14, 0x10, 0x46, 0x13, 0xE9, 0xA7,
  0xEA, 0xF7, 0xEA, 0xE9, 0x4A, 0x3C, 0x4C, 0xEC, 0xE2, 0x31,
  0xC1, 0x0B, 0x4C, 0xDA, 0x1E, 0x35, 0xE5, 0xFE, 0x18, 0x53,
  0xA6, 0xDD, 0xFE, 0x12, 0xDF, 0xBE, 0x17, 0xE0, 0xF1, 0xEE,
  0x1C, 0x15, 0xAA, 0x36, 0xF3, 0xEA, 0xF9, 0x0B, 0x42, 0xEC,
  0xE9, 0xC0, 0xFD, 0x3B, 0x3A, 0xB5, 0xE2, 0xAF, 0x94, 0xD3,
  0xDB, 0x48, 0xC9, 0xA7, 0xBE, 0xEA, 0x43, 0xEB, 0xA6, 0x41,
  0x04, 0xC8, 0x06, 0x0F, 0x9A, 0x49, 0x20, 0x46, 0x21, 0xBF,
  0xB7, 0xAA, 0x37, 0x1B, 0x01, 0x8F, 0xA3, 0x13, 0x20, 0xB3,
  0xE4, 0xC4, 0xC2, 0xAB, 0xD5, 0xA0, 0x03, 0xFD, 0xBA, 0x24,
  0x46, 0xCB, 0x2B, 0xC0, 0x2D, 0xE0, 0x8B, 0x38, 0xCF, 0x00,
  0x20, 0xDD, 0xCE, 0xEE, 0xDC, 0x14, 0xE3, 0x12, 0xEE, 0xD6,
  0x3A, 0x2F, 0xA4, 0x1E, 0xA5, 0xA5, 0x43, 0x0A, 0xEF, 0x21,
  0xC7, 0xED, 0xE0, 0xB6, 0x51, 0xDD, 0x04, 0x15, 0xC0, 0xF2,
  0x4C, 0x2D, 0xCE, 0x25, 0x3A, 0x55, 0x2E, 0x3A, 0x2B, 0x32,
  0x4D, 0x35, 0x10, 0x20, 0x93, 0x25, 0x30, 0x53, 0xB4, 0x3B,
  0xCF, 0xF4, 0x2B, 0xE0, 0x9E, 0xB9, 0x00, 0x01, 0xE3, 0x48,
  0x21, 0x2F, 0x0F, 0x35, 0x22, 0xE4, 0x3D, 0xFC, 0xAA, 0x1B,
  0xEC, 0xA0, 0x98, 0x05, 0xB4, 0x48, 0xCE, 0xDB, 0x1D, 0xCC,
  0xF9, 0x2A, 0xAE, 0xC6, 0xE9, 0xB4, 0x3B, 0x0C, 0x1C, 0xCF,
  0x48, 0xBD, 0xD8, 0xE8, 0xE0, 0x67, 0xC1, 0x08, 0xDB, 0xFB,
  0xD2, 0xE0, 0xF7, 0xA7, 0xB4, 0x2E, 0x23, 0xE1, 0xDA, 0xF5,
  0xBB, 0x43, 0xCB, 0xD6, 0xC8, 0xBA, 0x1C, 0x9C, 0x23, 0xC8,
  0xA6, 0x0D, 0xFC, 0xF9, 0x00, 0x04, 0xBE, 0x33, 0x1F, 0x41,
  0x51, 0xCC, 0x28, 0x1A, 0xD7, 0x44, 0xF5, 0x4D, 0xB1, 0xFA,
  0x4F, 0xCD, 0xE6, 0xCF, 0xDE, 0xEE, 0x18, 0xDF, 0x59, 0x1E,
  0x1F, 0xDD, 0x50, 0x03, 0xF7, 0xDD, 0x0E, 0x1E, 0xD4, 0x48,
  0xBB, 0x51, 0x3A, 0x29, 0xFB, 0xB9, 0xAA, 0x11, 0xEE, 0x42,
  0xCB, 0x32, 0xCD, 0xEE, 0x20, 0x00, 0xFB, 0x27, 0xF2, 0x4A,
  0xA7, 0xB9, 0xD4, 0x4C, 0x2B, 0x46, 0x4C, 0xDA, 0x0E, 0x37,
  0x49, 0xD9, 0xCE, 0x10, 0x03, 0xC9, 0x01, 0xB7, 0x41, 0x3C,
  0x4C, 0x54, 0xA0, 0x4C, 0xD6, 0xE7, 0xE5, 0x5E, 0x10, 0x3A,
  0xAA, 0xBD, 0xA0, 0xC8, 0x09, 0xF9, 0xD5, 0x65, 0x4B, 0x47,
  0x22, 0xBA, 0x2F, 0x6B, 0x43, 0xCB, 0xC7, 0xF8, 0xFC, 0xA2,
  0xEB, 0x38, 0x48, 0x67, 0x10, 0x4E, 0xD8, 0xEE, 0x15, 0xCC,
  0xAC, 0x59, 0xC6, 0xD8, 0x49, 0x0B, 0x13, 0x4F, 0x16, 0x72,
  0x33, 0x5B, 0x38, 0x2B, 0xFA, 0x6C, 0xB5, 0x02, 0xB1, 0xC9,
  0x24, 0x40, 0xE7, 0x39, 0xA0, 0x18, 0xD9, 0x6C, 0xCA, 0xFC,
  0xAA, 0xF5, 0xD7, 0x14, 0x24, 0xE9, 0x19, 0x17, 0x52, 0x07,
  0xDA, 0x1D, 0xB3, 0x39, 0x35, 0x24, 0xB4, 0xC6, 0xA1, 0x34,
  0x0C, 0xA2, 0xAA, 0xF7, 0x14, 0xF4, 0x45, 0xDF, 0x1F, 0x2F,
  0x32, 0x2D, 0xFB, 0x1A, 0x11, 0x4B, 0xCC, 0x23, 0x45, 0xE0,
  0x00, 0xA8, 0xB4, 0x16, 0x47, 0x17, 0x39, 0x28, 0xC7, 0xB9,
  0x56, 0x3D, 0xC8, 0x45, 0xB8, 0xA5, 0xB6, 0xFD, 0xB3, 0xEC,
  0xD2, 0x1F, 0xB2, 0x52, 0xE8, 0xE1, 0xFE, 0x27, 0x22, 0x08,
  0x51, 0x3F, 0xFC, 0x2E, 0xDE, 0x52, 0x2B, 0xCC, 0x03, 0x07,
  0x2C, 0x34, 0xB8, 0x55, 0x62, 0xC5, 0x05, 0x0B, 0x02, 0x46,
  0xCB, 0xFD, 0xD4, 0x2C, 0x98, 0xD1, 0xE9, 0x08, 0xD5, 0xE3,
  0xCF, 0xF2, 0xDA, 0x47, 0x16, 0xBC, 0x2B, 0x56, 0xD3, 0x1E,
  0x18, 0xC7, 0xF9, 0x41, 0x19, 0x10, 0x5F, 0xB4, 0xBF, 0xF0,
  0xD9, 0xD5, 0xDA, 0x67, 0xCF, 0x42, 0x40, 0xFD, 0x3A, 0x13,
  0x32, 0xE7, 0xE2, 0xFD, 0xB0, 0xBA, 0x60, 0x22, 0x30, 0x6A,
  0xD7, 0x06, 0x38, 0x26, 0x18, 0x2A, 0xF3, 0xE2, 0xC0, 0x42,
  0xD2, 0xDD, 0x5E, 0x5E, 0x49, 0x19, 0xE0, 0x0A, 0x19, 0xC3,
  0xF7, 0xB2, 0x1F, 0xC4, 0xDE, 0xCC, 0x3E, 0xBD, 0xB6, 0x26,
  0x12, 0xE0, 0xD0, 0x08, 0x2F, 0xE1, 0xB9, 0xBB, 0x48, 0xDE,
  0xFC, 0xEE, 0x5A, 0x3B, 0x55, 0xD2, 0x3C, 0x7F, 0xEE, 0xD6,
  0x3F, 0xEE, 0x2F, 0xDC, 0xA7, 0xCE, 0xAF, 0xBD, 0xAD, 0x52,
  0xFE, 0x22, 0x22, 0x68, 0xCF, 0xE7, 0xA7, 0xEA, 0x38, 0xF5,
  0xF6, 0x10, 0x26, 0xB5, 0x39, 0x26, 0x14, 0xBC, 0xE8, 0x6C,
  0x00, 0x53, 0xB7, 0x07, 0x5B, 0x4C, 0x1B, 0x3A, 0xDB, 0xF7,
  0x69, 0x34, 0x0D, 0xAF, 0x2E, 0xD6, 0x1C, 0xAE, 0xA4, 0x5A,
  0x31, 0x49, 0xFE, 0xF3, 0x21, 0xE3, 0xE9, 0xC2, 0xC7, 0xBD,
  0xC7, 0xEE, 0x9D, 0x2D, 0xEB, 0x13, 0xEF, 0xD3, 0x29, 0xB9,
  0x01, 0xE1, 0xC5, 0x3E, 0x10, 0x4A, 0x41, 0x73, 0xCC, 0xE9,
  0xE3, 0xCB, 0xEF, 0xBD, 0xC1, 0x0A, 0xD2, 0xFD, 0x0E, 0xDD,
  0xFB, 0x2E, 0xF8, 0x50, 0xCE, 0xCA, 0xDE, 0xD9, 0x4B, 0x2A,
  0xDF, 0xAD, 0xB1, 0xC1, 0xFA, 0x12, 0x0C, 0xF4, 0xA2, 0x28,
  0xD8, 0xE1, 0xF7, 0xDB, 0xBB, 0xD5, 0xFD, 0x00, 0xD0, 0xE4,
  0xD5, 0xBC, 0x2D, 0xC2, 0xC6, 0x04, 0x1F, 0xD9, 0xD7, 0x03,
  0xB2, 0xAB, 0xBC, 0xF7, 0xDB, 0x4B, 0xD2, 0x48, 0xF4, 0x3D,
  0x34, 0x5F, 0x4D, 0x25, 0x4E, 0x1F, 0xBD, 0x43, 0xD6, 0xF9,
  0x31, 0xDA, 0x26, 0x52, 0xFC, 0x00, 0xE9, 0x2C, 0xA3, 0x1C,
  0xC5, 0xD8, 0x51, 0xF0, 0xC1, 0xB9, 0x2E, 0xD2, 0xF6, 0xB1,
  0xD2, 0x5A, 0xCB, 0x49, 0x2B, 0x0E, 0x28, 0xBC, 0xEC, 0xD9,
  0xF7, 0x20, 0xCA, 0xD5, 0x1E, 0xF8, 0xC1, 0x34, 0x22, 0x42,
  0x00, 0xCB, 0xCF, 0xF2, 0x39, 0x42, 0xAE, 0xCA, 0xAF, 0x1C,
  0xD0, 0x22, 0xE8, 0xDF, 0x40, 0x12, 0xBF, 0x40, 0x53, 0xCA,
  0x1F, 0xDA, 0xD3, 0x35, 0x25, 0xC0, 0x45, 0xA7, 0x3F, 0xA5,
  0x00, 0xC0, 0xEB, 0xED, 0xFF, 0x9E, 0x4E, 0x0B, 0x04, 0xCE,
  0x33, 0x43, 0x31, 0x07, 0xE9, 0xFF, 0xA7, 0x39, 0x17, 0xAC,
  0xFB, 0x42, 0x2E, 0x2E, 0xA6, 0xD5, 0xE6, 0xB6, 0x28, 0xF9,
  0xBE, 0xE2, 0xDA, 0x25, 0xAD, 0xE2, 0x3D, 0x12, 0x2C, 0x26,
  0x2B, 0x0C, 0x49, 0x30, 0xCE, 0x0E, 0xF8, 0x07, 0xF7, 0x4B,
  0xB0, 0x19, 0x39, 0x36, 0xB9, 0x3E, 0x12, 0x4E, 0xAA, 0xDF,
  0xF0, 0x29, 0xEB, 0xFD, 0xB4, 0xCF, 0xDA, 0xD9, 0x3E, 0x26,
  0xD1, 0xFD, 0x11, 0x50, 0x03, 0x16, 0x2C, 0xB9, 0x49, 0x1E,
  0x50, 0xDB, 0xB0, 0x46, 0xE8, 0xF2, 0x10, 0x5C, 0xD5, 0x40,
  0x28, 0xF0, 0xF6, 0xF1, 0x1B, 0x13, 0x1F, 0x05, 0xC7, 0x59,
  0xA4, 0xCF, 0x00, 0xC3, 0xFB, 0xB4, 0x43, 0xC7, 0x4D, 0xF8,
  0xFC, 0x24, 0x17, 0xF0, 0xB1, 0x30, 0x1B, 0x1D, 0xDA, 0xBB,
  0x32, 0xDA, 0x32, 0x33, 0xC5, 0xFE, 0xE4, 0x14, 0xB9, 0xC8,
  0x45, 0xEC, 0xFC, 0x0F, 0xD0, 0x63, 0xC6, 0x39, 0x2A, 0xD1,
  0x27, 0xE6, 0xB0, 0xD7, 0x52, 0xD9, 0xFD, 0x19, 0xE9, 0x26,
  0xA9, 0xAE, 0x4E, 0x51, 0xD5, 0x57, 0x3D, 0xBB, 0x16, 0xFC,
  0x47, 0x1D, 0x58, 0x41, 0xCE, 0x19, 0xF2, 0xC9, 0xCE, 0x4D,
  0xD8, 0x43, 0xD3, 0x60, 0xC9, 0x50, 0x4F, 0xFF, 0x05, 0x2B,
  0x1B, 0x00, 0x46, 0x36, 0xE8, 0xD0, 0xEF, 0x5A, 0xDD, 0xD4,
  0xAA, 0xE9, 0x57, 0x59, 0x65, 0xCD, 0xED, 0xEF, 0xF7, 0xF7,
  0x01, 0x11, 0xD1, 0x60, 0xC6, 0xCF, 0xF5, 0x4D, 0xFE, 0xEB,
  0x14, 0x25, 0x2B, 0xDC, 0xC9, 0xF0, 0x62, 0xEF, 0xDA, 0xF5,
  0xA2, 0xB8, 0x38, 0x48, 0x10, 0x40, 0xF3, 0xB2, 0x4C, 0x37,
  0x45, 0xCF, 0x39, 0x42, 0xD7, 0x27, 0xEB, 0xFF, 0xBD, 0xEB,
  0x28, 0xD8, 0x2B, 0xD7, 0x1E, 0xFF, 0x12, 0xFA, 0xB5, 0xE4,
  0x2F, 0xCE, 0x0B, 0x2A, 0xE2, 0xB1, 0x5E, 0xF9, 0x24, 0x02,
  0x6E, 0xDF, 0xB4, 0x41, 0x23, 0xF5, 0x2D, 0xDA, 0x3F, 0x40,
  0x1A, 0xB7, 0x43, 0x25, 0xAF, 0x3D, 0x60, 0x0E, 0x02, 0xB5,
  0xE4, 0x0F, 0x3D, 0x31, 0x2E, 0xCF, 0xB1, 0xF7, 0x1B, 0x47,
  0x24, 0x4A, 0x29, 0x11, 0x0D, 0x36, 0x2C, 0xED, 0x63, 0xAF,
  0x03, 0x28, 0x1F, 0x1B, 0xC4, 0x34, 0xB5, 0xDF, 0x58, 0x12,
  0xDC, 0x63, 0xBC, 0x09, 0x25, 0x2F, 0x21, 0x38, 0xDC, 0x77,
  0xF6, 0xC2, 0x24, 0xCC, 0xDA, 0xC2, 0xD4, 0x32, 0x63, 0xC7,
  0x0B, 0xF3, 0x66, 0x0B, 0xC9, 0xFE, 0xDC, 0xF0, 0xC0, 0x03,
  0x3B, 0x03, 0xCA, 0xEE, 0xB6, 0xC7, 0xB8, 0xC3, 0xB4, 0x41,
  0xFC, 0x3F, 0xDC, 0xA0, 0xE4, 0xB3, 0x0E, 0x07, 0x02, 0xD7,
  0x27, 0x46, 0xBB, 0x5C, 0xAE, 0xE4, 0xB9, 0xE1, 0xBB, 0x0C,
  0x1E, 0x2C, 0x17, 0x44, 0xFF, 0x58, 0x26, 0x26, 0x44, 0xED,
  0x57, 0x1E, 0x23, 0x00, 0x21, 0xD6, 0xB0, 0x99, 0xF9, 0x5B,
  0x10, 0xE6, 0xD6, 0x18, 0x36, 0xEB, 0x1C, 0x11, 0x29, 0xC8,
  0x3A, 0xA9, 0x55, 0x4B, 0x6A, 0x4A, 0x3A, 0xA2, 0x5C, 0x1D,
  0xE9, 0x50, 0x6C, 0x21, 0x59, 0xEC, 0x28, 0x46, 0x62, 0xF0,
  0x06, 0x51, 0xC8, 0xC2, 0x01, 0x15, 0x3D, 0x18, 0x12, 0x00,
  0xD7, 0xBC, 0x00, 0xF5, 0xDA, 0xD6, 0x41, 0x18, 0x28, 0x27,
  0xFC, 0x0E, 0xD1, 0x57, 0x2A, 0x04, 0xB8, 0x6C, 0xE2, 0xF2,
  0xBB, 0xC3, 0xF1, 0x48, 0xF0, 0xC2, 0xE8, 0xF5, 0xD6, 0x56,
  0x2B, 0xFD, 0xE6, 0x36, 0xC6, 0x32, 0x04, 0xB0, 0xFB, 0xCB,
  0x4A, 0x37, 0xF2, 0xEE, 0xBE, 0xE4, 0x2E, 0x0E, 0xD7, 0x65,
  0x43, 0xE2, 0xEA, 0xB2, 0x51, 0xBE, 0xD8, 0x44, 0x18, 0xB2,
  0x1E, 0xF9, 0x22, 0xD0, 0xDF, 0xFD, 0xAB, 0x1A, 0x23, 0x3D,
  0xB6, 0xE6, 0x36, 0x1C, 0xB8, 0x45, 0xBE, 0xAB, 0x1A, 0x48,
  0x44, 0xF1, 0xE0, 0xFC, 0x59, 0xD2, 0x18, 0x3B, 0xF4, 0xF4,
  0xD2, 0x3D, 0xFA, 0xF3, 0xD4, 0xFA, 0xBF, 0xD4, 0x02, 0x32,
  0xFD, 0x11, 0x1F, 0xF4, 0x40, 0x1E, 0xC2, 0xBF, 0xC7, 0xCF,
  0x29, 0xE6, 0xCC, 0x63, 0x58, 0xA5, 0x28, 0xC3, 0xF7, 0x09,
  0x06, 0x0C, 0x5B, 0xB5, 0x2B, 0x00, 0xCC, 0x59, 0x0F, 0xDF,
  0xEF, 0x17, 0xD2, 0xF7, 0x27, 0x2D, 0x01, 0x22, 0xD9, 0x13,
  0xEA, 0x11, 0xDE, 0x35, 0x01, 0x61, 0x59, 0xE4, 0x33, 0xF5,
  0xDF, 0x3F, 0x1F, 0xE1, 0x2A, 0x00, 0x3B, 0x43, 0xD9, 0xD1,
  0x19, 0xDD, 0x03, 0xE5, 0xE6, 0xBE, 0x23, 0x3D, 0x07, 0x1C,
  0x41, 0x05, 0xB3, 0xE7, 0xE0, 0x1E, 0x5F, 0xC1, 0x54, 0xDC,
  0xFF, 0x39, 0x00, 0xF6, 0x0C, 0x20, 0x37, 0x0E, 0x24, 0xED,
  0xF6, 0xC2, 0xCE, 0x28, 0x51, 0xC8, 0x33, 0xE5, 0x2D, 0x2A,
  0xB0, 0xCD, 0x41, 0x24, 0x2E, 0xE8, 0xCB, 0xDA, 0x1A, 0xD9,
  0xE1, 0xF3, 0x43, 0x3D, 0xD1, 0x19, 0x29, 0x1E, 0xDB, 0xE6,
  0xB2, 0x02, 0xD2, 0xE3, 0xDD, 0xC5, 0xBB, 0xC7, 0x42, 0xF9,
  0x48, 0xBD, 0xF7, 0x15, 0xC5, 0xF5, 0x14, 0xD4, 0xC2, 0xF7,
  0x55, 0x3C, 0x01, 0x9B, 0xC3, 0x90, 0x77, 0xE7, 0x04, 0xF7,
  0xD8, 0x19, 0x27, 0x58, 0x20, 0x5C, 0xC5, 0xBE, 0xE5, 0x1C,
  0x45, 0x49, 0x08, 0xD4, 0xAF, 0xA2, 0xFC, 0x36, 0xE8, 0xF8,
  0xF9, 0xE7, 0x14, 0x16, 0x54, 0xDF, 0x21, 0x10, 0x72, 0xA7,
  0xC0, 0x02, 0x03, 0xD6, 0x45, 0x5A, 0xC2, 0x1D, 0x10, 0x44,
  0x33, 0xF1, 0xF6, 0xB2, 0xF1, 0xEE, 0x5B, 0x22, 0xC8, 0x30,
  0xFF, 0x0F, 0x43, 0x61, 0x45, 0x00, 0xA5, 0xF3, 0xC9, 0xA8,
  0x39, 0x09, 0xEF, 0x53, 0x2F, 0xAE, 0xD1, 0xF6, 0xAF, 0xE8,
  0x20, 0xBF, 0x25, 0xD8, 0x60, 0x25, 0xAC, 0xBB, 0x55, 0x0B,
  0xFE, 0x1C, 0x38, 0xC2, 0x39, 0xAF, 0x35, 0xE2, 0xE0, 0x0A,
  0xBD, 0x25, 0x13, 0xDA, 0x5C, 0xD0, 0xB3, 0xAE, 0xE4, 0x0B,
  0x38, 0x4B, 0xD6, 0x40, 0xEF, 0x1B, 0x0B, 0x24, 0xC3, 0xD2,
  0xDF, 0x2B, 0x46, 0x1F, 0xE1, 0xBA, 0x18, 0x28, 0xE4, 0x44,
  0x4C, 0x2F, 0xB0, 0xEC, 0x3C, 0x0E, 0x41, 0x0C, 0x35, 0x37,
  0x32, 0xC2, 0xF9, 0x01, 0x20, 0xC7, 0x44, 0x17, 0xD4, 0x08,
  0xC6, 0x0E, 0xC3, 0xBF, 0xBF, 0xC3, 0xB5, 0x37, 0xFC, 0xB5,
  0xDE, 0x05, 0x17, 0x2F, 0xB8, 0xE5, 0xF1, 0xFD, 0xCA, 0xC8,
  0x1F, 0x45, 0x10, 0x3F, 0xF4, 0x18, 0xA2, 0x46, 0x12, 0x0E,
  0xBE, 0xDE, 0x5B, 0x3B, 0x07, 0xB3, 0xEF, 0x28, 0xEE, 0x51,
  0x1B, 0xF1, 0x39, 0xE4, 0xCA, 0xAF, 0x4E, 0xCD, 0x2D, 0x02,
  0x6C, 0xCA, 0x21, 0x3B, 0xC4, 0xC2, 0xB3, 0xD1, 0x1A, 0xF0,
  0xF5, 0xF0, 0x5C, 0xED, 0x24, 0x1E, 0xCE, 0x53, 0xD2, 0xC1,
  0xEE, 0x43, 0x97, 0xB9, 0xE8, 0x05, 0xCF, 0xE5, 0x12, 0xDA,
  0xD1, 0xA3, 0x43, 0x4E, 0x39, 0x16, 0xB0, 0xEB, 0x16, 0xA0,
  0x17, 0x51, 0x10, 0xED, 0xCC, 0x4B, 0x6D, 0xB8, 0x2D, 0xCC,
  0x15, 0xE8, 0x3E, 0xC2, 0xF1, 0xEE, 0xED, 0x58, 0xAC, 0x0A,
  0x53, 0xC6, 0x0A, 0xDB, 0xFB, 0x1C, 0x4E, 0xA4, 0xF0, 0x0B,
  0xA5, 0x53, 0xDB, 0xB4, 0xB4, 0xD9, 0x18, 0x21, 0xE9, 0xD4,
  0x2A, 0xE0, 0xB4, 0x24, 0xEB, 0xF4, 0xBF, 0x40, 0x25, 0xE0,
  0xFD, 0xA5, 0xF1, 0xD1, 0xE5, 0x05, 0x43, 0xA9, 0xB6, 0x4C,
  0xDE, 0xE9, 0xE1, 0x20, 0x32, 0x54, 0x4F, 0x11, 0xE2, 0xA7,
  0xC7, 0x3C, 0x45, 0xDE, 0x05, 0x4F, 0x01, 0x5E, 0x4C, 0xC1,
  0x43, 0xDA, 0xDE, 0xEE, 0x63, 0xDC, 0x21, 0xBC, 0x40, 0x0E,
  0xF9, 0x08, 0x03, 0x16, 0x59, 0x16, 0xA6, 0xD2, 0xF8, 0xB6,
  0x4D, 0xF6, 0xBD, 0xB7, 0x3C, 0xD6, 0x0E, 0xA2, 0x4C, 0x2C,
  0xED, 0xFA, 0xB3, 0x1B, 0x23, 0x02, 0x4D, 0x41, 0x24, 0xD8,
  0xD9, 0x3A, 0x52, 0xCB, 0xC1, 0x1D, 0xC6, 0x57, 0xBD, 0x35,
  0x50, 0xF4, 0x19, 0xEE, 0xCE, 0x54, 0x57, 0xD0, 0xF9, 0x31,
  0x04, 0xDF, 0xA6, 0xB9, 0x24, 0xD3, 0xBF, 0x1A, 0x0C, 0xF1,
  0xED, 0x10, 0x31, 0xA1, 0xC4, 0xD6, 0x2A, 0x1B, 0x55, 0x40,
  0x1F, 0x00, 0x11, 0x2E, 0x46, 0x4C, 0x10, 0x17, 0xEB, 0x52,
  0xF2, 0xBF, 0xBC, 0xE8, 0xB9, 0x4E, 0xF5, 0x5D, 0xE9, 0xC1,
  0xE4, 0x2E, 0xF9, 0xFC, 0xC6, 0x15, 0xF3, 0xCC, 0x52, 0xCE,
  0xF0, 0x25, 0x09, 0x23, 0xC3, 0xA8, 0x36, 0x23, 0x28, 0xE8,
  0x25, 0xFD, 0x28, 0xCF, 0x0C, 0xC7, 0x2F, 0x3F, 0xDA, 0x05,
  0xD2, 0x0F, 0x1D, 0x4A, 0x3C, 0x14, 0x35, 0x04, 0x1A, 0xFD,
  0xFF, 0xFF, 0x04, 0x00, 0x00, 0x00, 0x08, 0x00, 0x00, 0x00,
  0x69, 0xEE, 0xFF, 0xFF, 0x97, 0x11, 0x00, 0x00, 0x2E, 0xFD,
  0xFF, 0xFF, 0x04, 0x00, 0x00, 0x00, 0x08, 0x00, 0x00, 0x00,
  0xFF, 0xFF, 0xFF, 0xFF, 0x00, 0x04, 0x00, 0x00, 0x54, 0xEE,
  0xFF, 0xFF, 0x46, 0xFD, 0xFF, 0xFF, 0x04, 0x00, 0x00, 0x00,
  0x04, 0x00, 0x00, 0x00, 0x60, 0x00, 0x00, 0x00, 0x56, 0xFD,
  0xFF, 0xFF, 0x04, 0x00, 0x00, 0x00, 0x04, 0x00, 0x00, 0x00,
  0x01, 0x00, 0x00, 0x00, 0x66, 0xFD, 0xFF, 0xFF, 0x04, 0x00,
  0x00, 0x00, 0x04, 0x00, 0x00, 0x00, 0x00, 0x00, 0x00, 0x00,
  0x88, 0xEE, 0xFF, 0xFF, 0x8C, 0xEE, 0xFF, 0xFF, 0x0F, 0x00,
  0x00, 0x00, 0x4D, 0x4C, 0x49, 0x52, 0x20, 0x43, 0x6F, 0x6E,
  0x76, 0x65, 0x72, 0x74, 0x65, 0x64, 0x2E, 0x00, 0x01, 0x00,
  0x00, 0x00, 0x14, 0x00, 0x00, 0x00, 0x00, 0x00, 0x0E, 0x00,
  0x18, 0x00, 0x14, 0x00, 0x10, 0x00, 0x0C, 0x00, 0x08, 0x00,
  0x04, 0x00, 0x0E, 0x00, 0x00, 0x00, 0x14, 0x00, 0x00, 0x00,
  0x1C, 0x00, 0x00, 0x00, 0x14, 0x03, 0x00, 0x00, 0x18, 0x03,
  0x00, 0x00, 0x1C, 0x03, 0x00, 0x00, 0x04, 0x00, 0x00, 0x00,
  0x6D, 0x61, 0x69, 0x6E, 0x00, 0x00, 0x00, 0x00, 0x0B, 0x00,
  0x00, 0x00, 0xC4, 0x02, 0x00, 0x00, 0x64, 0x02, 0x00, 0x00,
  0x0C, 0x02, 0x00, 0x00, 0xE4, 0x01, 0x00, 0x00, 0x88, 0x01,
  0x00, 0x00, 0x34, 0x01, 0x00, 0x00, 0xDC, 0x00, 0x00, 0x00,
  0x98, 0x00, 0x00, 0x00, 0x70, 0x00, 0x00, 0x00, 0x38, 0x00,
  0x00, 0x00, 0x04, 0x00, 0x00, 0x00, 0xD2, 0xFD, 0xFF, 0xFF,
  0x14, 0x00, 0x00, 0x00, 0x00, 0x00, 0x00, 0x09, 0x14, 0x00,
  0x00, 0x00, 0x18, 0x00, 0x00, 0x00, 0x08, 0x00, 0x00, 0x00,
  0x16, 0xFE, 0xFF, 0xFF, 0x00, 0x00, 0x80, 0x3F, 0x01, 0x00,
  0x00, 0x00, 0x16, 0x00, 0x00, 0x00, 0x01, 0x00, 0x00, 0x00,
  0x15, 0x00, 0x00, 0x00, 0x02, 0xFE, 0xFF, 0xFF, 0x14, 0x00,
  0x00, 0x00, 0x00, 0x00, 0x00, 0x08, 0x10, 0x00, 0x00, 0x00,
  0x14, 0x00, 0x00, 0x00, 0x07, 0x00, 0x00, 0x00, 0x58, 0xEF,
  0xFF, 0xFF, 0x01, 0x00, 0x00, 0x00, 0x15, 0x00, 0x00, 0x00,
  0x03, 0x00, 0x00, 0x00, 0x14, 0x00, 0x00, 0x00, 0x07, 0x00,
  0x00, 0x00, 0x06, 0x00, 0x00, 0x00, 0xAA, 0xFE, 0xFF, 0xFF,
  0x0C, 0x00, 0x00, 0x00, 0x10, 0x00, 0x00, 0x00, 0x03, 0x00,
  0x00, 0x00, 0x01, 0x00, 0x00, 0x00, 0x14, 0x00, 0x00, 0x00,
  0x02, 0x00, 0x00, 0x00, 0x13, 0x00, 0x00, 0x00, 0x05, 0x00,
  0x00, 0x00, 0x5A, 0xFE, 0xFF, 0xFF, 0x14, 0x00, 0x00, 0x00,
  0x00, 0x00, 0x00, 0x05, 0x24, 0x00, 0x00, 0x00, 0x28, 0x00,
  0x00, 0x00, 0x05, 0x00, 0x00, 0x00, 0x6A, 0xFF, 0xFF, 0xFF,
  0x02, 0x00, 0x00, 0x00, 0x02, 0x00, 0x00, 0x00, 0x02, 0x00,
  0x00, 0x00, 0x02, 0x00, 0x00, 0x00, 0x00, 0x00, 0x00, 0x01,
  0x01, 0x00, 0x00, 0x00, 0x13, 0x00, 0x00, 0x00, 0x01, 0x00,
  0x00, 0x00, 0x12, 0x00, 0x00, 0x00, 0x9A, 0xFE, 0xFF, 0xFF,
  0x24, 0x00, 0x00, 0x00, 0x00, 0x00, 0x00, 0x02, 0x30, 0x00,
  0x00, 0x00, 0x34, 0x00, 0x00, 0x00, 0x06, 0x00, 0x00, 0x00,
  0x00, 0x00, 0x0E, 0x00, 0x14, 0x00, 0x00, 0x00, 0x10, 0x00,
  0x0C, 0x00, 0x08, 0x00, 0x07, 0x00, 0x0E, 0x00, 0x00, 0x00,
  0x00, 0x00, 0x00, 0x01, 0x01, 0x00, 0x00, 0x00, 0x03, 0x00,
  0x00, 0x00, 0x03, 0x00, 0x00, 0x00, 0x01, 0x00, 0x00, 0x00,
  0x12, 0x00, 0x00, 0x00, 0x03, 0x00, 0x00, 0x00, 0x11, 0x00,
  0x00, 0x00, 0x09, 0x00, 0x00, 0x00, 0x08, 0x00, 0x00, 0x00,
  0xEE, 0xFE, 0xFF, 0xFF, 0x24, 0x00, 0x00, 0x00, 0x00, 0x00,
  0x00, 0x05, 0x34, 0x00, 0x00, 0x00, 0x38, 0x00, 0x00, 0x00,
  0x05, 0x00, 0x00, 0x00, 0x00, 0x00, 0x0E, 0x00, 0x18, 0x00,
  0x17, 0x00, 0x10, 0x00, 0x0C, 0x00, 0x08, 0x00, 0x04, 0x00,
  0x0E, 0x00, 0x00, 0x00, 0x02, 0x00, 0x00, 0x00, 0x02, 0x00,
  0x00, 0x00, 0x02, 0x00, 0x00, 0x00, 0x02, 0x00, 0x00, 0x00,
  0x00, 0x00, 0x00, 0x01, 0x01, 0x00, 0x00, 0x00, 0x11, 0x00,
  0x00, 0x00, 0x01, 0x00, 0x00, 0x00, 0x10, 0x00, 0x00, 0x00,
  0x3E, 0xFF, 0xFF, 0xFF, 0x20, 0x00, 0x00, 0x00, 0x00, 0x00,
  0x00, 0x01, 0x28, 0x00, 0x00, 0x00, 0x2C, 0x00, 0x00, 0x00,
  0x04, 0x00, 0x00, 0x00, 0x0C, 0x00, 0x10, 0x00, 0x00, 0x00,
  0x0C, 0x00, 0x08, 0x00, 0x07, 0x00, 0x0C, 0x00, 0x00, 0x00,
  0x00, 0x00, 0x00, 0x01, 0x01, 0x00, 0x00, 0x00, 0x01, 0x00,
  0x00, 0x00, 0x01, 0x00, 0x00, 0x00, 0x10, 0x00, 0x00, 0x00,
  0x03, 0x00, 0x00, 0x00, 0x0F, 0x00, 0x00, 0x00, 0x0B, 0x00,
  0x00, 0x00, 0x0A, 0x00, 0x00, 0x00, 0x00, 0x00, 0x0A, 0x00,
  0x10, 0x00, 0x0C, 0x00, 0x08, 0x00, 0x04, 0x00, 0x0A, 0x00,
  0x00, 0x00, 0x0C, 0x00, 0x00, 0x00, 0x10, 0x00, 0x00, 0x00,
  0x03, 0x00, 0x00, 0x00, 0x01, 0x00, 0x00, 0x00, 0x0F, 0x00,
  0x00, 0x00, 0x02, 0x00, 0x00, 0x00, 0x00, 0x00, 0x00, 0x00,
  0x0E, 0x00, 0x00, 0x00, 0xBA, 0xFF, 0xFF, 0xFF, 0x1C, 0x00,
  0x00, 0x00, 0x00, 0x00, 0x00, 0x3B, 0x1C, 0x00, 0x00, 0x00,
  0x20, 0x00, 0x00, 0x00, 0x02, 0x00, 0x00, 0x00, 0x00, 0x00,
  0x06, 0x00, 0x08, 0x00, 0x04, 0x00, 0x06, 0x00, 0x00, 0x00,
  0x04, 0x00, 0x00, 0x00, 0x01, 0x00, 0x00, 0x00, 0x0E, 0x00,
  0x00, 0x00, 0x04, 0x00, 0x00, 0x00, 0x0D, 0x00, 0x00, 0x00,
  0x03, 0x00, 0x00, 0x00, 0x03, 0x00, 0x00, 0x00, 0x04, 0x00,
  0x00, 0x00, 0x00, 0x00, 0x0E, 0x00, 0x1A, 0x00, 0x14, 0x00,
  0x10, 0x00, 0x0C, 0x00, 0x0B, 0x00, 0x04, 0x00, 0x0E, 0x00,
  0x00, 0x00, 0x24, 0x00, 0x00, 0x00, 0x00, 0x00, 0x00, 0x20,
  0x24, 0x00, 0x00, 0x00, 0x28, 0x00, 0x00, 0x00, 0x01, 0x00,
  0x00, 0x00, 0x00, 0x00, 0x0E, 0x00, 0x08, 0x00, 0x00, 0x00,
  0x00, 0x00, 0x00, 0x00, 0x00, 0x00, 0x04, 0x00, 0x0E, 0x00,
  0x00, 0x00, 0x01, 0x00, 0x00, 0x00, 0x01, 0x00, 0x00, 0x00,
  0x0D, 0x00, 0x00, 0x00, 0x04, 0x00, 0x00, 0x00, 0x0C, 0x00,
  0x00, 0x00, 0x01, 0x00, 0x00, 0x00, 0x02, 0x00, 0x00, 0x00,
  0x02, 0x00, 0x00, 0x00, 0x00, 0x00, 0x0E, 0x00, 0x16, 0x00,
  0x00, 0x00, 0x10, 0x00, 0x0C, 0x00, 0x0B, 0x00, 0x04, 0x00,
  0x0E, 0x00, 0x00, 0x00, 0x18, 0x00, 0x00, 0x00, 0x00, 0x00,
  0x00, 0x37, 0x18, 0x00, 0x00, 0x00, 0x1C, 0x00, 0x00, 0x00,
  0x00, 0x00, 0x06, 0x00, 0x08, 0x00, 0x07, 0x00, 0x06, 0x00,
  0x00, 0x00, 0x00, 0x00, 0x00, 0x02, 0x01, 0x00, 0x00, 0x00,
  0x0C, 0x00, 0x00, 0x00, 0x01, 0x00, 0x00, 0x00, 0x00, 0x00,
  0x00, 0x00, 0x01, 0x00, 0x00, 0x00, 0x16, 0x00, 0x00, 0x00,
  0x01, 0x00, 0x00, 0x00, 0x00, 0x00, 0x00, 0x00, 0x17, 0x00,
  0x00, 0x00, 0x64, 0x0E, 0x00, 0x00, 0xF0, 0x0D, 0x00, 0x00,
  0x7C, 0x0D, 0x00, 0x00, 0x2C, 0x0D, 0x00, 0x00, 0xDC, 0x0C,
  0x00, 0x00, 0x90, 0x0C, 0x00, 0x00, 0x1C, 0x0C, 0x00, 0x00,
  0xB0, 0x0B, 0x00, 0x00, 0x7C, 0x0A, 0x00, 0x00, 0x30, 0x09,
  0x00, 0x00, 0x04, 0x08, 0x00, 0x00, 0x58, 0x06, 0x00, 0x00,
  0x0C, 0x06, 0x00, 0x00, 0xBC, 0x05, 0x00, 0x00, 0x68, 0x05,
  0x00, 0x00, 0xD8, 0x04, 0x00, 0x00, 0xCC, 0x03, 0x00, 0x00,
  0x38, 0x03, 0x00, 0x00, 0x24, 0x02, 0x00, 0x00, 0x90, 0x01,
  0x00, 0x00, 0x14, 0x01, 0x00, 0x00, 0x80, 0x00, 0x00, 0x00,
  0x04, 0x00, 0x00, 0x00, 0x0E, 0xF2, 0xFF, 0xFF, 0x00, 0x00,
  0x00, 0x01, 0x18, 0x00, 0x00, 0x00, 0x20, 0x00, 0x00, 0x00,
  0x3C, 0x00, 0x00, 0x00, 0x17, 0x00, 0x00, 0x00, 0x00, 0x00,
  0x00, 0x09, 0x50, 0x00, 0x00, 0x00, 0x02, 0x00, 0x00, 0x00,
  0xFF, 0xFF, 0xFF, 0xFF, 0x02, 0x00, 0x00, 0x00, 0xF4, 0xF1,
  0xFF, 0xFF, 0x08, 0x00, 0x00, 0x00, 0x10, 0x00, 0x00, 0x00,
  0x01, 0x00, 0x00, 0x00, 0x80, 0xFF, 0xFF, 0xFF, 0xFF, 0xFF,
  0xFF, 0xFF, 0x01, 0x00, 0x00, 0x00, 0x00, 0x00, 0x80, 0x3B,
  0x19, 0x00, 0x00, 0x00, 0x53, 0x74, 0x61, 0x74, 0x65, 0x66,
  0x75, 0x6C, 0x50, 0x61, 0x72, 0x74, 0x69, 0x74, 0x69, 0x6F,
  0x6E, 0x65, 0x64, 0x43, 0x61, 0x6C, 0x6C, 0x3A, 0x30, 0x00,
  0x00, 0x00, 0x02, 0x00, 0x00, 0x00, 0x01, 0x00, 0x00, 0x00,
  0x02, 0x00, 0x00, 0x00, 0x86, 0xF2, 0xFF, 0xFF, 0x00, 0x00,
  0x00, 0x01, 0x18, 0x00, 0x00, 0x00, 0x20, 0x00, 0x00, 0x00,
  0x3C, 0x00, 0x00, 0x00, 0x16, 0x00, 0x00, 0x00, 0x00, 0x00,
  0x00, 0x09, 0x68, 0x00, 0x00, 0x00, 0x02, 0x00, 0x00, 0x00,
  0xFF, 0xFF, 0xFF, 0xFF, 0x02, 0x00, 0x00, 0x00, 0x6C, 0xF2,
  0xFF, 0xFF, 0x08, 0x00, 0x00, 0x00, 0x10, 0x00, 0x00, 0x00,
  0x01, 0x00, 0x00, 0x00, 0x16, 0x00, 0x00, 0x00, 0x00, 0x00,
  0x00, 0x00, 0x01, 0x00, 0x00, 0x00, 0xC8, 0xFE, 0x59, 0x3B,
  0x30, 0x00, 0x00, 0x00, 0x73, 0x65, 0x71, 0x75, 0x65, 0x6E,
  0x74, 0x69, 0x61, 0x6C, 0x2F, 0x64, 0x65, 0x6E, 0x73, 0x65,
  0x2F, 0x4D, 0x61, 0x74, 0x4D, 0x75, 0x6C, 0x3B, 0x73, 0x65,
  0x71, 0x75, 0x65, 0x6E, 0x74, 0x69, 0x61, 0x6C, 0x2F, 0x64,
  0x65, 0x6E, 0x73, 0x65, 0x2F, 0x42, 0x69, 0x61, 0x73, 0x41,
  0x64, 0x64, 0x00, 0x00, 0x00, 0x00, 0x02, 0x00, 0x00, 0x00,
  0x01, 0x00, 0x00, 0x00, 0x02, 0x00, 0x00, 0x00, 0x16, 0xF3,
  0xFF, 0xFF, 0x00, 0x00, 0x00, 0x01, 0x18, 0x00, 0x00, 0x00,
  0x20, 0x00, 0x00, 0x00, 0x3C, 0x00, 0x00, 0x00, 0x15, 0x00,
  0x00, 0x00, 0x00, 0x00, 0x00, 0x09, 0x50, 0x00, 0x00, 0x00,
  0x02, 0x00, 0x00, 0x00, 0xFF, 0xFF, 0xFF, 0xFF, 0x00, 0x04,
  0x00, 0x00, 0xFC, 0xF2, 0xFF, 0xFF, 0x08, 0x00, 0x00, 0x00,
  0x10, 0x00, 0x00, 0x00, 0x01, 0x00, 0x00, 0x00, 0x80, 0xFF,
  0xFF, 0xFF, 0xFF, 0xFF, 0xFF, 0xFF, 0x01, 0x00, 0x00, 0x00,
  0x7C, 0x3F, 0x04, 0x3B, 0x1A, 0x00, 0x00, 0x00, 0x73, 0x65,
  0x71, 0x75, 0x65, 0x6E, 0x74, 0x69, 0x61, 0x6C, 0x2F, 0x66,
  0x6C, 0x61, 0x74, 0x74, 0x65, 0x6E, 0x2F, 0x52, 0x65, 0x73,
  0x68, 0x61, 0x70, 0x65, 0x00, 0x00, 0x02, 0x00, 0x00, 0x00,
  0x01, 0x00, 0x00, 0x00, 0x00, 0x04, 0x00, 0x00, 0x8E, 0xF3,
  0xFF, 0xFF, 0x00, 0x00, 0x00, 0x01, 0x18, 0x00, 0x00, 0x00,
  0x28, 0x00, 0x00, 0x00, 0x44, 0x00, 0x00, 0x00, 0x14, 0x00,
  0x00, 0x00, 0x00, 0x00, 0x00, 0x09, 0x60, 0x00, 0x00, 0x00,
  0x04, 0x00, 0x00, 0x00, 0xFF, 0xFF, 0xFF, 0xFF, 0x08, 0x00,
  0x00, 0x00, 0x08, 0x00, 0x00, 0x00, 0x10, 0x00, 0x00, 0x00,
  0x7C, 0xF3, 0xFF, 0xFF, 0x08, 0x00, 0x00, 0x00, 0x10, 0x00,
  0x00, 0x00, 0x01, 0x00, 0x00, 0x00, 0x80, 0xFF, 0xFF, 0xFF,
  0xFF, 0xFF, 0xFF, 0xFF, 0x01, 0x00, 0x00, 0x00, 0x7C, 0x3F,
  0x04, 0x3B, 0x22, 0x00, 0x00, 0x00, 0x73, 0x65, 0x71, 0x75,
  0x65, 0x6E, 0x74, 0x69, 0x61, 0x6C, 0x2F, 0x6D, 0x61, 0x78,
  0x5F, 0x70, 0x6F, 0x6F, 0x6C, 0x69, 0x6E, 0x67, 0x32, 0x64,
  0x5F, 0x31, 0x2F, 0x4D, 0x61, 0x78, 0x50, 0x6F, 0x6F, 0x6C,
  0x00, 0x00, 0x04, 0x00, 0x00, 0x00, 0x01, 0x00, 0x00, 0x00,
  0x08, 0x00, 0x00, 0x00, 0x08, 0x00, 0x00, 0x00, 0x10, 0x00,
  0x00, 0x00, 0x1E, 0xF4, 0xFF, 0xFF, 0x00, 0x00, 0x00, 0x01,
  0x18, 0x00, 0x00, 0x00, 0x28, 0x00, 0x00, 0x00, 0x48, 0x00,
  0x00, 0x00, 0x13, 0x00, 0x00, 0x00, 0x00, 0x00, 0x00, 0x09,
  0xE0, 0x00, 0x00, 0x00, 0x04, 0x00, 0x00, 0x00, 0xFF, 0xFF,
  0xFF, 0xFF, 0x10, 0x00, 0x00, 0x00, 0x10, 0x00, 0x00, 0x00,
  0x10, 0x00, 0x00, 0x00, 0x0C, 0xF4, 0xFF, 0xFF, 0x08, 0x00,
  0x00, 0x00, 0x14, 0x00, 0x00, 0x00, 0x01, 0x00, 0x00, 0x00,
  0x80, 0xFF, 0xFF, 0xFF, 0xFF, 0xFF, 0xFF, 0xFF, 0x00, 0x00,
  0x00, 0x00, 0x01, 0x00, 0x00, 0x00, 0x7C, 0x3F, 0x04, 0x3B,
  0x9D, 0x00, 0x00, 0x00, 0x73, 0x65, 0x71, 0x75, 0x65, 0x6E,
  0x74, 0x69, 0x61, 0x6C, 0x2F, 0x64, 0x65, 0x70, 0x74, 0x68,
  0x77, 0x69, 0x73, 0x65, 0x5F, 0x63, 0x6F, 0x6E, 0x76, 0x32,
  0x64, 0x2F, 0x52, 0x65, 0x6C, 0x75, 0x3B, 0x73, 0x65, 0x71,
  0x75, 0x65, 0x6E, 0x74, 0x69, 0x61, 0x6C, 0x2F, 0x64, 0x65,
  0x70, 0x74, 0x68, 0x77, 0x69, 0x73, 0x65, 0x5F, 0x63, 0x6F,
  0x6E, 0x76, 0x32, 0x64, 0x2F, 0x42, 0x69, 0x61, 0x73, 0x41,
  0x64, 0x64, 0x3B, 0x73, 0x65, 0x71, 0x75, 0x65, 0x6E, 0x74,
  0x69, 0x61, 0x6C, 0x2F, 0x64, 0x65, 0x70, 0x74, 0x68, 0x77,
  0x69, 0x73, 0x65, 0x5F, 0x63, 0x6F, 0x6E, 0x76, 0x32, 0x64,
  0x2F, 0x64, 0x65, 0x70, 0x74, 0x68, 0x77, 0x69, 0x73, 0x65,
  0x3B, 0x73, 0x65, 0x71, 0x75, 0x65, 0x6E, 0x74, 0x69, 0x61,
  0x6C, 0x2F, 0x64, 0x65, 0x70, 0x74, 0x68, 0x77, 0x69, 0x73,
  0x65, 0x5F, 0x63, 0x6F, 0x6E, 0x76, 0x32, 0x64, 0x2F, 0x42,
  0x69, 0x61, 0x73, 0x41, 0x64, 0x64, 0x2F, 0x52, 0x65, 0x61,
  0x64, 0x56, 0x61, 0x72, 0x69, 0x61, 0x62, 0x6C, 0x65, 0x4F,
  0x70, 0x00, 0x00, 0x00, 0x04, 0x00, 0x00, 0x00, 0x01, 0x00,
  0x00, 0x00, 0x10, 0x00, 0x00, 0x00, 0x10, 0x00, 0x00, 0x00,
  0x10, 0x00, 0x00, 0x00, 0x2E, 0xF5, 0xFF, 0xFF, 0x00, 0x00,
  0x00, 0x01, 0x18, 0x00, 0x00, 0x00, 0x28, 0x00, 0x00, 0x00,
  0x44, 0x00, 0x00, 0x00, 0x12, 0x00, 0x00, 0x00, 0x00, 0x00,
  0x00, 0x09, 0x60, 0x00, 0x00, 0x00, 0x04, 0x00, 0x00, 0x00,
  0xFF, 0xFF, 0xFF, 0xFF, 0x30, 0x00, 0x00, 0x00, 0x30, 0x00,
  0x00, 0x00, 0x10, 0x00, 0x00, 0x00, 0x1C, 0xF5, 0xFF, 0xFF,
  0x08, 0x00, 0x00, 0x00, 0x10, 0x00, 0x00, 0x00, 0x01, 0x00,
  0x00, 0x00, 0x80, 0xFF, 0xFF, 0xFF, 0xFF, 0xFF, 0xFF, 0xFF,
  0x01, 0x00, 0x00, 0x00, 0x50, 0xF9, 0x54, 0x3B, 0x20, 0x00,
  0x00, 0x00, 0x73, 0x65, 0x71, 0x75, 0x65, 0x6E, 0x74, 0x69,
  0x61, 0x6C, 0x2F, 0x6D, 0x61, 0x78, 0x5F, 0x70, 0x6F, 0x6F,
  0x6C, 0x69, 0x6E, 0x67, 0x32, 0x64, 0x2F, 0x4D, 0x61, 0x78,
  0x50, 0x6F, 0x6F, 0x6C, 0x00, 0x00, 0x00, 0x00, 0x04, 0x00,
  0x00, 0x00, 0x01, 0x00, 0x00, 0x00, 0x30, 0x00, 0x00, 0x00,
  0x30, 0x00, 0x00, 0x00, 0x10, 0x00, 0x00, 0x00, 0xBE, 0xF5,
  0xFF, 0xFF, 0x00, 0x00, 0x00, 0x01, 0x18, 0x00, 0x00, 0x00,
  0x28, 0x00, 0x00, 0x00, 0x44, 0x00, 0x00, 0x00, 0x11, 0x00,
  0x00, 0x00, 0x00, 0x00, 0x00, 0x09, 0xD8, 0x00, 0x00, 0x00,
  0x04, 0x00, 0x00, 0x00, 0xFF, 0xFF, 0xFF, 0xFF, 0x60, 0x00,
  0x00, 0x00, 0x60, 0x00, 0x00, 0x00, 0x10, 0x00, 0x00, 0x00,
  0xAC, 0xF5, 0xFF, 0xFF, 0x08, 0x00, 0x00, 0x00, 0x10, 0x00,
  0x00, 0x00, 0x01, 0x00, 0x00, 0x00, 0x80, 0xFF, 0xFF, 0xFF,
  0xFF, 0xFF, 0xFF, 0xFF, 0x01, 0x00, 0x00, 0x00, 0x50, 0xF9,
  0x54, 0x3B, 0x99, 0x00, 0x00, 0x00, 0x73, 0x65, 0x71, 0x75,
  0x65, 0x6E, 0x74, 0x69, 0x61, 0x6C, 0x2F, 0x63, 0x6F, 0x6E,
  0x76, 0x32, 0x64, 0x2F, 0x52, 0x65, 0x6C, 0x75, 0x3B, 0x73,
  0x65, 0x71, 0x75, 0x65, 0x6E, 0x74, 0x69, 0x61, 0x6C, 0x2F,
  0x63, 0x6F, 0x6E, 0x76, 0x32, 0x64, 0x2F, 0x42, 0x69, 0x61,
  0x73, 0x41, 0x64, 0x64, 0x3B, 0x73, 0x65, 0x71, 0x75, 0x65,
  0x6E, 0x74, 0x69, 0x61, 0x6C, 0x2F, 0x64, 0x65, 0x70, 0x74,
  0x68, 0x77, 0x69, 0x73, 0x65, 0x5F, 0x63, 0x6F, 0x6E, 0x76,
  0x32, 0x64, 0x2F, 0x64, 0x65, 0x70, 0x74, 0x68, 0x77, 0x69,
  0x73, 0x65, 0x3B, 0x73, 0x65, 0x71, 0x75, 0x65, 0x6E, 0x74,
  0x69, 0x61, 0x6C, 0x2F, 0x63, 0x6F, 0x6E, 0x76, 0x32, 0x64,
  0x2F, 0x43, 0x6F, 0x6E, 0x76, 0x32, 0x44, 0x3B, 0x73, 0x65,
  0x71, 0x75, 0x65, 0x6E, 0x74, 0x69, 0x61, 0x6C, 0x2F, 0x63,
  0x6F, 0x6E, 0x76, 0x32, 0x64, 0x2F, 0x42, 0x69, 0x61, 0x73,
  0x41, 0x64, 0x64, 0x2F, 0x52, 0x65, 0x61, 0x64, 0x56, 0x61,
  0x72, 0x69, 0x61, 0x62, 0x6C, 0x65, 0x4F, 0x70, 0x31, 0x00,
  0x00, 0x00, 0x04, 0x00, 0x00, 0x00, 0x01, 0x00, 0x00, 0x00,
  0x60, 0x00, 0x00, 0x00, 0x60, 0x00, 0x00, 0x00, 0x10, 0x00,
  0x00, 0x00, 0xC6, 0xF6, 0xFF, 0xFF, 0x00, 0x00, 0x00, 0x01,
  0x18, 0x00, 0x00, 0x00, 0x28, 0x00, 0x00, 0x00, 0x48, 0x00,
  0x00, 0x00, 0x10, 0x00, 0x00, 0x00, 0x00, 0x00, 0x00, 0x09,
  0x5C, 0x00, 0x00, 0x00, 0x04, 0x00, 0x00, 0x00, 0xFF, 0xFF,
  0xFF, 0xFF, 0x60, 0x00, 0x00, 0x00, 0x60, 0x00, 0x00, 0x00,
  0x01, 0x00, 0x00, 0x00, 0xB4, 0xF6, 0xFF, 0xFF, 0x08, 0x00,
  0x00, 0x00, 0x14, 0x00, 0x00, 0x00, 0x01, 0x00, 0x00, 0x00,
  0x80, 0xFF, 0xFF, 0xFF, 0xFF, 0xFF, 0xFF, 0xFF, 0x00, 0x00,
  0x00, 0x00, 0x01, 0x00, 0x00, 0x00, 0x00, 0x00, 0x80, 0x3F,
  0x1A, 0x00, 0x00, 0x00, 0x73, 0x65, 0x71, 0x75, 0x65, 0x6E,
  0x74, 0x69, 0x61, 0x6C, 0x2F, 0x72, 0x65, 0x73, 0x68, 0x61,
  0x70, 0x65, 0x2F, 0x52, 0x65, 0x73, 0x68, 0x61, 0x70, 0x65,
  0x00, 0x00, 0x04, 0x00, 0x00, 0x00, 0x01, 0x00, 0x00, 0x00,
  0x60, 0x00, 0x00, 0x00, 0x60, 0x00, 0x00, 0x00, 0x01, 0x00,
  0x00, 0x00, 0xC2, 0xF7, 0xFF, 0xFF, 0x00, 0x00, 0x00, 0x01,
  0x14, 0x00, 0x00, 0x00, 0x14, 0x00, 0x00, 0x00, 0x0F, 0x00,
  0x00, 0x00, 0x00, 0x00, 0x00, 0x02, 0x30, 0x00, 0x00, 0x00,
  0xAC, 0xF7, 0xFF, 0xFF, 0x20, 0x00, 0x00, 0x00, 0x73, 0x65,
  0x71, 0x75, 0x65, 0x6E, 0x74, 0x69, 0x61, 0x6C, 0x2F, 0x72,
  0x65, 0x73, 0x68, 0x61, 0x70, 0x65, 0x2F, 0x52, 0x65, 0x73,
  0x68, 0x61, 0x70, 0x65, 0x2F, 0x73, 0x68, 0x61, 0x70, 0x65,
  0x00, 0x00, 0x00, 0x00, 0x01, 0x00, 0x00, 0x00, 0x04, 0x00,
  0x00, 0x00, 0x12, 0xF8, 0xFF, 0xFF, 0x00, 0x00, 0x00, 0x01,
  0x14, 0x00, 0x00, 0x00, 0x14, 0x00, 0x00, 0x00, 0x0E, 0x00,
  0x00, 0x00, 0x00, 0x00, 0x00, 0x02, 0x30, 0x00, 0x00, 0x00,
  0xFC, 0xF7, 0xFF, 0xFF, 0x20, 0x00, 0x00, 0x00, 0x73, 0x65,
  0x71, 0x75, 0x65, 0x6E, 0x74, 0x69, 0x61, 0x6C, 0x2F, 0x72,
  0x65, 0x73, 0x68, 0x61, 0x70, 0x65, 0x2F, 0x73, 0x74, 0x72,
  0x69, 0x64, 0x65, 0x64, 0x5F, 0x73, 0x6C, 0x69, 0x63, 0x65,
  0x00, 0x00, 0x00, 0x00, 0x00, 0x00, 0x00, 0x00, 0x5E, 0xF8,
  0xFF, 0xFF, 0x00, 0x00, 0x00, 0x01, 0x14, 0x00, 0x00, 0x00,
  0x14, 0x00, 0x00, 0x00, 0x0D, 0x00, 0x00, 0x00, 0x00, 0x00,
  0x00, 0x02, 0x28, 0x00, 0x00, 0x00, 0x48, 0xF8, 0xFF, 0xFF,
  0x18, 0x00, 0x00, 0x00, 0x73, 0x65, 0x71, 0x75, 0x65, 0x6E,
  0x74, 0x69, 0x61, 0x6C, 0x2F, 0x72, 0x65, 0x73, 0x68, 0x61,
  0x70, 0x65, 0x2F, 0x53, 0x68, 0x61, 0x70, 0x65, 0x00, 0x00,
  0x00, 0x00, 0x01, 0x00, 0x00, 0x00, 0x03, 0x00, 0x00, 0x00,
  0xA6, 0xF8, 0xFF, 0xFF, 0x00, 0x00, 0x00, 0x01, 0x14, 0x00,
  0x00, 0x00, 0xE8, 0x00, 0x00, 0x00, 0x0C, 0x00, 0x00, 0x00,
  0x00, 0x00, 0x00, 0x09, 0x7C, 0x01, 0x00, 0x00, 0x0C, 0xF8,
  0xFF, 0xFF, 0x08, 0x00, 0x00, 0x00, 0x8C, 0x00, 0x00, 0x00,
  0x10, 0x00, 0x00, 0x00, 0x00, 0x00, 0x00, 0x00, 0x00, 0x00,
  0x00, 0x00, 0x00, 0x00, 0x00, 0x00, 0x00, 0x00, 0x00, 0x00,
  0x00, 0x00, 0x00, 0x00, 0x00, 0x00, 0x00, 0x00, 0x00, 0x00,
  0x00, 0x00, 0x00, 0x00, 0x00, 0x00, 0x00, 0x00, 0x00, 0x00,
  0x00, 0x00, 0x00, 0x00, 0x00, 0x00, 0x00, 0x00, 0x00, 0x00,
  0x00, 0x00, 0x00, 0x00, 0x00, 0x00, 0x00, 0x00, 0x00, 0x00,
  0x00, 0x00, 0x00, 0x00, 0x00, 0x00, 0x00, 0x00, 0x00, 0x00,
  0x00, 0x00, 0x00, 0x00, 0x00, 0x00, 0x00, 0x00, 0x00, 0x00,
  0x00, 0x00, 0x00, 0x00, 0x00, 0x00, 0x00, 0x00, 0x00, 0x00,
  0x00, 0x00, 0x00, 0x00, 0x00, 0x00, 0x00, 0x00, 0x00, 0x00,
  0x00, 0x00, 0x00, 0x00, 0x00, 0x00, 0x00, 0x00, 0x00, 0x00,
  0x00, 0x00, 0x00, 0x00, 0x00, 0x00, 0x00, 0x00, 0x00, 0x00,
  0x00, 0x00, 0x00, 0x00, 0x00, 0x00, 0x00, 0x00, 0x00, 0x00,
  0x00, 0x00, 0x00, 0x00, 0x00, 0x00, 0x10, 0x00, 0x00, 0x00,
  0x7D, 0x73, 0xC5, 0x36, 0x17, 0x4B, 0xB4, 0x36, 0xD7, 0xC0,
  0xC5, 0x36, 0xAD, 0x68, 0xC3, 0x36, 0x42, 0x20, 0xB8, 0x36,
  0x4B, 0x90, 0xC1, 0x36, 0x81, 0xB9, 0x99, 0x36, 0x13, 0x19,
  0xD8, 0x36, 0x25, 0xB3, 0xCF, 0x36, 0x21, 0x47, 0xB0, 0x36,
  0xE0, 0xDD, 0xD2, 0x36, 0xD2, 0x05, 0xB6, 0x36, 0x6E, 0x3F,
  0xD1, 0x36, 0x54, 0x42, 0xA8, 0x36, 0xFE, 0xE1, 0xBD, 0x36,
  0x94, 0x64, 0xCC, 0x36, 0x98, 0x00, 0x00, 0x00, 0x73, 0x65,
  0x71, 0x75, 0x65, 0x6E, 0x74, 0x69, 0x61, 0x6C, 0x2F, 0x63,
  0x6F, 0x6E, 0x76, 0x32, 0x64, 0x2F, 0x52, 0x65, 0x6C, 0x75,
  0x3B, 0x73, 0x65, 0x71, 0x75, 0x65, 0x6E, 0x74, 0x69, 0x61,
  0x6C, 0x2F, 0x63, 0x6F, 0x6E, 0x76, 0x32, 0x64, 0x2F, 0x42,
  0x69, 0x61, 0x73, 0x41, 0x64, 0x64, 0x3B, 0x73, 0x65, 0x71,
  0x75, 0x65, 0x6E, 0x74, 0x69, 0x61, 0x6C, 0x2F, 0x64, 0x65,
  0x70, 0x74, 0x68, 0x77, 0x69, 0x73, 0x65, 0x5F, 0x63, 0x6F,
  0x6E, 0x76, 0x32, 0x64, 0x2F, 0x64, 0x65, 0x70, 0x74, 0x68,
  0x77, 0x69, 0x73, 0x65, 0x3B, 0x73, 0x65, 0x71, 0x75, 0x65,
  0x6E, 0x74, 0x69, 0x61, 0x6C, 0x2F, 0x63, 0x6F, 0x6E, 0x76,
  0x32, 0x64, 0x2F, 0x43, 0x6F, 0x6E, 0x76, 0x32, 0x44, 0x3B,
  0x73, 0x65, 0x71, 0x75, 0x65, 0x6E, 0x74, 0x69, 0x61, 0x6C,
  0x2F, 0x63, 0x6F, 0x6E, 0x76, 0x32, 0x64, 0x2F, 0x42, 0x69,
  0x61, 0x73, 0x41, 0x64, 0x64, 0x2F, 0x52, 0x65, 0x61, 0x64,
  0x56, 0x61, 0x72, 0x69, 0x61, 0x62, 0x6C, 0x65, 0x4F, 0x70,
  0x00, 0x00, 0x00, 0x00, 0x04, 0x00, 0x00, 0x00, 0x10, 0x00,
  0x00, 0x00, 0x03, 0x00, 0x00, 0x00, 0x03, 0x00, 0x00, 0x00,
  0x01, 0x00, 0x00, 0x00, 0x4E, 0xFA, 0xFF, 0xFF, 0x00, 0x00,
  0x00, 0x01, 0x14, 0x00, 0x00, 0x00, 0xE4, 0x00, 0x00, 0x00,
  0x0B, 0x00, 0x00, 0x00, 0x00, 0x00, 0x00, 0x02, 0x08, 0x01,
  0x00, 0x00, 0xB4, 0xF9, 0xFF, 0xFF, 0x08, 0x00, 0x00, 0x00,
  0x88, 0x00, 0x00, 0x00, 0x10, 0x00, 0x00, 0x00, 0x00, 0x00,
  0x00, 0x00, 0x00, 0x00, 0x00, 0x00, 0x00, 0x00, 0x00, 0x00,
  0x00, 0x00, 0x00, 0x00, 0x00, 0x00, 0x00, 0x00, 0x00, 0x00,
  0x00, 0x00, 0x00, 0x00, 0x00, 0x00, 0x00, 0x00, 0x00, 0x00,
  0x00, 0x00, 0x00, 0x00, 0x00, 0x00, 0x00, 0x00, 0x00, 0x00,
  0x00, 0x00, 0x00, 0x00, 0x00, 0x00, 0x00, 0x00, 0x00, 0x00,
  0x00, 0x00, 0x00, 0x00, 0x00, 0x00, 0x00, 0x00, 0x00, 0x00,
  0x00, 0x00, 0x00, 0x00, 0x00, 0x00, 0x00, 0x00, 0x00, 0x00,
  0x00, 0x00, 0x00, 0x00, 0x00, 0x00, 0x00, 0x00, 0x00, 0x00,
  0x00, 0x00, 0x00, 0x00, 0x00, 0x00, 0x00, 0x00, 0x00, 0x00,
  0x00, 0x00, 0x00, 0x00, 0x00, 0x00, 0x00, 0x00, 0x00, 0x00,
  0x00, 0x00, 0x00, 0x00, 0x00, 0x00, 0x00, 0x00, 0x00, 0x00,
  0x00, 0x00, 0x00, 0x00, 0x00, 0x00, 0x00, 0x00, 0x00, 0x00,
  0x00, 0x00, 0x00, 0x00, 0x00, 0x00, 0x10, 0x00, 0x00, 0x00,
  0x7D, 0x73, 0xC5, 0x36, 0x17, 0x4B, 0xB4, 0x36, 0xD7, 0xC0,
  0xC5, 0x36, 0xAD, 0x68, 0xC3, 0x36, 0x42, 0x20, 0xB8, 0x36,
  0x4B, 0x90, 0xC1, 0x36, 0x81, 0xB9, 0x99, 0x36, 0x13, 0x19,
  0xD8, 0x36, 0x25, 0xB3, 0xCF, 0x36, 0x21, 0x47, 0xB0, 0x36,
  0xE0, 0xDD, 0xD2, 0x36, 0xD2, 0x05, 0xB6, 0x36, 0x6E, 0x3F,
  0xD1, 0x36, 0x54, 0x42, 0xA8, 0x36, 0xFE, 0xE1, 0xBD, 0x36,
  0x94, 0x64, 0xCC, 0x36, 0x28, 0x00, 0x00, 0x00, 0x73, 0x65,
  0x71, 0x75, 0x65, 0x6E, 0x74, 0x69, 0x61, 0x6C, 0x2F, 0x63,
  0x6F, 0x6E, 0x76, 0x32, 0x64, 0x2F, 0x42, 0x69, 0x61, 0x73,
  0x41, 0x64, 0x64, 0x2F, 0x52, 0x65, 0x61, 0x64, 0x56, 0x61,
  0x72, 0x69, 0x61, 0x62, 0x6C, 0x65, 0x4F, 0x70, 0x00, 0x00,
  0x00, 0x00, 0x01, 0x00, 0x00, 0x00, 0x10, 0x00, 0x00, 0x00,
  0x76, 0xFB, 0xFF, 0xFF, 0x00, 0x00, 0x00, 0x01, 0x28, 0x00,
  0x00, 0x00, 0xFC, 0x00, 0x00, 0x00, 0x0A, 0x00, 0x00, 0x00,
  0x00, 0x00, 0x00, 0x09, 0x1C, 0x01, 0x00, 0x00, 0x00, 0x00,
  0x12, 0x00, 0x10, 0x00, 0x00, 0x00, 0x00, 0x00, 0x0C, 0x00,
  0x08, 0x00, 0x00, 0x00, 0x00, 0x00, 0x04, 0x00, 0x12, 0x00,
  0x00, 0x00, 0x03, 0x00, 0x00, 0x00, 0x08, 0x00, 0x00, 0x00,
  0x88, 0x00, 0x00, 0x00, 0x10, 0x00, 0x00, 0x00, 0x00, 0x00,
  0x00, 0x00, 0x00, 0x00, 0x00, 0x00, 0x00, 0x00, 0x00, 0x00,
  0x00, 0x00, 0x00, 0x00, 0x00, 0x00, 0x00, 0x00, 0x00, 0x00,
  0x00, 0x00, 0x00, 0x00, 0x00, 0x00, 0x00, 0x00, 0x00, 0x00,
  0x00, 0x00, 0x00, 0x00, 0x00, 0x00, 0x00, 0x00, 0x00, 0x00,
  0x00, 0x00, 0x00, 0x00, 0x00, 0x00, 0x00, 0x00, 0x00, 0x00,
  0x00, 0x00, 0x00, 0x00, 0x00, 0x00, 0x00, 0x00, 0x00, 0x00,
  0x00, 0x00, 0x00, 0x00, 0x00, 0x00, 0x00, 0x00, 0x00, 0x00,
  0x00, 0x00, 0x00, 0x00, 0x00, 0x00, 0x00, 0x00, 0x00, 0x00,
  0x00, 0x00, 0x00, 0x00, 0x00, 0x00, 0x00, 0x00, 0x00, 0x00,
  0x00, 0x00, 0x00, 0x00, 0x00, 0x00, 0x00, 0x00, 0x00, 0x00,
  0x00, 0x00, 0x00, 0x00, 0x00, 0x00, 0x00, 0x00, 0x00, 0x00,
  0x00, 0x00, 0x00, 0x00, 0x00, 0x00, 0x00, 0x00, 0x00, 0x00,
  0x00, 0x00, 0x00, 0x00, 0x00, 0x00, 0x10, 0x00, 0x00, 0x00,
  0xE4, 0x2A, 0x25, 0x3A, 0x12, 0x9C, 0x22, 0x3A, 0x07, 0xA3,
  0x1A, 0x3A, 0x89, 0xD8, 0x14, 0x3A, 0xF3, 0xD1, 0x2E, 0x3A,
  0x64, 0x47, 0x23, 0x3A, 0xC5, 0x3E, 0x2D, 0x3A, 0xBF, 0x2D,
  0x2A, 0x3A, 0x48, 0xFF, 0x37, 0x3A, 0x10, 0x93, 0x3D, 0x3A,
  0xEF, 0xCA, 0x2D, 0x3A, 0x0A, 0x48, 0x31, 0x3A, 0xD3, 0x6E,
  0x3A, 0x3A, 0x6E, 0xB8, 0x1B, 0x3A, 0x98, 0x6D, 0x20, 0x3A,
  0x15, 0xF2, 0x2F, 0x3A, 0x25, 0x00, 0x00, 0x00, 0x73, 0x65,
  0x71, 0x75, 0x65, 0x6E, 0x74, 0x69, 0x61, 0x6C, 0x2F, 0x64,
  0x65, 0x70, 0x74, 0x68, 0x77, 0x69, 0x73, 0x65, 0x5F, 0x63,
  0x6F, 0x6E, 0x76, 0x32, 0x64, 0x2F, 0x64, 0x65, 0x70, 0x74,
  0x68, 0x77, 0x69, 0x73, 0x65, 0x00, 0x00, 0x00, 0x04, 0x00,
  0x00, 0x00, 0x01, 0x00, 0x00, 0x00, 0x08, 0x00, 0x00, 0x00,
  0x08, 0x00, 0x00, 0x00, 0x10, 0x00, 0x00, 0x00, 0xBE, 0xFC,
  0xFF, 0xFF, 0x00, 0x00, 0x00, 0x01, 0x14, 0x00, 0x00, 0x00,
  0xE4, 0x00, 0x00, 0x00, 0x09, 0x00, 0x00, 0x00, 0x00, 0x00,
  0x00, 0x02, 0x10, 0x01, 0x00, 0x00, 0x24, 0xFC, 0xFF, 0xFF,
  0x08, 0x00, 0x00, 0x00, 0x88, 0x00, 0x00, 0x00, 0x10, 0x00,
  0x00, 0x00, 0x00, 0x00, 0x00, 0x00, 0x00, 0x00, 0x00, 0x00,
  0x00, 0x00, 0x00, 0x00, 0x00, 0x00, 0x00, 0x00, 0x00, 0x00,
  0x00, 0x00, 0x00, 0x00, 0x00, 0x00, 0x00, 0x00, 0x00, 0x00,
  0x00, 0x00, 0x00, 0x00, 0x00, 0x00, 0x00, 0x00, 0x00, 0x00,
  0x00, 0x00, 0x00, 0x00, 0x00, 0x00, 0x00, 0x00, 0x00, 0x00,
  0x00, 0x00, 0x00, 0x00, 0x00, 0x00, 0x00, 0x00, 0x00, 0x00,
  0x00, 0x00, 0x00, 0x00, 0x00, 0x00, 0x00, 0x00, 0x00, 0x00,
  0x00, 0x00, 0x00, 0x00, 0x00, 0x00, 0x00, 0x00, 0x00, 0x00,
  0x00, 0x00, 0x00, 0x00, 0x00, 0x00, 0x00, 0x00, 0x00, 0x00,
  0x00, 0x00, 0x00, 0x00, 0x00, 0x00, 0x00, 0x00, 0x00, 0x00,
  0x00, 0x00, 0x00, 0x00, 0x00, 0x00, 0x00, 0x00, 0x00, 0x00,
  0x00, 0x00, 0x00, 0x00, 0x00, 0x00, 0x00, 0x00, 0x00, 0x00,
  0x00, 0x00, 0x00, 0x00, 0x00, 0x00, 0x00, 0x00, 0x00, 0x00,
  0x10, 0x00, 0x00, 0x00, 0x5F, 0x68, 0x09, 0x36, 0x9C, 0x47,
  0x07, 0x36, 0x9B, 0xA5, 0x00, 0x36, 0x8D, 0xA8, 0xF7, 0x35,
  0x1E, 0x70, 0x11, 0x36, 0x22, 0xD6, 0x07, 0x36, 0xB3, 0x20,
  0x10, 0x36, 0x9E, 0x93, 0x0D, 0x36, 0x98, 0x12, 0x19, 0x36,
  0x69, 0xB6, 0x1D, 0x36, 0x4F, 0x95, 0x10, 0x36, 0x4F, 0x7C,
  0x13, 0x36, 0x57, 0x19, 0x1B, 0x36, 0x62, 0x8C, 0x01, 0x36,
  0xFF, 0x76, 0x05, 0x36, 0xD3, 0x5F, 0x12, 0x36, 0x32, 0x00,
  0x00, 0x00, 0x73, 0x65, 0x71, 0x75, 0x65, 0x6E, 0x74, 0x69,
  0x61, 0x6C, 0x2F, 0x64, 0x65, 0x70, 0x74, 0x68, 0x77, 0x69,
  0x73, 0x65, 0x5F, 0x63, 0x6F, 0x6E, 0x76, 0x32, 0x64, 0x2F,
  0x42, 0x69, 0x61, 0x73, 0x41, 0x64, 0x64, 0x2F, 0x52, 0x65,
  0x61, 0x64, 0x56, 0x61, 0x72, 0x69, 0x61, 0x62, 0x6C, 0x65,
  0x4F, 0x70, 0x00, 0x00, 0x01, 0x00, 0x00, 0x00, 0x10, 0x00,
  0x00, 0x00, 0xEE, 0xFD, 0xFF, 0xFF, 0x00, 0x00, 0x00, 0x01,
  0x14, 0x00, 0x00, 0x00, 0x34, 0x00, 0x00, 0x00, 0x08, 0x00,
  0x00, 0x00, 0x00, 0x00, 0x00, 0x09, 0x44, 0x00, 0x00, 0x00,
  0x54, 0xFD, 0xFF, 0xFF, 0x08, 0x00, 0x00, 0x00, 0x14, 0x00,
  0x00, 0x00, 0x01, 0x00, 0x00, 0x00, 0x00, 0x00, 0x00, 0x00,
  0x00, 0x00, 0x00, 0x00, 0x00, 0x00, 0x00, 0x00, 0x01, 0x00,
  0x00, 0x00, 0x04, 0xB0, 0x5E, 0x3A, 0x17, 0x00, 0x00, 0x00,
  0x73, 0x65, 0x71, 0x75, 0x65, 0x6E, 0x74, 0x69, 0x61, 0x6C,
  0x2F, 0x64, 0x65, 0x6E, 0x73, 0x65, 0x2F, 0x4D, 0x61, 0x74,
  0x4D, 0x75, 0x6C, 0x00, 0x02, 0x00, 0x00, 0x00, 0x02, 0x00,
  0x00, 0x00, 0x00, 0x04, 0x00, 0x00, 0x56, 0xFE, 0xFF, 0xFF,
  0x00, 0x00, 0x00, 0x01, 0x14, 0x00, 0x00, 0x00, 0x30, 0x00,
  0x00, 0x00, 0x07, 0x00, 0x00, 0x00, 0x00, 0x00, 0x00, 0x02,
  0x50, 0x00, 0x00, 0x00, 0xBC, 0xFD, 0xFF, 0xFF, 0x08, 0x00,
  0x00, 0x00, 0x10, 0x00, 0x00, 0x00, 0x01, 0x00, 0x00, 0x00,
  0x00, 0x00, 0x00, 0x00, 0x00, 0x00, 0x00, 0x00, 0x01, 0x00,
  0x00, 0x00, 0xF6, 0x13, 0xE6, 0x35, 0x27, 0x00, 0x00, 0x00,
  0x73, 0x65, 0x71, 0x75, 0x65, 0x6E, 0x74, 0x69, 0x61, 0x6C,
  0x2F, 0x64, 0x65, 0x6E, 0x73, 0x65, 0x2F, 0x42, 0x69, 0x61,
  0x73, 0x41, 0x64, 0x64, 0x2F, 0x52, 0x65, 0x61, 0x64, 0x56,
  0x61, 0x72, 0x69, 0x61, 0x62, 0x6C, 0x65, 0x4F, 0x70, 0x00,
  0x01, 0x00, 0x00, 0x00, 0x02, 0x00, 0x00, 0x00, 0xC6, 0xFE,
  0xFF, 0xFF, 0x00, 0x00, 0x00, 0x01, 0x14, 0x00, 0x00, 0x00,
  0x14, 0x00, 0x00, 0x00, 0x06, 0x00, 0x00, 0x00, 0x00, 0x00,
  0x00, 0x02, 0x28, 0x00, 0x00, 0x00, 0xB0, 0xFE, 0xFF, 0xFF,
  0x18, 0x00, 0x00, 0x00, 0x73, 0x65, 0x71, 0x75, 0x65, 0x6E,
  0x74, 0x69, 0x61, 0x6C, 0x2F, 0x66, 0x6C, 0x61, 0x74, 0x74,
  0x65, 0x6E, 0x2F, 0x43, 0x6F, 0x6E, 0x73, 0x74, 0x00, 0x00,
  0x00, 0x00, 0x01, 0x00, 0x00, 0x00, 0x02, 0x00, 0x00, 0x00,
  0x0E, 0xFF, 0xFF, 0xFF, 0x00, 0x00, 0x00, 0x01, 0x14, 0x00,
  0x00, 0x00, 0x14, 0x00, 0x00, 0x00, 0x03, 0x00, 0x00, 0x00,
  0x00, 0x00, 0x00, 0x02, 0x30, 0x00, 0x00, 0x00, 0xF8, 0xFE,
  0xFF, 0xFF, 0x22, 0x00, 0x00, 0x00, 0x73, 0x65, 0x71, 0x75,
  0x65, 0x6E, 0x74, 0x69, 0x61, 0x6C, 0x2F, 0x72, 0x65, 0x73,
  0x68, 0x61, 0x70, 0x65, 0x2F, 0x52, 0x65, 0x73, 0x68, 0x61,
  0x70, 0x65, 0x2F, 0x73, 0x68, 0x61, 0x70, 0x65, 0x2F, 0x33,
  0x00, 0x00, 0x00, 0x00, 0x00, 0x00, 0x5A, 0xFF, 0xFF, 0xFF,
  0x00, 0x00, 0x00, 0x01, 0x14, 0x00, 0x00, 0x00, 0x14, 0x00,
  0x00, 0x00, 0x04, 0x00, 0x00, 0x00, 0x00, 0x00, 0x00, 0x02,
  0x30, 0x00, 0x00, 0x00, 0x44, 0xFF, 0xFF, 0xFF, 0x22, 0x00,
  0x00, 0x00, 0x73, 0x65, 0x71, 0x75, 0x65, 0x6E, 0x74, 0x69,
  0x61, 0x6C, 0x2F, 0x72, 0x65, 0x73, 0x68, 0x61, 0x70, 0x65,
  0x2F, 0x52, 0x65, 0x73, 0x68, 0x61, 0x70, 0x65, 0x2F, 0x73,
  0x68, 0x61, 0x70, 0x65, 0x2F, 0x31, 0x00, 0x00, 0x00, 0x00,
  0x00, 0x00, 0xA6, 0xFF, 0xFF, 0xFF, 0x00, 0x00, 0x00, 0x01,
  0x14, 0x00, 0x00, 0x00, 0x14, 0x00, 0x00, 0x00, 0x03, 0x00,
  0x00, 0x00, 0x00, 0x00, 0x00, 0x02, 0x38, 0x00, 0x00, 0x00,
  0x90, 0xFF, 0xFF, 0xFF, 0x28, 0x00, 0x00, 0x00, 0x73, 0x65,
  0x71, 0x75, 0x65, 0x6E, 0x74, 0x69, 0x61, 0x6C, 0x2F, 0x72,
  0x65, 0x73, 0x68, 0x61, 0x70, 0x65, 0x2F, 0x73, 0x74, 0x72,
  0x69, 0x64, 0x65, 0x64, 0x5F, 0x73, 0x6C, 0x69, 0x63, 0x65,
  0x2F, 0x73, 0x74, 0x61, 0x63, 0x6B, 0x5F, 0x31, 0x00, 0x00,
  0x00, 0x00, 0x01, 0x00, 0x00, 0x00, 0x01, 0x00, 0x00, 0x00,
  0x00, 0x00, 0x16, 0x00, 0x1C, 0x00, 0x18, 0x00, 0x17, 0x00,
  0x10, 0x00, 0x0C, 0x00, 0x08, 0x00, 0x00, 0x00, 0x00, 0x00,
  0x00, 0x00, 0x07, 0x00, 0x16, 0x00, 0x00, 0x00, 0x00, 0x00,
  0x00, 0x01, 0x18, 0x00, 0x00, 0x00, 0x18, 0x00, 0x00, 0x00,
  0x02, 0x00, 0x00, 0x00, 0x00, 0x00, 0x00, 0x02, 0x38, 0x00,
  0x00, 0x00, 0x04, 0x00, 0x04, 0x00, 0x04, 0x00, 0x00, 0x00,
  0x26, 0x00, 0x00, 0x00, 0x73, 0x65, 0x71, 0x75, 0x65, 0x6E,
  0x74, 0x69, 0x61, 0x6C, 0x2F, 0x72, 0x65, 0x73, 0x68, 0x61,
  0x70, 0x65, 0x2F, 0x73, 0x74, 0x72, 0x69, 0x64, 0x65, 0x64,
  0x5F, 0x73, 0x6C, 0x69, 0x63, 0x65, 0x2F, 0x73, 0x74, 0x61,
  0x63, 0x6B, 0x00, 0x00, 0x01, 0x00, 0x00, 0x00, 0x01, 0x00,
  0x00, 0x00, 0x00, 0x00, 0x16, 0x00, 0x20, 0x00, 0x1C, 0x00,
  0x1B, 0x00, 0x14, 0x00, 0x10, 0x00, 0x0C, 0x00, 0x00, 0x00,
  0x00, 0x00, 0x08, 0x00, 0x07, 0x00, 0x16, 0x00, 0x00, 0x00,
  0x00, 0x00, 0x00, 0x01, 0x18, 0x00, 0x00, 0x00, 0x30, 0x00,
  0x00, 0x00, 0x50, 0x00, 0x00, 0x00, 0x01, 0x00, 0x00, 0x00,
  0x00, 0x00, 0x00, 0x09, 0x68, 0x00, 0x00, 0x00, 0x03, 0x00,
  0x00, 0x00, 0xFF, 0xFF, 0xFF, 0xFF, 0x60, 0x00, 0x00, 0x00,
  0x60, 0x00, 0x00, 0x00, 0x0C, 0x00, 0x0C, 0x00, 0x00, 0x00,
  0x00, 0x00, 0x08, 0x00, 0x04, 0x00, 0x0C, 0x00, 0x00, 0x00,
  0x08, 0x00, 0x00, 0x00, 0x14, 0x00, 0x00, 0x00, 0x01, 0x00,
  0x00, 0x00, 0x80, 0xFF, 0xFF, 0xFF, 0xFF, 0xFF, 0xFF, 0xFF,
  0x00, 0x00, 0x00, 0x00, 0x01, 0x00, 0x00, 0x00, 0x00, 0x00,
  0x80, 0x3F, 0x1F, 0x00, 0x00, 0x00, 0x73, 0x65, 0x72, 0x76,
  0x69, 0x6E, 0x67, 0x5F, 0x64, 0x65, 0x66, 0x61, 0x75, 0x6C,
  0x74, 0x5F, 0x72, 0x65, 0x73, 0x68, 0x61, 0x70, 0x65, 0x5F,
  0x69, 0x6E, 0x70, 0x75, 0x74, 0x3A, 0x30, 0x00, 0x03, 0x00,
  0x00, 0x00, 0x01, 0x00, 0x00, 0x00, 0x60, 0x00, 0x00, 0x00,
  0x60, 0x00, 0x00, 0x00, 0x09, 0x00, 0x00, 0x00, 0xB0, 0x00,
  0x00, 0x00, 0x94, 0x00, 0x00, 0x00, 0x84, 0x00, 0x00, 0x00,
  0x74, 0x00, 0x00, 0x00, 0x60, 0x00, 0x00, 0x00, 0x40, 0x00,
  0x00, 0x00, 0x2C, 0x00, 0x00, 0x00, 0x18, 0x00, 0x00, 0x00,
  0x04, 0x00, 0x00, 0x00, 0xC0, 0xFF, 0xFF, 0xFF, 0x19, 0x00,
  0x00, 0x00, 0x02, 0x00, 0x00, 0x00, 0x00, 0x00, 0x00, 0x19,
  0xD0, 0xFF, 0xFF, 0xFF, 0x09, 0x00, 0x00, 0x00, 0x04, 0x00,
  0x00, 0x00, 0x00, 0x00, 0x00, 0x09, 0xE0, 0xFF, 0xFF, 0xFF,
  0x04, 0x00, 0x00, 0x00, 0x03, 0x00, 0x00, 0x00, 0x00, 0x00,
  0x00, 0x04, 0xF0, 0xFF, 0xFF, 0xFF, 0x11, 0x00, 0x00, 0x00,
  0x02, 0x00, 0x00, 0x00, 0x00, 0x00, 0x00, 0x11, 0x0C, 0x00,
  0x10, 0x00, 0x0F, 0x00, 0x00, 0x00, 0x08, 0x00, 0x04, 0x00,
  0x0C, 0x00, 0x00, 0x00, 0x03, 0x00, 0x00, 0x00, 0x03, 0x00,
  0x00, 0x00, 0x00, 0x00, 0x00, 0x03, 0xDC, 0xFF, 0xFF, 0xFF,
  0x16, 0x00, 0x00, 0x00, 0x00, 0x00, 0x00, 0x16, 0xE8, 0xFF,
  0xFF, 0xFF, 0x53, 0x00, 0x00, 0x00, 0x00, 0x00, 0x00, 0x53,
  0xF4, 0xFF, 0xFF, 0xFF, 0x2D, 0x00, 0x00, 0x00, 0x00, 0x00,
  0x00, 0x2D, 0x0C, 0x00, 0x0C, 0x00, 0x0B, 0x00, 0x00, 0x00,
  0x00, 0x00, 0x04, 0x00, 0x0C, 0x00, 0x00, 0x00, 0x4D, 0x00,
  0x00, 0x00, 0x00, 0x00, 0x00, 0x4D
};
unsigned int model_tflite_len = 8936;
