#include "person_detect_model_data.h"

const unsigned char model_tflite[] = {
  0x1C, 0x00, 0x00, 0x00, 0x54, 0x46, 0x4C, 0x33, 0x14, 0x00,
  0x20, 0x00, 0x1C, 0x00, 0x18, 0x00, 0x14, 0x00, 0x10, 0x00,
  0x0C, 0x00, 0x00, 0x00, 0x08, 0x00, 0x04, 0x00, 0x14, 0x00,
  0x00, 0x00, 0x1C, 0x00, 0x00, 0x00, 0x88, 0x00, 0x00, 0x00,
  0xE0, 0x00, 0x00, 0x00, 0xA4, 0x0F, 0x00, 0x00, 0xB4, 0x0F,
  0x00, 0x00, 0xF4, 0x21, 0x00, 0x00, 0x03, 0x00, 0x00, 0x00,
  0x01, 0x00, 0x00, 0x00, 0x04, 0x00, 0x00, 0x00, 0x3A, 0xEE,
  0xFF, 0xFF, 0x0C, 0x00, 0x00, 0x00, 0x1C, 0x00, 0x00, 0x00,
  0x38, 0x00, 0x00, 0x00, 0x0F, 0x00, 0x00, 0x00, 0x73, 0x65,
  0x72, 0x76, 0x69, 0x6E, 0x67, 0x5F, 0x64, 0x65, 0x66, 0x61,
  0x75, 0x6C, 0x74, 0x00, 0x01, 0x00, 0x00, 0x00, 0x04, 0x00,
  0x00, 0x00, 0x94, 0xFF, 0xFF, 0xFF, 0x16, 0x00, 0x00, 0x00,
  0x04, 0x00, 0x00, 0x00, 0x05, 0x00, 0x00, 0x00, 0x64, 0x65,
  0x6E, 0x73, 0x65, 0x00, 0x00, 0x00, 0x01, 0x00, 0x00, 0x00,
  0x04, 0x00, 0x00, 0x00, 0x3E, 0xEE, 0xFF, 0xFF, 0x04, 0x00,
  0x00, 0x00, 0x0D, 0x00, 0x00, 0x00, 0x72, 0x65, 0x73, 0x68,
  0x61, 0x70, 0x65, 0x5F, 0x69, 0x6E, 0x70, 0x75, 0x74, 0x00,
  0x00, 0x00, 0x02, 0x00, 0x00, 0x00, 0x34, 0x00, 0x00, 0x00,
  0x04, 0x00, 0x00, 0x00, 0xDC, 0xFF, 0xFF, 0xFF, 0x19, 0x00,
  0x00, 0x00, 0x04, 0x00, 0x00, 0x00, 0x13, 0x00, 0x00, 0x00,
  0x43, 0x4F, 0x4E, 0x56, 0x45, 0x52, 0x53, 0x49, 0x4F, 0x4E,
  0x5F, 0x4D, 0x45, 0x54, 0x41, 0x44, 0x41, 0x54, 0x41, 0x00,
  0x08, 0x00, 0x0C, 0x00, 0x08, 0x00, 0x04, 0x00, 0x08, 0x00,
  0x00, 0x00, 0x18, 0x00, 0x00, 0x00, 0x04, 0x00, 0x00, 0x00,
  0x13, 0x00, 0x00, 0x00, 0x6D, 0x69, 0x6E, 0x5F, 0x72, 0x75,
  0x6E, 0x74, 0x69, 0x6D, 0x65, 0x5F, 0x76, 0x65, 0x72, 0x73,
  0x69, 0x6F, 0x6E, 0x00, 0x1A, 0x00, 0x00, 0x00, 0xC0, 0x0E,
  0x00, 0x00, 0xB8, 0x0E, 0x00, 0x00, 0xA4, 0x0E, 0x00, 0x00,
  0x90, 0x0E, 0x00, 0x00, 0x7C, 0x0E, 0x00, 0x00, 0x74, 0x0E,
  0x00, 0x00, 0x5C, 0x0E, 0x00, 0x00, 0x44, 0x0E, 0x00, 0x00,
  0x34, 0x06, 0x00, 0x00, 0xE4, 0x05, 0x00, 0x00, 0xD4, 0x01,
  0x00, 0x00, 0x84, 0x01, 0x00, 0x00, 0xE4, 0x00, 0x00, 0x00,
  0xDC, 0x00, 0x00, 0x00, 0xD4, 0x00, 0x00, 0x00, 0xCC, 0x00,
  0x00, 0x00, 0xC4, 0x00, 0x00, 0x00, 0xBC, 0x00, 0x00, 0x00,
  0xB4, 0x00, 0x00, 0x00, 0xAC, 0x00, 0x00, 0x00, 0xA4, 0x00,
  0x00, 0x00, 0x9C, 0x00, 0x00, 0x00, 0x94, 0x00, 0x00, 0x00,
  0x8C, 0x00, 0x00, 0x00, 0x6C, 0x00, 0x00, 0x00, 0x04, 0x00,
  0x00, 0x00, 0x22, 0xEF, 0xFF, 0xFF, 0x04, 0x00, 0x00, 0x00,
  0x58, 0x00, 0x00, 0x00, 0x0C, 0x00, 0x00, 0x00, 0x08, 0x00,
  0x0E, 0x00, 0x08, 0x00, 0x04, 0x00, 0x08, 0x00, 0x00, 0x00,
  0x10, 0x00, 0x00, 0x00, 0x28, 0x00, 0x00, 0x00, 0x00, 0x00,
  0x06, 0x00, 0x08, 0x00, 0x04, 0x00, 0x06, 0x00, 0x00, 0x00,
  0x04, 0x00, 0x00, 0x00, 0x01, 0x00, 0x00, 0x00, 0xEB, 0x03,
  0x00, 0x00, 0x00, 0x00, 0x0A, 0x00, 0x10, 0x00, 0x0C, 0x00,
  0x08, 0x00, 0x04, 0x00, 0x0A, 0x00, 0x00, 0x00, 0x01, 0x00,
  0x00, 0x00, 0x02, 0x00, 0x00, 0x00, 0x04, 0x00, 0x00, 0x00,
  0x06, 0x00, 0x00, 0x00, 0x32, 0x2E, 0x31, 0x32, 0x2E, 0x30,
  0x00, 0x00, 0x86, 0xEF, 0xFF, 0xFF, 0x04, 0x00, 0x00, 0x00,
  0x10, 0x00, 0x00, 0x00, 0x31, 0x2E, 0x31, 0x34, 0x2E, 0x30,
  0x00, 0x00, 0x00, 0x00, 0x00, 0x00, 0x00, 0x00, 0x00, 0x00,
  0xB4, 0xE0, 0xFF, 0xFF, 0xB8, 0xE0, 0xFF, 0xFF, 0xBC, 0xE0,
  0xFF, 0xFF, 0xC0, 0xE0, 0xFF, 0xFF, 0xC4, 0xE0, 0xFF, 0xFF,
  0xC8, 0xE0, 0xFF, 0xFF, 0xCC, 0xE0, 0xFF, 0xFF, 0xD0, 0xE0,
  0xFF, 0xFF, 0xD4, 0xE0, 0xFF, 0xFF, 0xD8, 0xE0, 0xFF, 0xFF,
  0xDC, 0xE0, 0xFF, 0xFF, 0xCE, 0xEF, 0xFF, 0xFF, 0x04, 0x00,
  0x00, 0x00, 0x90, 0x00, 0x00, 0x00, 0xCE, 0x16, 0x81, 0x1C,
  0x47, 0xE1, 0x15, 0x2D, 0x07, 0x02, 0xEF, 0x7F, 0xC4, 0x1B,
  0x3F, 0xFF, 0x04, 0xCA, 0x11, 0x5B, 0x4D, 0x22, 0xDA, 0x81,
  0x1F, 0xB3, 0x3C, 0xAE, 0xA9, 0x81, 0x6E, 0x7C, 0x46, 0xE7,
  0x17, 0xF5, 0x20, 0x1B, 0x6E, 0xF1, 0x1C, 0x12, 0x85, 0xB9,
  0x81, 0x63, 0x68, 0x7D, 0xC2, 0xA0, 0xD0, 0xF4, 0x81, 0x8B,
  0x74, 0x1A, 0x7F, 0xD4, 0x1F, 0x29, 0x0A, 0x2A, 0xA2, 0xE0,
  0xAD, 0x73, 0xF3, 0xD2, 0x3A, 0xE8, 0x81, 0x50, 0x81, 0x27,
  0x5A, 0xBB, 0xA5, 0x7D, 0xB1, 0xCF, 0x2F, 0xCB, 0x7F, 0xC0,
  0xDF, 0x3D, 0xA3, 0x98, 0x72, 0x14, 0xC0, 0x34, 0xC9, 0x08,
  0x3E, 0xAC, 0x7F, 0x75, 0xD5, 0x34, 0xBA, 0xF3, 0x03, 0x81,
  0x52, 0x0B, 0x0D, 0x60, 0x45, 0xA9, 0xF5, 0x2A, 0x36, 0x23,
  0x81, 0x77, 0xAB, 0x7F, 0xF3, 0xA2, 0x6C, 0xAB, 0xE9, 0xE4,
  0x36, 0xA4, 0x46, 0xBE, 0xF6, 0x15, 0x4E, 0x81, 0x3E, 0x5F,
  0xB8, 0xA1, 0xDB, 0x7F, 0x2B, 0x14, 0xAD, 0xE2, 0x75, 0xBC,
  0x6A, 0xF0, 0xFF, 0xFF, 0x04, 0x00, 0x00, 0x00, 0x40, 0x00,
  0x00, 0x00, 0x2B, 0x03, 0x00, 0x00, 0xFB, 0xE9, 0xFF, 0xFF,
  0x92, 0xF4, 0xFF, 0xFF, 0x27, 0xF5, 0xFF, 0xFF, 0xCB, 0x0A,
  0x00, 0x00, 0xDC, 0x08, 0x00, 0x00, 0x83, 0x0A, 0x00, 0x00,
  0x39, 0x25, 0x00, 0x00, 0xCC, 0x0E, 0x00, 0x00, 0xF0, 0x18,
  0x00, 0x00, 0xB2, 0xEC, 0xFF, 0xFF, 0x2F, 0xF7, 0xFF, 0xFF,
  0x80, 0xF9, 0xFF, 0xFF, 0x20, 0x0B, 0x00, 0x00, 0xEC, 0xF7,
  0xFF, 0xFF, 0xFF, 0x01, 0x00, 0x00, 0xB6, 0xF0, 0xFF, 0xFF,
  0x04, 0x00, 0x00, 0x00, 0x00, 0x04, 0x00, 0x00, 0xF7, 0xF6,
  0x4F, 0x3D, 0x20, 0x3C, 0xA7, 0x65, 0x18, 0x3E, 0xE0, 0x21,
  0x47, 0x01, 0xC2, 0x38, 0x1C, 0x16, 0x53, 0x19, 0x3D, 0x4B,
  0x0D, 0xEB, 0x5B, 0x11, 0x30, 0xE5, 0x27, 0x1A, 0x01, 0x68,
  0x19, 0xF0, 0x93, 0xEE, 0x42, 0x50, 0xD6, 0x23, 0x1D, 0xE2,
  0xF0, 0x02, 0x3F, 0x11, 0xB8, 0x67, 0x18, 0xE6, 0x09, 0x1D,
  0x42, 0x44, 0x42, 0x5E, 0x01, 0xF5, 0x4A, 0x56, 0x7F, 0x55,
  0x47, 0x43, 0xFD, 0xAA, 0x70, 0xF3, 0x58, 0x13, 0x5F, 0x0B,
  0x3A, 0xBF, 0xCE, 0x17, 0x58, 0xF9, 0x22, 0x1F, 0x06, 0xC6,
  0x2E, 0x00, 0x2E, 0x2D, 0xA8, 0xD6, 0x46, 0xDE, 0x28, 0x7F,
  0x71, 0x2F, 0x30, 0x17, 0x1F, 0xB1, 0x4C, 0x2A, 0x21, 0x11,
  0xB6, 0xD3, 0x06, 0xB6, 0x00, 0x9A, 0x59, 0xE5, 0xAC, 0x2E,
  0x12, 0xEF, 0x4F, 0x2C, 0x3A, 0x04, 0xC5, 0xD7, 0x45, 0x1C,
  0x15, 0x5F, 0xE8, 0xDF, 0x62, 0xFC, 0x3A, 0xF9, 0x49, 0x16,
  0x51, 0x27, 0x1E, 0x70, 0x43, 0x4B, 0xFD, 0x0F, 0xF1, 0x2A,
  0x5D, 0x68, 0xED, 0x09, 0x00, 0x18, 0x50, 0x32, 0xB4, 0x2A,
  0x34, 0x3C, 0x4A, 0xD7, 0xEF, 0xDF, 0x38, 0x51, 0x2D, 0xA9,
  0x38, 0x17, 0x53, 0x29, 0x34, 0x0F, 0x33, 0xBF, 0x28, 0xEB,
  0xF8, 0x20, 0x30, 0x6A, 0xE9, 0xEE, 0xE0, 0xE7, 0x47, 0x38,
  0xAE, 0x58, 0x05, 0x18, 0x1E, 0x0F, 0xFA, 0x56, 0x30, 0x1E,
  0xF2, 0x0A, 0x57, 0xFC, 0x39, 0x3E, 0x5D, 0x0F, 0x43, 0xEA,
  0xCA, 0x49, 0x07, 0x00, 0x3A, 0xF3, 0x41, 0x1B, 0x55, 0x23,
  0x1D, 0x2E, 0xB4, 0xF8, 0x6D, 0xB1, 0xB6, 0x4A, 0xF7, 0xE9,
  0x0F, 0x1E, 0x30, 0x8F, 0xE3, 0x1D, 0x0C, 0x56, 0xD5, 0xDB,
  0x37, 0xD4, 0x09, 0x00, 0x26, 0xEF, 0x3A, 0x2C, 0x2F, 0xB6,
  0xC4, 0x28, 0x39, 0x3D, 0xF4, 0xF6, 0x1D, 0x2E, 0x18, 0x57,
  0x3F, 0x10, 0x3C, 0x1C, 0x19, 0x98, 0xE9, 0xE2, 0x1C, 0x4A,
  0x34, 0x7F, 0x51, 0x46, 0x12, 0x45, 0x01, 0xFB, 0xE1, 0x3A,
  0xF5, 0x19, 0x18, 0xF6, 0x1A, 0x3A, 0x98, 0x18, 0x3C, 0x16,
  0x44, 0xB8, 0x12, 0xFA, 0xBD, 0x50, 0x1E, 0xAD, 0x7E, 0xC8,
  0x2C, 0x3F, 0xEB, 0xDA, 0x2E, 0xF6, 0xE3, 0x21, 0xF6, 0x3E,
  0xFE, 0x18, 0x05, 0x35, 0xB3, 0xF8, 0x42, 0x36, 0xF7, 0x20,
  0x01, 0x9B, 0x49, 0x4E, 0x18, 0x5A, 0x56, 0x7E, 0x01, 0x26,
  0xBD, 0xE8, 0x5A, 0x33, 0x9C, 0x0C, 0x40, 0x0B, 0x1D, 0x28,
  0x65, 0xF0, 0xD2, 0x7F, 0xEE, 0x3C, 0x8C, 0xED, 0x61, 0x52,
  0x81, 0xDD, 0x6D, 0xE6, 0x08, 0x25, 0x05, 0xFD, 0x93, 0x40,
  0x23, 0xF8, 0xE0, 0x0B, 0x5A, 0x66, 0xD9, 0xCA, 0x33, 0x8C,
  0xFE, 0x21, 0xF5, 0x02, 0x4B, 0x32, 0x13, 0x04, 0x12, 0xDE,
  0x35, 0x41, 0x05, 0xF1, 0x35, 0x4A, 0x2B, 0x04, 0x48, 0xF3,
  0xB1, 0x10, 0x08, 0x39, 0xBF, 0x5E, 0x42, 0x2E, 0xD8, 0x48,
  0x4F, 0x2F, 0x46, 0x1B, 0x50, 0x07, 0x2F, 0x21, 0xFA, 0x15,
  0x04, 0x2B, 0x2B, 0x18, 0x91, 0x58, 0x21, 0x1A, 0x18, 0x09,
  0xD9, 0x1A, 0xBA, 0x6D, 0xDD, 0xAB, 0x5D, 0x4A, 0x26, 0x2C,
  0xB6, 0xE5, 0x30, 0x52, 0xF1, 0x10, 0x11, 0x38, 0xA9, 0x13,
  0x14, 0xF2, 0xC4, 0x6E, 0xE3, 0x30, 0x0B, 0x0A, 0xFC, 0x02,
  0x16, 0xE3, 0x07, 0x67, 0x38, 0x27, 0xE3, 0xD8, 0x50, 0x4F,
  0x06, 0x00, 0x30, 0x0E, 0x1A, 0xBD, 0xFE, 0xC9, 0x2F, 0xF6,
  0x53, 0x49, 0xF6, 0x79, 0x1F, 0x25, 0x26, 0x05, 0xC1, 0x03,
  0x7F, 0xF8, 0x0E, 0x15, 0x4F, 0xF1, 0x2B, 0x1C, 0x17, 0x40,
  0x0B, 0x17, 0x0E, 0xF6, 0x5C, 0xDA, 0x6C, 0xAB, 0xEB, 0x0C,
  0x05, 0xFD, 0xB2, 0x4B, 0x15, 0x66, 0x7F, 0x2B, 0x51, 0x0F,
  0x18, 0xFE, 0x40, 0x73, 0x27, 0x57, 0x12, 0xF3, 0x09, 0x06,
  0x2A, 0xE0, 0xBF, 0x1F, 0x56, 0x45, 0xAD, 0x5C, 0x39, 0x5A,
  0x31, 0xD2, 0x15, 0x27, 0x18, 0x5D, 0x01, 0x41, 0xD3, 0x02,
  0x6F, 0x37, 0xF9, 0x4A, 0x4A, 0xF5, 0x32, 0xEC, 0xDE, 0xF6,
  0x07, 0x17, 0x2C, 0x09, 0xD5, 0xE4, 0x6F, 0x37, 0x12, 0xEE,
  0x20, 0x03, 0x42, 0x1A, 0x2A, 0x7F, 0x0B, 0x1B, 0x69, 0x07,
  0x1C, 0x0C, 0x4F, 0x25, 0xAD, 0x2B, 0x27, 0xFD, 0x47, 0x46,
  0x22, 0x2F, 0x41, 0x29, 0x42, 0x04, 0x2B, 0x2C, 0x32, 0x1C,
  0x46, 0x23, 0x1C, 0xC2, 0x28, 0x03, 0xC7, 0x19, 0xE5, 0x10,
  0x3D, 0x25, 0x1C, 0x1F, 0x02, 0x31, 0xD4, 0x03, 0x53, 0xF8,
  0x7F, 0xCD, 0x3B, 0xEB, 0xB4, 0x37, 0x1C, 0xED, 0xB0, 0x28,
  0x18, 0x09, 0x56, 0xDE, 0x76, 0x94, 0x3B, 0xEA, 0x54, 0xF1,
  0x1C, 0x3B, 0xE9, 0x7F, 0x3B, 0x1B, 0x1C, 0x43, 0xC2, 0x0E,
  0x15, 0x36, 0x0C, 0x71, 0x05, 0xF3, 0xE3, 0x3E, 0x59, 0xF2,
  0x9A, 0x04, 0x32, 0x59, 0xA1, 0x34, 0x12, 0x78, 0x2F, 0x1B,
  0x42, 0x11, 0x3C, 0x04, 0xF6, 0x21, 0xA2, 0xDB, 0x5A, 0x4C,
  0x33, 0x1B, 0x35, 0x4D, 0x44, 0x16, 0x34, 0x18, 0x4E, 0x7C,
  0x66, 0x00, 0x59, 0xE6, 0x1A, 0x3A, 0xD2, 0xEE, 0x3B, 0xB3,
  0xF2, 0xEF, 0xC4, 0x79, 0x00, 0x1F, 0x5F, 0x16, 0x4D, 0xE7,
  0x61, 0x27, 0xCD, 0xFB, 0x28, 0xCA, 0x31, 0x3C, 0xDD, 0x44,
  0xDB, 0x2F, 0x0E, 0x5C, 0x56, 0xBC, 0x7F, 0x2C, 0x3E, 0x04,
  0x58, 0x9A, 0xDA, 0xED, 0x56, 0xF1, 0xE3, 0x2F, 0x51, 0x66,
  0x03, 0x03, 0x79, 0x30, 0x08, 0xE2, 0x08, 0x3E, 0x39, 0xFF,
  0xEF, 0xE6, 0xE2, 0x43, 0x22, 0xEF, 0xBB, 0xF2, 0x6C, 0x31,
  0x9F, 0xD2, 0x3F, 0xB6, 0x3A, 0xFF, 0x34, 0xD4, 0x17, 0x18,
  0xF3, 0x59, 0x5E, 0x0B, 0x61, 0x45, 0x5F, 0xD4, 0x5A, 0x67,
  0xDA, 0x43, 0x20, 0x12, 0xEA, 0x52, 0xE3, 0x0E, 0x52, 0xED,
  0x50, 0xFF, 0x0D, 0x27, 0x58, 0x5C, 0x24, 0xF2, 0x0F, 0x11,
  0x37, 0x09, 0x1F, 0x27, 0xA6, 0x1D, 0x2D, 0x08, 0xBA, 0xFA,
  0x0E, 0x31, 0xAD, 0x17, 0x13, 0x2D, 0xF1, 0x32, 0x61, 0xBB,
  0x41, 0x25, 0x3A, 0x3F, 0xA6, 0x2A, 0x48, 0xFF, 0xDF, 0x41,
  0x07, 0x6C, 0x03, 0x01, 0x7F, 0x01, 0x06, 0xF2, 0x57, 0x2E,
  0x07, 0xF9, 0x58, 0x94, 0x2A, 0x29, 0x0B, 0x28, 0x3D, 0x2E,
  0x14, 0xDE, 0x28, 0x22, 0x56, 0x3A, 0x39, 0xF0, 0x52, 0x83,
  0xAF, 0x19, 0xCE, 0x26, 0xD4, 0x61, 0x55, 0x03, 0xF4, 0x33,
  0x78, 0x38, 0xF7, 0xFB, 0x27, 0xF5, 0xD5, 0x33, 0xF4, 0x2F,
  0xEC, 0x09, 0x67, 0x4C, 0x4C, 0xEA, 0x67, 0x0A, 0x66, 0xEC,
  0x61, 0x26, 0x16, 0xEE, 0xD1, 0x1E, 0xD7, 0xF2, 0x04, 0xE1,
  0x3C, 0x2C, 0x38, 0x2C, 0x9E, 0xFB, 0x44, 0x27, 0xCA, 0xAC,
  0x51, 0x19, 0x81, 0x1C, 0xE4, 0xC5, 0x08, 0x7F, 0x30, 0x4C,
  0xBE, 0x1E, 0x74, 0x7F, 0x1C, 0xA2, 0xBE, 0x04, 0x08, 0x3E,
  0xE4, 0x47, 0x18, 0x5F, 0x03, 0x4B, 0xC9, 0x03, 0x12, 0x09,
  0x91, 0xD7, 0x09, 0xFD, 0x11, 0x18, 0x2F, 0xBB, 0xDE, 0x55,
  0x52, 0x7F, 0xD2, 0x20, 0x44, 0xFA, 0xFF, 0xE4, 0xDB, 0x48,
  0x63, 0x29, 0x56, 0x1F, 0x03, 0x28, 0x51, 0x5D, 0xE9, 0x17,
  0x78, 0xF6, 0x3F, 0x3D, 0xC2, 0x5E, 0x0F, 0x4A, 0xF6, 0xC6,
  0x8D, 0x10, 0x48, 0x54, 0xC2, 0xDB, 0x4E, 0x31, 0xC6, 0xB6,
  0x0B, 0x05, 0x39, 0x3F, 0x04, 0x03, 0x69, 0x27, 0x39, 0x5C,
  0xBA, 0xE0, 0x51, 0xE8, 0x9E, 0x2E, 0x22, 0xF1, 0x8F, 0xD3,
  0x4B, 0xE7, 0xAA, 0x3B, 0x38, 0x5C, 0xF2, 0xE0, 0x16, 0xF1,
  0xBC, 0x08, 0xDE, 0x14, 0x22, 0x33, 0x0B, 0xD5, 0x75, 0x21,
  0x47, 0x45, 0x29, 0xD6, 0x0A, 0x34, 0xD3, 0x3E, 0x46, 0xED,
  0xFB, 0xF3, 0xC2, 0xF4, 0xFF, 0xFF, 0x04, 0x00, 0x00, 0x00,
  0x40, 0x00, 0x00, 0x00, 0xAF, 0xDC, 0xFF, 0xFF, 0x8B, 0xF1,
  0xFF, 0xFF, 0x31, 0xED, 0xFF, 0xFF, 0x24, 0xFA, 0xFF, 0xFF,
  0x49, 0xEF, 0xFF, 0xFF, 0x51, 0xEE, 0xFF, 0xFF, 0x7A, 0xED,
  0xFF, 0xFF, 0xE8, 0xF7, 0xFF, 0xFF, 0xE0, 0xFF, 0xFF, 0xFF,
  0xAE, 0xFB, 0xFF, 0xFF, 0x53, 0xE2, 0xFF, 0xFF, 0x7B, 0xE6,
  0xFF, 0xFF, 0xA0, 0xEF, 0xFF, 0xFF, 0xA4, 0xF9, 0xFF, 0xFF,
  0xE8, 0xF3, 0xFF, 0xFF, 0xA8, 0xE8, 0xFF, 0xFF, 0x0E, 0xF5,
  0xFF, 0xFF, 0x04, 0x00, 0x00, 0x00, 0x00, 0x08, 0x00, 0x00,
  0xCD, 0x0E, 0x1A, 0xCE, 0xFC, 0xFC, 0x19, 0xEC, 0x0A, 0x28,
  0xBF, 0xFB, 0xFD, 0xCA, 0x0D, 0x00, 0xFB, 0xFF, 0x0D, 0xEC,
  0xED, 0x15, 0x1D, 0xFE, 0x0C, 0x08, 0xF1, 0x12, 0xD2, 0xF9,
  0x08, 0xF2, 0xF0, 0xCD, 0x09, 0x04, 0xF8, 0xE7, 0x11, 0x26,
  0x28, 0x38, 0xE1, 0xEF, 0xB1, 0x3D, 0x06, 0xC0, 0xEF, 0xD2,
  0xD8, 0xEF, 0x0B, 0x10, 0x06, 0x11, 0x08, 0xCC, 0xE0, 0xE7,
  0xC3, 0xD6, 0x06, 0xB1, 0xF3, 0x1A, 0xF9, 0xE4, 0x11, 0xF1,
  0x00, 0xC0, 0x29, 0xBB, 0x0E, 0x0F, 0xF7, 0x12, 0xE2, 0xD6,
  0xF0, 0xEA, 0x0F, 0xED, 0x0E, 0x2E, 0x1A, 0x05, 0xF2, 0x00,
  0xE4, 0xFD, 0x05, 0x3B, 0x0B, 0xD7, 0xEE, 0xF7, 0xEA, 0x0F,
  0xE2, 0x21, 0x0B, 0xE2, 0xF3, 0x3C, 0xF2, 0xF3, 0xE9, 0x1C,
  0xDB, 0xC2, 0xE1, 0x33, 0xE0, 0xE8, 0x10, 0x09, 0xE3, 0x44,
  0x36, 0x0E, 0x0C, 0xE2, 0x0D, 0x2C, 0x08, 0xF9, 0xF0, 0x04,
  0xF3, 0xD7, 0x11, 0x25, 0xE4, 0xFA, 0xFA, 0x20, 0x33, 0xF1,
  0xD0, 0xBC, 0xE2, 0xD6, 0x0D, 0x26, 0xEF, 0x19, 0x42, 0x03,
  0xFE, 0x0C, 0xFE, 0xDC, 0x25, 0x16, 0x0B, 0x25, 0xF3, 0xEE,
  0x29, 0x16, 0xEB, 0x1F, 0x4B, 0xF9, 0xEF, 0x45, 0x30, 0xF5,
  0x31, 0x2A, 0xEA, 0x14, 0xEE, 0x01, 0xD2, 0x05, 0x0C, 0x11,
  0x36, 0x20, 0x18, 0x0F, 0xE1, 0xEE, 0x05, 0xD4, 0xE4, 0xDF,
  0xDB, 0xCF, 0xDB, 0xEE, 0xF0, 0x3B, 0x08, 0x1B, 0xFE, 0xEC,
  0x19, 0xFD, 0xBF, 0xF5, 0xE7, 0xDB, 0x03, 0xCB, 0xEA, 0xD4,
  0xF7, 0x35, 0x0B, 0x1D, 0x01, 0xDD, 0x03, 0xFB, 0xCA, 0xDF,
  0xF4, 0x06, 0xEB, 0xD3, 0xC7, 0x03, 0xFC, 0x18, 0xEB, 0xE8,
  0x0C, 0x15, 0xD4, 0x71, 0xEB, 0x07, 0x05, 0x0A, 0xF4, 0xD9,
  0xF1, 0xFE, 0xE6, 0xF5, 0xE7, 0x09, 0x16, 0x3E, 0xE9, 0xFB,
  0x28, 0xE7, 0xE6, 0xF4, 0xF3, 0xCD, 0x08, 0xE2, 0xF5, 0x18,
  0x52, 0x31, 0xF7, 0xB7, 0x2A, 0x20, 0xE7, 0x19, 0xE7, 0xD6,
  0xEB, 0x17, 0xFB, 0xFF, 0xEE, 0x25, 0x0B, 0x1C, 0xEF, 0xDD,
  0xF6, 0xCF, 0x1D, 0x29, 0xF7, 0x18, 0x15, 0xFD, 0x13, 0x34,
  0xFB, 0x61, 0x05, 0x05, 0xF7, 0x16, 0xEF, 0xF2, 0x0C, 0x1D,
  0x24, 0xF1, 0x07, 0x1C, 0x03, 0x03, 0x14, 0x27, 0x27, 0x14,
  0x14, 0xB6, 0xD4, 0x01, 0xE6, 0xD1, 0xED, 0x05, 0xEC, 0xC4,
  0xF1, 0xF6, 0xE8, 0x35, 0xFB, 0x1D, 0xF0, 0xC9, 0x04, 0xD1,
  0xDD, 0x05, 0xEE, 0xEA, 0x01, 0xE7, 0x0C, 0x24, 0x01, 0xF3,
  0x13, 0x2A, 0x0C, 0xDB, 0xBA, 0x18, 0xD2, 0xEB, 0xFF, 0xAC,
  0xEC, 0xDB, 0xF8, 0x27, 0xF3, 0xE1, 0xCE, 0x2E, 0x0A, 0xC9,
  0xC1, 0xFC, 0xF0, 0xFB, 0xEC, 0xEA, 0xF0, 0x02, 0x11, 0xDA,
  0xF7, 0xBA, 0x18, 0xF9, 0xF8, 0xE7, 0xFE, 0xE1, 0x1D, 0x08,
  0xF9, 0xF8, 0x10, 0x15, 0x24, 0x1B, 0x28, 0x08, 0x36, 0x39,
  0x0D, 0x21, 0x10, 0x06, 0x0C, 0x01, 0x21, 0x34, 0xFE, 0xE5,
  0xF9, 0x24, 0xF6, 0x25, 0x10, 0x12, 0x11, 0x14, 0xED, 0x22,
  0x2B, 0x24, 0x39, 0xE5, 0xE1, 0x09, 0xDB, 0x22, 0x03, 0x23,
  0x03, 0x12, 0xEF, 0xE7, 0xB8, 0xA4, 0xE2, 0x1B, 0x07, 0x1E,
  0x05, 0x0D, 0x21, 0x2A, 0x0D, 0x1F, 0x4A, 0x2F, 0x18, 0x9F,
  0xD0, 0xF5, 0x0A, 0x01, 0x0E, 0xDE, 0x1D, 0xE4, 0xE7, 0xDA,
  0xFE, 0x17, 0x2D, 0x54, 0x03, 0xFD, 0xC3, 0xEB, 0xE0, 0xE4,
  0x10, 0xF4, 0x26, 0xF2, 0xD8, 0xE4, 0xFC, 0xCE, 0x16, 0x40,
  0x16, 0xCC, 0xDC, 0x00, 0x15, 0xFB, 0x25, 0x8B, 0xEB, 0x0D,
  0xDA, 0xF9, 0x09, 0xEB, 0xF3, 0x56, 0xFC, 0xEC, 0xDC, 0xF7,
  0xF7, 0x1D, 0x2D, 0xF8, 0xE6, 0xEF, 0x36, 0xE6, 0x19, 0xFF,
  0x64, 0x4D, 0xFF, 0xEF, 0x16, 0x10, 0x18, 0x0B, 0xFF, 0x04,
  0x06, 0x09, 0xF8, 0xE3, 0xF6, 0xF9, 0x5F, 0x7A, 0xFA, 0x2E,
  0x3F, 0xB9, 0x2A, 0x04, 0x13, 0x4A, 0xF1, 0xFC, 0xF6, 0xF2,
  0x25, 0xFD, 0x19, 0x2C, 0xFA, 0x1B, 0xD0, 0x45, 0xEF, 0xE6,
  0x0A, 0xA9, 0xEE, 0x09, 0x14, 0x2C, 0xF7, 0x0C, 0x10, 0x31,
  0xEB, 0xF5, 0xB2, 0xE7, 0xDB, 0xEE, 0x1F, 0xF0, 0x16, 0x1D,
  0x31, 0x1B, 0xEF, 0xF9, 0x3D, 0x57, 0x11, 0xD8, 0xBE, 0xF4,
  0x12, 0xF9, 0xE8, 0xF8, 0xF3, 0x40, 0xE4, 0xB4, 0xF0, 0x2F,
  0x0C, 0x3B, 0xEB, 0xAD, 0xB1, 0xF5, 0x0D, 0x0C, 0xEC, 0xF1,
  0x0F, 0xF9, 0x07, 0xFA, 0x07, 0x1F, 0x19, 0x36, 0x0B, 0xC9,
  0x9B, 0xEF, 0xB7, 0xE9, 0xDE, 0xE1, 0xF7, 0x13, 0x34, 0x14,
  0xF7, 0x2C, 0x2A, 0x36, 0xF2, 0x01, 0xF0, 0xDA, 0x19, 0xFC,
  0x0D, 0xCF, 0xD2, 0x11, 0x4B, 0x33, 0x11, 0xFE, 0x5D, 0x4F,
  0x01, 0x18, 0x20, 0x06, 0x61, 0x1E, 0xF4, 0x36, 0xF5, 0x28,
  0x17, 0xD6, 0x0C, 0x08, 0x41, 0x3A, 0x04, 0x5F, 0x45, 0xC7,
  0xFA, 0xE0, 0x07, 0x56, 0xFD, 0xF6, 0xD4, 0xFA, 0xF6, 0x43,
  0xFD, 0x40, 0xF4, 0xFD, 0xCC, 0x0B, 0xF6, 0xF9, 0xF6, 0xA8,
  0x12, 0x04, 0x05, 0x0B, 0x03, 0xF8, 0x17, 0x1B, 0x13, 0xE9,
  0xD3, 0x10, 0x11, 0x20, 0x16, 0xBD, 0x17, 0xFE, 0xFB, 0x12,
  0x0A, 0x0D, 0x34, 0x47, 0xEF, 0xDA, 0xBC, 0xDC, 0x3B, 0x18,
  0x04, 0xD0, 0x2C, 0x0F, 0x05, 0x0A, 0xFD, 0xD8, 0x1E, 0x28,
  0xE4, 0xAE, 0xAF, 0x1F, 0xF6, 0xF1, 0xFF, 0xD1, 0xEF, 0x30,
  0x43, 0xE1, 0xFE, 0x17, 0x27, 0x26, 0x06, 0xD6, 0xE7, 0x18,
  0xFA, 0x07, 0xF1, 0xD7, 0x0B, 0x22, 0x02, 0xF8, 0x06, 0xE0,
  0x15, 0x29, 0x02, 0xD6, 0xD2, 0xE7, 0x1D, 0xF6, 0xE5, 0xAE,
  0x12, 0x02, 0x2C, 0xF6, 0xE0, 0x18, 0x5C, 0x3A, 0x02, 0x0D,
  0x21, 0xB6, 0x12, 0xEA, 0xE1, 0x44, 0xEF, 0x1A, 0x33, 0x15,
  0xEB, 0x18, 0x11, 0x20, 0x05, 0x62, 0x1C, 0xEE, 0xC2, 0xEC,
  0xF8, 0x37, 0x07, 0xF7, 0xE4, 0x1A, 0x13, 0xD8, 0xF6, 0xF7,
  0xE6, 0x07, 0xD7, 0x0D, 0xC2, 0x03, 0x12, 0xC9, 0xD9, 0x0F,
  0xFC, 0xE1, 0x0D, 0xD9, 0xE9, 0xEF, 0xF7, 0x0E, 0xFE, 0x29,
  0xDE, 0xFE, 0x13, 0xEC, 0xE7, 0xFF, 0x06, 0x16, 0x1B, 0xF0,
  0xFC, 0x35, 0xE8, 0xD8, 0xBE, 0xCC, 0x0E, 0x03, 0x31, 0xE8,
  0x1C, 0xF7, 0x38, 0xE5, 0xFF, 0x21, 0x24, 0x04, 0xEC, 0x0E,
  0xF0, 0xEB, 0x19, 0xFA, 0x32, 0xF8, 0x26, 0x1F, 0x08, 0xE8,
  0xFD, 0x2A, 0x1E, 0x20, 0x17, 0x31, 0x10, 0x4D, 0x21, 0x08,
  0xFE, 0xC1, 0x16, 0x18, 0x27, 0xF3, 0x05, 0xD5, 0xF4, 0xEF,
  0xFB, 0x11, 0x08, 0x13, 0x0F, 0x10, 0xFB, 0x19, 0xF1, 0x1E,
  0x07, 0xD4, 0xF4, 0xE4, 0x2B, 0x21, 0x11, 0xE9, 0xF0, 0xC9,
  0xC0, 0xD4, 0xDC, 0xCB, 0xE3, 0x0D, 0xC6, 0xFC, 0xE4, 0x8C,
  0xD9, 0x08, 0xEA, 0x53, 0x21, 0xB9, 0xB1, 0xE4, 0xE1, 0xFC,
  0x16, 0xDC, 0xF6, 0x00, 0xE4, 0xC7, 0xE5, 0xFC, 0xEE, 0x3B,
  0xE3, 0x40, 0xFB, 0x21, 0x29, 0xFC, 0x05, 0xFB, 0xA8, 0xD9,
  0x04, 0xD0, 0xF5, 0xEB, 0x05, 0x35, 0x08, 0x10, 0xF5, 0x10,
  0x29, 0x16, 0x24, 0x2C, 0xE1, 0x07, 0xF3, 0xBC, 0x02, 0x0F,
  0xFE, 0x09, 0xD4, 0xEA, 0x00, 0x26, 0x0D, 0x16, 0xFC, 0x20,
  0xE7, 0xC7, 0xFB, 0xC5, 0xFE, 0xE3, 0x1B, 0x12, 0x2C, 0x34,
  0x0F, 0xF4, 0x1D, 0xE9, 0xEE, 0x0A, 0xF8, 0xF7, 0x0B, 0xA3,
  0x1D, 0x0E, 0xEC, 0x25, 0x31, 0x4C, 0x14, 0xFF, 0x04, 0x30,
  0xE9, 0x31, 0xEE, 0xFD, 0x10, 0xAB, 0xF3, 0xDE, 0xFF, 0x37,
  0x31, 0x03, 0x35, 0xFC, 0x04, 0x12, 0x17, 0x42, 0xDA, 0xDF,
  0xE6, 0xC3, 0xF6, 0x08, 0x02, 0x12, 0xDA, 0xF8, 0x12, 0xF0,
  0xDE, 0xCA, 0xF8, 0x12, 0x3D, 0xF3, 0xE9, 0x3C, 0xFB, 0x20,
  0xE9, 0x31, 0xF7, 0xB7, 0x5D, 0x06, 0x09, 0x5D, 0xF8, 0x13,
  0xFD, 0x15, 0xEE, 0x01, 0xFB, 0xEA, 0x10, 0x2E, 0xF5, 0x15,
  0x0B, 0x00, 0x1F, 0xFE, 0x22, 0x1C, 0x0C, 0x30, 0xF3, 0x04,
  0x38, 0x0C, 0xFB, 0xC1, 0xC6, 0xC5, 0x40, 0xF9, 0x30, 0xDC,
  0x1B, 0x15, 0x2C, 0x1F, 0x28, 0x0C, 0x08, 0x17, 0xEF, 0x0D,
  0xFE, 0x4E, 0x2A, 0x20, 0x45, 0x2E, 0x0C, 0x1E, 0x3E, 0xDC,
  0x1C, 0x10, 0xFD, 0xE0, 0x12, 0x2C, 0xE8, 0x2E, 0xFF, 0x15,
  0x1E, 0x0E, 0xEB, 0x26, 0x3A, 0x0B, 0x02, 0x10, 0xD4, 0xD7,
  0xE8, 0xE2, 0xFA, 0x38, 0xF8, 0x0D, 0x04, 0xC5, 0x03, 0x01,
  0x14, 0xFE, 0xFD, 0xED, 0x1E, 0x00, 0x07, 0x30, 0x19, 0xBC,
  0x06, 0xF9, 0x09, 0xBA, 0x1E, 0x2B, 0x01, 0xE0, 0x00, 0x14,
  0xF9, 0x0E, 0xF2, 0xCF, 0xE1, 0xFF, 0xED, 0x11, 0x07, 0xD4,
  0x07, 0x21, 0xE6, 0xFE, 0x05, 0x24, 0xEA, 0xF6, 0x1A, 0x02,
  0x01, 0xFF, 0xAB, 0xFE, 0x24, 0x47, 0x19, 0x03, 0xCC, 0xEB,
  0x03, 0xE1, 0xE5, 0x02, 0xEF, 0xF7, 0x11, 0x26, 0xCF, 0xFC,
  0x13, 0xF3, 0x0B, 0xFE, 0xCB, 0xD9, 0xE8, 0xF2, 0xCA, 0xF4,
  0x1C, 0xBB, 0x04, 0x05, 0xBC, 0xF8, 0x0E, 0xCD, 0xFB, 0x09,
  0x44, 0x0D, 0xFA, 0xDD, 0xD2, 0xF9, 0x1A, 0xF4, 0x09, 0x1B,
  0x0E, 0x34, 0x1D, 0x2F, 0x0E, 0x14, 0x37, 0x11, 0x0B, 0xBE,
  0x08, 0x09, 0x0D, 0x1E, 0x03, 0x05, 0x42, 0x03, 0x18, 0xF1,
  0x00, 0x37, 0x38, 0x25, 0xEE, 0xD9, 0xE6, 0xD3, 0xF1, 0x2C,
  0xF7, 0x1F, 0x28, 0x0C, 0x02, 0x16, 0x13, 0x25, 0x30, 0xF2,
  0x11, 0xF1, 0x05, 0x2A, 0x07, 0xE5, 0x41, 0x8B, 0x20, 0x08,
  0x07, 0xF0, 0x0F, 0x1A, 0xF1, 0xF8, 0xF0, 0x3C, 0x0D, 0x09,
  0x16, 0xAE, 0x0B, 0xFF, 0xDA, 0x19, 0x02, 0x01, 0x15, 0x14,
  0x0B, 0x2E, 0xF7, 0xF7, 0xCE, 0xB1, 0x15, 0x1A, 0xE1, 0x05,
  0xFE, 0xE2, 0xF8, 0x2E, 0xF4, 0x10, 0xD0, 0x16, 0xE2, 0xCB,
  0xDC, 0xFC, 0x1C, 0x0A, 0x03, 0x3F, 0xCD, 0xF0, 0xFC, 0xE0,
  0xE3, 0x05, 0xCE, 0xDB, 0xFF, 0xB6, 0x07, 0x03, 0x0B, 0xD6,
  0x21, 0x38, 0x09, 0xE0, 0x0C, 0xF5, 0xF7, 0x0D, 0x05, 0xF1,
  0x17, 0xDF, 0xC7, 0xD0, 0x13, 0x2D, 0x42, 0xFC, 0x0B, 0x1F,
  0x17, 0x19, 0xF0, 0x2E, 0x33, 0x1D, 0xFB, 0xEA, 0xE5, 0xEC,
  0xF1, 0x37, 0x20, 0x20, 0x08, 0x23, 0xFB, 0x2A, 0x08, 0x25,
  0xF3, 0xDC, 0x16, 0x23, 0xEB, 0xFE, 0xF1, 0x2A, 0x23, 0xE5,
  0x0A, 0xE7, 0xF6, 0x4B, 0x29, 0x10, 0xE5, 0xCB, 0xFA, 0x35,
  0x0E, 0xE3, 0xFC, 0x44, 0x2F, 0xD6, 0xEC, 0xE0, 0xF4, 0x07,
  0xFA, 0xE6, 0xC9, 0xFB, 0xEA, 0x19, 0xF6, 0x0C, 0x19, 0x0F,
  0xF4, 0xF2, 0xEC, 0xE0, 0xF4, 0xE9, 0xE6, 0xFB, 0xDE, 0xEC,
  0xD7, 0xE9, 0xDD, 0xBF, 0x11, 0xE5, 0xF7, 0xDC, 0xFC, 0xF7,
  0xDD, 0xEA, 0xF8, 0xF5, 0xF4, 0xD0, 0xFF, 0xCE, 0xD1, 0xDB,
  0x0D, 0x1B, 0x25, 0xE1, 0xFA, 0xFC, 0xD5, 0x49, 0xFE, 0xF6,
  0xFF, 0x03, 0x1B, 0xE7, 0xF5, 0xCF, 0xF5, 0xF4, 0x5E, 0x33,
  0x28, 0xFB, 0x2C, 0xEA, 0x1B, 0xE6, 0xC7, 0xDE, 0x18, 0xD8,
  0xAD, 0xCB, 0xEB, 0x61, 0x45, 0xFF, 0xDD, 0xFD, 0x01, 0x2B,
  0xE9, 0x02, 0x0B, 0xEE, 0x10, 0x05, 0xB9, 0xBB, 0x10, 0x09,
  0x22, 0xE8, 0x1A, 0x08, 0x11, 0x3B, 0x0C, 0xF7, 0x1D, 0x1B,
  0xEF, 0x35, 0xD1, 0xDE, 0x17, 0x2E, 0x56, 0xEB, 0x00, 0xF9,
  0xFE, 0x59, 0xF5, 0xFD, 0x13, 0xFD, 0x13, 0x14, 0x02, 0xC1,
  0xF1, 0x19, 0x19, 0x24, 0x1A, 0x0E, 0xEC, 0x11, 0xF7, 0xEA,
  0xE3, 0xFC, 0x03, 0x01, 0xCF, 0xD2, 0x13, 0xF5, 0xF3, 0x11,
  0x07, 0xF5, 0xF5, 0x0A, 0x17, 0xD7, 0xFF, 0xFB, 0x12, 0x17,
  0xAF, 0x91, 0xFB, 0xE1, 0xC4, 0x3A, 0xCB, 0x25, 0xF7, 0xB8,
  0x1A, 0x15, 0xDC, 0x15, 0x05, 0x1C, 0xC4, 0xB0, 0x0F, 0xEE,
  0x4B, 0xA8, 0x14, 0x0F, 0x1B, 0x4D, 0x1E, 0x1E, 0xE2, 0xB9,
  0xEA, 0xF4, 0xC5, 0xAD, 0x12, 0x07, 0x51, 0x0E, 0xFE, 0xDD,
  0x00, 0x40, 0x1F, 0xF7, 0xDB, 0x0D, 0xDF, 0xFD, 0xAE, 0xB4,
  0x16, 0x06, 0x23, 0xF4, 0xD3, 0xEA, 0xE8, 0x25, 0xEF, 0xC4,
  0x1C, 0x54, 0x05, 0xC3, 0xF2, 0xE3, 0x16, 0x4B, 0x51, 0xFD,
  0xEB, 0xEC, 0x04, 0x34, 0x03, 0xFC, 0xEA, 0x1A, 0xE7, 0x0C,
  0xE6, 0xCE, 0xE4, 0x2B, 0x41, 0x23, 0x3F, 0xFB, 0xFB, 0x2F,
  0x13, 0x16, 0xD9, 0xE2, 0x08, 0xC5, 0xB5, 0xB0, 0xF6, 0x14,
  0x28, 0x07, 0xEF, 0xFD, 0x0C, 0x11, 0xFC, 0xF1, 0xC3, 0xCF,
  0xFC, 0xDA, 0x96, 0xA5, 0xEA, 0xD7, 0xE3, 0x05, 0xAF, 0xF2,
  0xF2, 0xC5, 0x0D, 0xF3, 0xFF, 0x10, 0xE8, 0xF3, 0xAF, 0xB5,
  0x18, 0xA4, 0xBD, 0x35, 0xFE, 0xF7, 0xF2, 0xAA, 0x00, 0x19,
  0x06, 0xF1, 0x1B, 0xDA, 0xFF, 0xCB, 0xE7, 0x0D, 0x39, 0xEB,
  0x30, 0x1F, 0x2B, 0x55, 0xF7, 0x18, 0xF2, 0x0B, 0x03, 0x14,
  0xC0, 0xBB, 0xE8, 0x1F, 0x4A, 0xFE, 0x08, 0xE2, 0x11, 0x1B,
  0xF7, 0xE9, 0xF9, 0xEE, 0xDA, 0xF4, 0xB5, 0x9F, 0xE6, 0xFA,
  0x3E, 0x3E, 0xD8, 0xFE, 0xF0, 0x38, 0x06, 0xC9, 0xD4, 0xF7,
  0x05, 0x18, 0xCF, 0xD3, 0x09, 0x30, 0x51, 0x06, 0x0B, 0x06,
  0xFB, 0x3C, 0xF5, 0xF8, 0xEA, 0x2E, 0x0D, 0xFE, 0xFA, 0xF6,
  0xE5, 0x27, 0x31, 0xE8, 0xFE, 0x0C, 0xFE, 0x0E, 0x06, 0xE1,
  0xEA, 0x0F, 0x15, 0x17, 0xE8, 0xE1, 0xE8, 0x11, 0x41, 0x1E,
  0xE7, 0x06, 0xF2, 0x37, 0xF1, 0x02, 0xCD, 0xE0, 0x1C, 0xDC,
  0xB9, 0xDF, 0x0A, 0xEA, 0xE2, 0x49, 0xD2, 0x1D, 0xF6, 0xE0,
  0xF9, 0x03, 0xF6, 0xCE, 0x07, 0xF3, 0x12, 0xF4, 0xEF, 0xB1,
  0xE4, 0x05, 0x3C, 0x06, 0xEB, 0xB6, 0xF5, 0x16, 0x1F, 0xDD,
  0x02, 0x0B, 0x19, 0x1B, 0xE3, 0x02, 0x34, 0xEE, 0x31, 0xEF,
  0xE5, 0x0E, 0x13, 0xF8, 0x16, 0x01, 0x10, 0x0F, 0x22, 0x36,
  0x0F, 0xFA, 0xFB, 0xD9, 0x06, 0x0E, 0xF8, 0x15, 0x06, 0xDC,
  0x05, 0xEC, 0x0C, 0xF4, 0x15, 0xCF, 0xF1, 0x31, 0x0F, 0x05,
  0xE1, 0xE6, 0xCD, 0x24, 0xF5, 0x0A, 0xE9, 0x1F, 0xD9, 0xE6,
  0xEA, 0xF0, 0xE5, 0x1F, 0x35, 0x21, 0x12, 0x1A, 0xF4, 0xF2,
  0xE2, 0xBD, 0x00, 0x15, 0xE3, 0xCF, 0x07, 0xCD, 0xE6, 0xFD,
  0xE6, 0xB6, 0xFA, 0xE3, 0xF6, 0x40, 0xF6, 0xD0, 0xD8, 0x1A,
  0xFE, 0x22, 0xF5, 0x21, 0xEF, 0xE5, 0xEC, 0x04, 0xD7, 0xEC,
  0xEB, 0xFF, 0xEF, 0x0E, 0x1B, 0x1B, 0x09, 0x17, 0xC8, 0x00,
  0x02, 0xEB, 0xF3, 0x37, 0x52, 0x2B, 0x0F, 0x28, 0xEF, 0x0F,
  0x49, 0x1D, 0x1A, 0x7F, 0x09, 0x1A, 0x15, 0xDA, 0xE8, 0x1E,
  0x4C, 0x20, 0x1A, 0xEC, 0x14, 0x0B, 0x06, 0x10, 0xFA, 0x5C,
  0x16, 0x2C, 0xE5, 0xDF, 0x01, 0xD0, 0x0E, 0x02, 0xF8, 0x25,
  0xEF, 0x16, 0x39, 0x03, 0x0D, 0x21, 0x12, 0x34, 0x0C, 0xBE,
  0x0F, 0xEF, 0xE2, 0xD9, 0xE8, 0xEF, 0xDE, 0xCF, 0x2C, 0x28,
  0x10, 0x42, 0x09, 0x0A, 0x17, 0xF6, 0x24, 0x38, 0x06, 0xF8,
  0x01, 0xF7, 0xDC, 0xDE, 0x20, 0x17, 0x0B, 0x2C, 0xEE, 0x09,
  0xF2, 0xE3, 0xD0, 0xDD, 0xFC, 0x1B, 0xEE, 0x14, 0xEE, 0xEF,
  0xEE, 0x0D, 0x11, 0x43, 0xF4, 0x0F, 0x06, 0xBA, 0xC5, 0xA8,
  0xE3, 0xE0, 0xEB, 0xC8, 0xEF, 0xFF, 0x1A, 0x11, 0x0F, 0x52,
  0x00, 0x18, 0xFD, 0xF0, 0x09, 0xD4, 0xD5, 0xE9, 0x01, 0xED,
  0x1C, 0xD4, 0x34, 0x08, 0x1C, 0x57, 0xD9, 0x0E, 0x06, 0x26,
  0x21, 0x13, 0xB8, 0x1C, 0xFE, 0x24, 0x1D, 0x03, 0x1A, 0xFD,
  0xFF, 0xFF, 0x04, 0x00, 0x00, 0x00, 0x08, 0x00, 0x00, 0x00,
  0x98, 0x02, 0x00, 0x00, 0x68, 0xFD, 0xFF, 0xFF, 0x2E, 0xFD,
  0xFF, 0xFF, 0x04, 0x00, 0x00, 0x00, 0x08, 0x00, 0x00, 0x00,
  0xFF, 0xFF, 0xFF, 0xFF, 0x00, 0x04, 0x00, 0x00, 0x54, 0xEE,
  0xFF, 0xFF, 0x46, 0xFD, 0xFF, 0xFF, 0x04, 0x00, 0x00, 0x00,
  0x04, 0x00, 0x00, 0x00, 0x60, 0x00, 0x00, 0x00, 0x56, 0xFD,
  0xFF, 0xFF, 0x04, 0x00, 0x00, 0x00, 0x04, 0x00, 0x00, 0x00,
  0x01, 0x00, 0x00, 0x00, 0x66, 0xFD, 0xFF, 0xFF, 0x04, 0x00,
  0x00, 0x00, 0x04, 0x00, 0x00, 0x00, 0x00, 0x00, 0x00, 0x00,
  0x88, 0xEE, 0xFF, 0xFF, 0x8C, 0xEE, 0xFF, 0xFF, 0x0F, 0x00,
  0x00, 0x00, 0x4D, 0x4C, 0x49, 0x52, 0x20, 0x43, 0x6F, 0x6E,
  0x76, 0x65, 0x72, 0x74, 0x65, 0x64, 0x2E, 0x00, 0x01, 0x00,
  0x00, 0x00, 0x14, 0x00, 0x00, 0x00, 0x00, 0x00, 0x0E, 0x00,
  0x18, 0x00, 0x14, 0x00, 0x10, 0x00, 0x0C, 0x00, 0x08, 0x00,
  0x04, 0x00, 0x0E, 0x00, 0x00, 0x00, 0x14, 0x00, 0x00, 0x00,
  0x1C, 0x00, 0x00, 0x00, 0x14, 0x03, 0x00, 0x00, 0x18, 0x03,
  0x00, 0x00, 0x1C, 0x03, 0x00, 0x00, 0x04, 0x00, 0x00, 0x00,
  0x6D, 0x61, 0x69, 0x6E, 0x00, 0x00, 0x00, 0x00, 0x0B, 0x00,
  0x00, 0x00, 0xC4, 0x02, 0x00, 0x00, 0x64, 0x02, 0x00, 0x00,
  0x0C, 0x02, 0x00, 0x00, 0xE4, 0x01, 0x00, 0x00, 0x88, 0x01,
  0x00, 0x00, 0x34, 0x01, 0x00, 0x00, 0xDC, 0x00, 0x00, 0x00,
  0x98, 0x00, 0x00, 0x00, 0x70, 0x00, 0x00, 0x00, 0x38, 0x00,
  0x00, 0x00, 0x04, 0x00, 0x00, 0x00, 0xD2, 0xFD, 0xFF, 0xFF,
  0x14, 0x00, 0x00, 0x00, 0x00, 0x00, 0x00, 0x09, 0x14, 0x00,
  0x00, 0x00, 0x18, 0x00, 0x00, 0x00, 0x08, 0x00, 0x00, 0x00,
  0x16, 0xFE, 0xFF, 0xFF, 0x00, 0x00, 0x80, 0x3F, 0x01, 0x00,
  0x00, 0x00, 0x16, 0x00, 0x00, 0x00, 0x01, 0x00, 0x00, 0x00,
  0x15, 0x00, 0x00, 0x00, 0x02, 0xFE, 0xFF, 0xFF, 0x14, 0x00,
  0x00, 0x00, 0x00, 0x00, 0x00, 0x08, 0x10, 0x00, 0x00, 0x00,
  0x14, 0x00, 0x00, 0x00, 0x07, 0x00, 0x00, 0x00, 0x58, 0xEF,
  0xFF, 0xFF, 0x01, 0x00, 0x00, 0x00, 0x15, 0x00, 0x00, 0x00,
  0x03, 0x00, 0x00, 0x00, 0x14, 0x00, 0x00, 0x00, 0x07, 0x00,
  0x00, 0x00, 0x06, 0x00, 0x00, 0x00, 0xAA, 0xFE, 0xFF, 0xFF,
  0x0C, 0x00, 0x00, 0x00, 0x10, 0x00, 0x00, 0x00, 0x03, 0x00,
  0x00, 0x00, 0x01, 0x00, 0x00, 0x00, 0x14, 0x00, 0x00, 0x00,
  0x02, 0x00, 0x00, 0x00, 0x13, 0x00, 0x00, 0x00, 0x05, 0x00,
  0x00, 0x00, 0x5A, 0xFE, 0xFF, 0xFF, 0x14, 0x00, 0x00, 0x00,
  0x00, 0x00, 0x00, 0x05, 0x24, 0x00, 0x00, 0x00, 0x28, 0x00,
  0x00, 0x00, 0x05, 0x00, 0x00, 0x00, 0x6A, 0xFF, 0xFF, 0xFF,
  0x02, 0x00, 0x00, 0x00, 0x02, 0x00, 0x00, 0x00, 0x02, 0x00,
  0x00, 0x00, 0x02, 0x00, 0x00, 0x00, 0x00, 0x00, 0x00, 0x01,
  0x01, 0x00, 0x00, 0x00, 0x13, 0x00, 0x00, 0x00, 0x01, 0x00,
  0x00, 0x00, 0x12, 0x00, 0x00, 0x00, 0x9A, 0xFE, 0xFF, 0xFF,
  0x24, 0x00, 0x00, 0x00, 0x00, 0x00, 0x00, 0x02, 0x30, 0x00,
  0x00, 0x00, 0x34, 0x00, 0x00, 0x00, 0x06, 0x00, 0x00, 0x00,
  0x00, 0x00, 0x0E, 0x00, 0x14, 0x00, 0x00, 0x00, 0x10, 0x00,
  0x0C, 0x00, 0x08, 0x00, 0x07, 0x00, 0x0E, 0x00, 0x00, 0x00,
  0x00, 0x00, 0x00, 0x01, 0x01, 0x00, 0x00, 0x00, 0x03, 0x00,
  0x00, 0x00, 0x03, 0x00, 0x00, 0x00, 0x01, 0x00, 0x00, 0x00,
  0x12, 0x00, 0x00, 0x00, 0x03, 0x00, 0x00, 0x00, 0x11, 0x00,
  0x00, 0x00, 0x09, 0x00, 0x00, 0x00, 0x08, 0x00, 0x00, 0x00,
  0xEE, 0xFE, 0xFF, 0xFF, 0x24, 0x00, 0x00, 0x00, 0x00, 0x00,
  0x00, 0x05, 0x34, 0x00, 0x00, 0x00, 0x38, 0x00, 0x00, 0x00,
  0x05, 0x00, 0x00, 0x00, 0x00, 0x00, 0x0E, 0x00, 0x18, 0x00,
  0x17, 0x00, 0x10, 0x00, 0x0C, 0x00, 0x08, 0x00, 0x04, 0x00,
  0x0E, 0x00, 0x00, 0x00, 0x02, 0x00, 0x00, 0x00, 0x02, 0x00,
  0x00, 0x00, 0x02, 0x00, 0x00, 0x00, 0x02, 0x00, 0x00, 0x00,
  0x00, 0x00, 0x00, 0x01, 0x01, 0x00, 0x00, 0x00, 0x11, 0x00,
  0x00, 0x00, 0x01, 0x00, 0x00, 0x00, 0x10, 0x00, 0x00, 0x00,
  0x3E, 0xFF, 0xFF, 0xFF, 0x20, 0x00, 0x00, 0x00, 0x00, 0x00,
  0x00, 0x01, 0x28, 0x00, 0x00, 0x00, 0x2C, 0x00, 0x00, 0x00,
  0x04, 0x00, 0x00, 0x00, 0x0C, 0x00, 0x10, 0x00, 0x00, 0x00,
  0x0C, 0x00, 0x08, 0x00, 0x07, 0x00, 0x0C, 0x00, 0x00, 0x00,
  0x00, 0x00, 0x00, 0x01, 0x01, 0x00, 0x00, 0x00, 0x01, 0x00,
  0x00, 0x00, 0x01, 0x00, 0x00, 0x00, 0x10, 0x00, 0x00, 0x00,
  0x03, 0x00, 0x00, 0x00, 0x0F, 0x00, 0x00, 0x00, 0x0B, 0x00,
  0x00, 0x00, 0x0A, 0x00, 0x00, 0x00, 0x00, 0x00, 0x0A, 0x00,
  0x10, 0x00, 0x0C, 0x00, 0x08, 0x00, 0x04, 0x00, 0x0A, 0x00,
  0x00, 0x00, 0x0C, 0x00, 0x00, 0x00, 0x10, 0x00, 0x00, 0x00,
  0x03, 0x00, 0x00, 0x00, 0x01, 0x00, 0x00, 0x00, 0x0F, 0x00,
  0x00, 0x00, 0x02, 0x00, 0x00, 0x00, 0x00, 0x00, 0x00, 0x00,
  0x0E, 0x00, 0x00, 0x00, 0xBA, 0xFF, 0xFF, 0xFF, 0x1C, 0x00,
  0x00, 0x00, 0x00, 0x00, 0x00, 0x3B, 0x1C, 0x00, 0x00, 0x00,
  0x20, 0x00, 0x00, 0x00, 0x02, 0x00, 0x00, 0x00, 0x00, 0x00,
  0x06, 0x00, 0x08, 0x00, 0x04, 0x00, 0x06, 0x00, 0x00, 0x00,
  0x04, 0x00, 0x00, 0x00, 0x01, 0x00, 0x00, 0x00, 0x0E, 0x00,
  0x00, 0x00, 0x04, 0x00, 0x00, 0x00, 0x0D, 0x00, 0x00, 0x00,
  0x03, 0x00, 0x00, 0x00, 0x03, 0x00, 0x00, 0x00, 0x04, 0x00,
  0x00, 0x00, 0x00, 0x00, 0x0E, 0x00, 0x1A, 0x00, 0x14, 0x00,
  0x10, 0x00, 0x0C, 0x00, 0x0B, 0x00, 0x04, 0x00, 0x0E, 0x00,
  0x00, 0x00, 0x24, 0x00, 0x00, 0x00, 0x00, 0x00, 0x00, 0x20,
  0x24, 0x00, 0x00, 0x00, 0x28, 0x00, 0x00, 0x00, 0x01, 0x00,
  0x00, 0x00, 0x00, 0x00, 0x0E, 0x00, 0x08, 0x00, 0x00, 0x00,
  0x00, 0x00, 0x00, 0x00, 0x00, 0x00, 0x04, 0x00, 0x0E, 0x00,
  0x00, 0x00, 0x01, 0x00, 0x00, 0x00, 0x01, 0x00, 0x00, 0x00,
  0x0D, 0x00, 0x00, 0x00, 0x04, 0x00, 0x00, 0x00, 0x0C, 0x00,
  0x00, 0x00, 0x01, 0x00, 0x00, 0x00, 0x02, 0x00, 0x00, 0x00,
  0x02, 0x00, 0x00, 0x00, 0x00, 0x00, 0x0E, 0x00, 0x16, 0x00,
  0x00, 0x00, 0x10, 0x00, 0x0C, 0x00, 0x0B, 0x00, 0x04, 0x00,
  0x0E, 0x00, 0x00, 0x00, 0x18, 0x00, 0x00, 0x00, 0x00, 0x00,
  0x00, 0x37, 0x18, 0x00, 0x00, 0x00, 0x1C, 0x00, 0x00, 0x00,
  0x00, 0x00, 0x06, 0x00, 0x08, 0x00, 0x07, 0x00, 0x06, 0x00,
  0x00, 0x00, 0x00, 0x00, 0x00, 0x02, 0x01, 0x00, 0x00, 0x00,
  0x0C, 0x00, 0x00, 0x00, 0x01, 0x00, 0x00, 0x00, 0x00, 0x00,
  0x00, 0x00, 0x01, 0x00, 0x00, 0x00, 0x16, 0x00, 0x00, 0x00,
  0x01, 0x00, 0x00, 0x00, 0x00, 0x00, 0x00, 0x00, 0x17, 0x00,
  0x00, 0x00, 0x64, 0x0E, 0x00, 0x00, 0xF0, 0x0D, 0x00, 0x00,
  0x7C, 0x0D, 0x00, 0x00, 0x2C, 0x0D, 0x00, 0x00, 0xDC, 0x0C,
  0x00, 0x00, 0x90, 0x0C, 0x00, 0x00, 0x1C, 0x0C, 0x00, 0x00,
  0xB0, 0x0B, 0x00, 0x00, 0x7C, 0x0A, 0x00, 0x00, 0x30, 0x09,
  0x00, 0x00, 0x04, 0x08, 0x00, 0x00, 0x58, 0x06, 0x00, 0x00,
  0x0C, 0x06, 0x00, 0x00, 0xBC, 0x05, 0x00, 0x00, 0x68, 0x05,
  0x00, 0x00, 0xD8, 0x04, 0x00, 0x00, 0xCC, 0x03, 0x00, 0x00,
  0x38, 0x03, 0x00, 0x00, 0x24, 0x02, 0x00, 0x00, 0x90, 0x01,
  0x00, 0x00, 0x14, 0x01, 0x00, 0x00, 0x80, 0x00, 0x00, 0x00,
  0x04, 0x00, 0x00, 0x00, 0x0E, 0xF2, 0xFF, 0xFF, 0x00, 0x00,
  0x00, 0x01, 0x18, 0x00, 0x00, 0x00, 0x20, 0x00, 0x00, 0x00,
  0x3C, 0x00, 0x00, 0x00, 0x17, 0x00, 0x00, 0x00, 0x00, 0x00,
  0x00, 0x09, 0x50, 0x00, 0x00, 0x00, 0x02, 0x00, 0x00, 0x00,
  0xFF, 0xFF, 0xFF, 0xFF, 0x02, 0x00, 0x00, 0x00, 0xF4, 0xF1,
  0xFF, 0xFF, 0x08, 0x00, 0x00, 0x00, 0x10, 0x00, 0x00, 0x00,
  0x01, 0x00, 0x00, 0x00, 0x80, 0xFF, 0xFF, 0xFF, 0xFF, 0xFF,
  0xFF, 0xFF, 0x01, 0x00, 0x00, 0x00, 0x00, 0x00, 0x80, 0x3B,
  0x19, 0x00, 0x00, 0x00, 0x53, 0x74, 0x61, 0x74, 0x65, 0x66,
  0x75, 0x6C, 0x50, 0x61, 0x72, 0x74, 0x69, 0x74, 0x69, 0x6F,
  0x6E, 0x65, 0x64, 0x43, 0x61, 0x6C, 0x6C, 0x3A, 0x30, 0x00,
  0x00, 0x00, 0x02, 0x00, 0x00, 0x00, 0x01, 0x00, 0x00, 0x00,
  0x02, 0x00, 0x00, 0x00, 0x86, 0xF2, 0xFF, 0xFF, 0x00, 0x00,
  0x00, 0x01, 0x18, 0x00, 0x00, 0x00, 0x20, 0x00, 0x00, 0x00,
  0x3C, 0x00, 0x00, 0x00, 0x16, 0x00, 0x00, 0x00, 0x00, 0x00,
  0x00, 0x09, 0x68, 0x00, 0x00, 0x00, 0x02, 0x00, 0x00, 0x00,
  0xFF, 0xFF, 0xFF, 0xFF, 0x02, 0x00, 0x00, 0x00, 0x6C, 0xF2,
  0xFF, 0xFF, 0x08, 0x00, 0x00, 0x00, 0x10, 0x00, 0x00, 0x00,
  0x01, 0x00, 0x00, 0x00, 0xFE, 0xFF, 0xFF, 0xFF, 0xFF, 0xFF,
  0xFF, 0xFF, 0x01, 0x00, 0x00, 0x00, 0xF7, 0x12, 0x36, 0x3D,
  0x30, 0x00, 0x00, 0x00, 0x73, 0x65, 0x71, 0x75, 0x65, 0x6E,
  0x74, 0x69, 0x61, 0x6C, 0x2F, 0x64, 0x65, 0x6E, 0x73, 0x65,
  0x2F, 0x4D, 0x61, 0x74, 0x4D, 0x75, 0x6C, 0x3B, 0x73, 0x65,
  0x71, 0x75, 0x65, 0x6E, 0x74, 0x69, 0x61, 0x6C, 0x2F, 0x64,
  0x65, 0x6E, 0x73, 0x65, 0x2F, 0x42, 0x69, 0x61, 0x73, 0x41,
  0x64, 0x64, 0x00, 0x00, 0x00, 0x00, 0x02, 0x00, 0x00, 0x00,
  0x01, 0x00, 0x00, 0x00, 0x02, 0x00, 0x00, 0x00, 0x16, 0xF3,
  0xFF, 0xFF, 0x00, 0x00, 0x00, 0x01, 0x18, 0x00, 0x00, 0x00,
  0x20, 0x00, 0x00, 0x00, 0x3C, 0x00, 0x00, 0x00, 0x15, 0x00,
  0x00, 0x00, 0x00, 0x00, 0x00, 0x09, 0x50, 0x00, 0x00, 0x00,
  0x02, 0x00, 0x00, 0x00, 0xFF, 0xFF, 0xFF, 0xFF, 0x00, 0x04,
  0x00, 0x00, 0xFC, 0xF2, 0xFF, 0xFF, 0x08, 0x00, 0x00, 0x00,
  0x10, 0x00, 0x00, 0x00, 0x01, 0x00, 0x00, 0x00, 0x80, 0xFF,
  0xFF, 0xFF, 0xFF, 0xFF, 0xFF, 0xFF, 0x01, 0x00, 0x00, 0x00,
  0x56, 0xF8, 0xEF, 0x3B, 0x1A, 0x00, 0x00, 0x00, 0x73, 0x65,
  0x71, 0x75, 0x65, 0x6E, 0x74, 0x69, 0x61, 0x6C, 0x2F, 0x66,
  0x6C, 0x61, 0x74, 0x74, 0x65, 0x6E, 0x2F, 0x52, 0x65, 0x73,
  0x68, 0x61, 0x70, 0x65, 0x00, 0x00, 0x02, 0x00, 0x00, 0x00,
  0x01, 0x00, 0x00, 0x00, 0x00, 0x04, 0x00, 0x00, 0x8E, 0xF3,
  0xFF, 0xFF, 0x00, 0x00, 0x00, 0x01, 0x18, 0x00, 0x00, 0x00,
  0x28, 0x00, 0x00, 0x00, 0x44, 0x00, 0x00, 0x00, 0x14, 0x00,
  0x00, 0x00, 0x00, 0x00, 0x00, 0x09, 0x60, 0x00, 0x00, 0x00,
  0x04, 0x00, 0x00, 0x00, 0xFF, 0xFF, 0xFF, 0xFF, 0x08, 0x00,
  0x00, 0x00, 0x08, 0x00, 0x00, 0x00, 0x10, 0x00, 0x00, 0x00,
  0x7C, 0xF3, 0xFF, 0xFF, 0x08, 0x00, 0x00, 0x00, 0x10, 0x00,
  0x00, 0x00, 0x01, 0x00, 0x00, 0x00, 0x80, 0xFF, 0xFF, 0xFF,
  0xFF, 0xFF, 0xFF, 0xFF, 0x01, 0x00, 0x00, 0x00, 0x56, 0xF8,
  0xEF, 0x3B, 0x22, 0x00, 0x00, 0x00, 0x73, 0x65, 0x71, 0x75,
  0x65, 0x6E, 0x74, 0x69, 0x61, 0x6C, 0x2F, 0x6D, 0x61, 0x78,
  0x5F, 0x70, 0x6F, 0x6F, 0x6C, 0x69, 0x6E, 0x67, 0x32, 0x64,
  0x5F, 0x31, 0x2F, 0x4D, 0x61, 0x78, 0x50, 0x6F, 0x6F, 0x6C,
  0x00, 0x00, 0x04, 0x00, 0x00, 0x00, 0x01, 0x00, 0x00, 0x00,
  0x08, 0x00, 0x00, 0x00, 0x08, 0x00, 0x00, 0x00, 0x10, 0x00,
  0x00, 0x00, 0x1E, 0xF4, 0xFF, 0xFF, 0x00, 0x00, 0x00, 0x01,
  0x18, 0x00, 0x00, 0x00, 0x28, 0x00, 0x00, 0x00, 0x48, 0x00,
  0x00, 0x00, 0x13, 0x00, 0x00, 0x00, 0x00, 0x00, 0x00, 0x09,
  0xE0, 0x00, 0x00, 0x00, 0x04, 0x00, 0x00, 0x00, 0xFF, 0xFF,
  0xFF, 0xFF, 0x10, 0x00, 0x00, 0x00, 0x10, 0x00, 0x00, 0x00,
  0x10, 0x00, 0x00, 0x00, 0x0C, 0xF4, 0xFF, 0xFF, 0x08, 0x00,
  0x00, 0x00, 0x14, 0x00, 0x00, 0x00, 0x01, 0x00, 0x00, 0x00,
  0x80, 0xFF, 0xFF, 0xFF, 0xFF, 0xFF, 0xFF, 0xFF, 0x00, 0x00,
  0x00, 0x00, 0x01, 0x00, 0x00, 0x00, 0x56, 0xF8, 0xEF, 0x3B,
  0x9D, 0x00, 0x00, 0x00, 0x73, 0x65, 0x71, 0x75, 0x65, 0x6E,
  0x74, 0x69, 0x61, 0x6C, 0x2F, 0x64, 0x65, 0x70, 0x74, 0x68,
  0x77, 0x69, 0x73, 0x65, 0x5F, 0x63, 0x6F, 0x6E, 0x76, 0x32,
  0x64, 0x2F, 0x52, 0x65, 0x6C, 0x75, 0x3B, 0x73, 0x65, 0x71,
  0x75, 0x65, 0x6E, 0x74, 0x69, 0x61, 0x6C, 0x2F, 0x64, 0x65,
  0x70, 0x74, 0x68, 0x77, 0x69, 0x73, 0x65, 0x5F, 0x63, 0x6F,
  0x6E, 0x76, 0x32, 0x64, 0x2F, 0x42, 0x69, 0x61, 0x73, 0x41,
  0x64, 0x64, 0x3B, 0x73, 0x65, 0x71, 0x75, 0x65, 0x6E, 0x74,
  0x69, 0x61, 0x6C, 0x2F, 0x64, 0x65, 0x70, 0x74, 0x68, 0x77,
  0x69, 0x73, 0x65, 0x5F, 0x63, 0x6F, 0x6E, 0x76, 0x32, 0x64,
  0x2F, 0x64, 0x65, 0x70, 0x74, 0x68, 0x77, 0x69, 0x73, 0x65,
  0x3B, 0x73, 0x65, 0x71, 0x75, 0x65, 0x6E, 0x74, 0x69, 0x61,
  0x6C, 0x2F, 0x64, 0x65, 0x70, 0x74, 0x68, 0x77, 0x69, 0x73,
  0x65, 0x5F, 0x63, 0x6F, 0x6E, 0x76, 0x32, 0x64, 0x2F, 0x42,
  0x69, 0x61, 0x73, 0x41, 0x64, 0x64, 0x2F, 0x52, 0x65, 0x61,
  0x64, 0x56, 0x61, 0x72, 0x69, 0x61, 0x62, 0x6C, 0x65, 0x4F,
  0x70, 0x00, 0x00, 0x00, 0x04, 0x00, 0x00, 0x00, 0x01, 0x00,
  0x00, 0x00, 0x10, 0x00, 0x00, 0x00, 0x10, 0x00, 0x00, 0x00,
  0x10, 0x00, 0x00, 0x00, 0x2E, 0xF5, 0xFF, 0xFF, 0x00, 0x00,
  0x00, 0x01, 0x18, 0x00, 0x00, 0x00, 0x28, 0x00, 0x00, 0x00,
  0x44, 0x00, 0x00, 0x00, 0x12, 0x00, 0x00, 0x00, 0x00, 0x00,
  0x00, 0x09, 0x60, 0x00, 0x00, 0x00, 0x04, 0x00, 0x00, 0x00,
  0xFF, 0xFF, 0xFF, 0xFF, 0x30, 0x00, 0x00, 0x00, 0x30, 0x00,
  0x00, 0x00, 0x10, 0x00, 0x00, 0x00, 0x1C, 0xF5, 0xFF, 0xFF,
  0x08, 0x00, 0x00, 0x00, 0x10, 0x00, 0x00, 0x00, 0x01, 0x00,
  0x00, 0x00, 0x80, 0xFF, 0xFF, 0xFF, 0xFF, 0xFF, 0xFF, 0xFF,
  0x01, 0x00, 0x00, 0x00, 0xDA, 0x0A, 0x5D, 0x3B, 0x20, 0x00,
  0x00, 0x00, 0x73, 0x65, 0x71, 0x75, 0x65, 0x6E, 0x74, 0x69,
  0x61, 0x6C, 0x2F, 0x6D, 0x61, 0x78, 0x5F, 0x70, 0x6F, 0x6F,
  0x6C, 0x69, 0x6E, 0x67, 0x32, 0x64, 0x2F, 0x4D, 0x61, 0x78,
  0x50, 0x6F, 0x6F, 0x6C, 0x00, 0x00, 0x00, 0x00, 0x04, 0x00,
  0x00, 0x00, 0x01, 0x00, 0x00, 0x00, 0x30, 0x00, 0x00, 0x00,
  0x30, 0x00, 0x00, 0x00, 0x10, 0x00, 0x00, 0x00, 0xBE, 0xF5,
  0xFF, 0xFF, 0x00, 0x00, 0x00, 0x01, 0x18, 0x00, 0x00, 0x00,
  0x28, 0x00, 0x00, 0x00, 0x44, 0x00, 0x00, 0x00, 0x11, 0x00,
  0x00, 0x00, 0x00, 0x00, 0x00, 0x09, 0xD8, 0x00, 0x00, 0x00,
  0x04, 0x00, 0x00, 0x00, 0xFF, 0xFF, 0xFF, 0xFF, 0x60, 0x00,
  0x00, 0x00, 0x60, 0x00, 0x00, 0x00, 0x10, 0x00, 0x00, 0x00,
  0xAC, 0xF5, 0xFF, 0xFF, 0x08, 0x00, 0x00, 0x00, 0x10, 0x00,
  0x00, 0x00, 0x01, 0x00, 0x00, 0x00, 0x80, 0xFF, 0xFF, 0xFF,
  0xFF, 0xFF, 0xFF, 0xFF, 0x01, 0x00, 0x00, 0x00, 0xDA, 0x0A,
  0x5D, 0x3B, 0x99, 0x00, 0x00, 0x00, 0x73, 0x65, 0x71, 0x75,
  0x65, 0x6E, 0x74, 0x69, 0x61, 0x6C, 0x2F, 0x63, 0x6F, 0x6E,
  0x76, 0x32, 0x64, 0x2F, 0x52, 0x65, 0x6C, 0x75, 0x3B, 0x73,
  0x65, 0x71, 0x75, 0x65, 0x6E, 0x74, 0x69, 0x61, 0x6C, 0x2F,
  0x63, 0x6F, 0x6E, 0x76, 0x32, 0x64, 0x2F, 0x42, 0x69, 0x61,
  0x73, 0x41, 0x64, 0x64, 0x3B, 0x73, 0x65, 0x71, 0x75, 0x65,
  0x6E, 0x74, 0x69, 0x61, 0x6C, 0x2F, 0x64, 0x65, 0x70, 0x74,
  0x68, 0x77, 0x69, 0x73, 0x65, 0x5F, 0x63, 0x6F, 0x6E, 0x76,
  0x32, 0x64, 0x2F, 0x64, 0x65, 0x70, 0x74, 0x68, 0x77, 0x69,
  0x73, 0x65, 0x3B, 0x73, 0x65, 0x71, 0x75, 0x65, 0x6E, 0x74,
  0x69, 0x61, 0x6C, 0x2F, 0x63, 0x6F, 0x6E, 0x76, 0x32, 0x64,
  0x2F, 0x43, 0x6F, 0x6E, 0x76, 0x32, 0x44, 0x3B, 0x73, 0x65,
  0x71, 0x75, 0x65, 0x6E, 0x74, 0x69, 0x61, 0x6C, 0x2F, 0x63,
  0x6F, 0x6E, 0x76, 0x32, 0x64, 0x2F, 0x42, 0x69, 0x61, 0x73,
  0x41, 0x64, 0x64, 0x2F, 0x52, 0x65, 0x61, 0x64, 0x56, 0x61,
  0x72, 0x69, 0x61, 0x62, 0x6C, 0x65, 0x4F, 0x70, 0x31, 0x00,
  0x00, 0x00, 0x04, 0x00, 0x00, 0x00, 0x01, 0x00, 0x00, 0x00,
  0x60, 0x00, 0x00, 0x00, 0x60, 0x00, 0x00, 0x00, 0x10, 0x00,
  0x00, 0x00, 0xC6, 0xF6, 0xFF, 0xFF, 0x00, 0x00, 0x00, 0x01,
  0x18, 0x00, 0x00, 0x00, 0x28, 0x00, 0x00, 0x00, 0x48, 0x00,
  0x00, 0x00, 0x10, 0x00, 0x00, 0x00, 0x00, 0x00, 0x00, 0x09,
  0x5C, 0x00, 0x00, 0x00, 0x04, 0x00, 0x00, 0x00, 0xFF, 0xFF,
  0xFF, 0xFF, 0x60, 0x00, 0x00, 0x00, 0x60, 0x00, 0x00, 0x00,
  0x01, 0x00, 0x00, 0x00, 0xB4, 0xF6, 0xFF, 0xFF, 0x08, 0x00,
  0x00, 0x00, 0x14, 0x00, 0x00, 0x00, 0x01, 0x00, 0x00, 0x00,
  0x80, 0xFF, 0xFF, 0xFF, 0xFF, 0xFF, 0xFF, 0xFF, 0x00, 0x00,
  0x00, 0x00, 0x01, 0x00, 0x00, 0x00, 0x00, 0x00, 0x80, 0x3F,
  0x1A, 0x00, 0x00, 0x00, 0x73, 0x65, 0x71, 0x75, 0x65, 0x6E,
  0x74, 0x69, 0x61, 0x6C, 0x2F, 0x72, 0x65, 0x73, 0x68, 0x61,
  0x70, 0x65, 0x2F, 0x52, 0x65, 0x73, 0x68, 0x61, 0x70, 0x65,
  0x00, 0x00, 0x04, 0x00, 0x00, 0x00, 0x01, 0x00, 0x00, 0x00,
  0x60, 0x00, 0x00, 0x00, 0x60, 0x00, 0x00, 0x00, 0x01, 0x00,
  0x00, 0x00, 0xC2, 0xF7, 0xFF, 0xFF, 0x00, 0x00, 0x00, 0x01,
  0x14, 0x00, 0x00, 0x00, 0x14, 0x00, 0x00, 0x00, 0x0F, 0x00,
  0x00, 0x00, 0x00, 0x00, 0x00, 0x02, 0x30, 0x00, 0x00, 0x00,
  0xAC, 0xF7, 0xFF, 0xFF, 0x20, 0x00, 0x00, 0x00, 0x73, 0x65,
  0x71, 0x75, 0x65, 0x6E, 0x74, 0x69, 0x61, 0x6C, 0x2F, 0x72,
  0x65, 0x73, 0x68, 0x61, 0x70, 0x65, 0x2F, 0x52, 0x65, 0x73,
  0x68, 0x61, 0x70, 0x65, 0x2F, 0x73, 0x68, 0x61, 0x70, 0x65,
  0x00, 0x00, 0x00, 0x00, 0x01, 0x00, 0x00, 0x00, 0x04, 0x00,
  0x00, 0x00, 0x12, 0xF8, 0xFF, 0xFF, 0x00, 0x00, 0x00, 0x01,
  0x14, 0x00, 0x00, 0x00, 0x14, 0x00, 0x00, 0x00, 0x0E, 0x00,
  0x00, 0x00, 0x00, 0x00, 0x00, 0x02, 0x30, 0x00, 0x00, 0x00,
  0xFC, 0xF7, 0xFF, 0xFF, 0x20, 0x00, 0x00, 0x00, 0x73, 0x65,
  0x71, 0x75, 0x65, 0x6E, 0x74, 0x69, 0x61, 0x6C, 0x2F, 0x72,
  0x65, 0x73, 0x68, 0x61, 0x70, 0x65, 0x2F, 0x73, 0x74, 0x72,
  0x69, 0x64, 0x65, 0x64, 0x5F, 0x73, 0x6C, 0x69, 0x63, 0x65,
  0x00, 0x00, 0x00, 0x00, 0x00, 0x00, 0x00, 0x00, 0x5E, 0xF8,
  0xFF, 0xFF, 0x00, 0x00, 0x00, 0x01, 0x14, 0x00, 0x00, 0x00,
  0x14, 0x00, 0x00, 0x00, 0x0D, 0x00, 0x00, 0x00, 0x00, 0x00,
  0x00, 0x02, 0x28, 0x00, 0x00, 0x00, 0x48, 0xF8, 0xFF, 0xFF,
  0x18, 0x00, 0x00, 0x00, 0x73, 0x65, 0x71, 0x75, 0x65, 0x6E,
  0x74, 0x69, 0x61, 0x6C, 0x2F, 0x72, 0x65, 0x73, 0x68, 0x61,
  0x70, 0x65, 0x2F, 0x53, 0x68, 0x61, 0x70, 0x65, 0x00, 0x00,
  0x00, 0x00, 0x01, 0x00, 0x00, 0x00, 0x03, 0x00, 0x00, 0x00,
  0xA6, 0xF8, 0xFF, 0xFF, 0x00, 0x00, 0x00, 0x01, 0x14, 0x00,
  0x00, 0x00, 0xE8, 0x00, 0x00, 0x00, 0x0C, 0x00, 0x00, 0x00,
  0x00, 0x00, 0x00, 0x09, 0x7C, 0x01, 0x00, 0x00, 0x0C, 0xF8,
  0xFF, 0xFF, 0x08, 0x00, 0x00, 0x00, 0x8C, 0x00, 0x00, 0x00,
  0x10, 0x00, 0x00, 0x00, 0x00, 0x00, 0x00, 0x00, 0x00, 0x00,
  0x00, 0x00, 0x00, 0x00, 0x00, 0x00, 0x00, 0x00, 0x00, 0x00,
  0x00, 0x00, 0x00, 0x00, 0x00, 0x00, 0x00, 0x00, 0x00, 0x00,
  0x00, 0x00, 0x00, 0x00, 0x00, 0x00, 0x00, 0x00, 0x00, 0x00,
  0x00, 0x00, 0x00, 0x00, 0x00, 0x00, 0x00, 0x00, 0x00, 0x00,
  0x00, 0x00, 0x00, 0x00, 0x00, 0x00, 0x00, 0x00, 0x00, 0x00,
  0x00, 0x00, 0x00, 0x00, 0x00, 0x00, 0x00, 0x00, 0x00, 0x00,
  0x00, 0x00, 0x00, 0x00, 0x00, 0x00, 0x00, 0x00, 0x00, 0x00,
  0x00, 0x00, 0x00, 0x00, 0x00, 0x00, 0x00, 0x00, 0x00, 0x00,
  0x00, 0x00, 0x00, 0x00, 0x00, 0x00, 0x00, 0x00, 0x00, 0x00,
  0x00, 0x00, 0x00, 0x00, 0x00, 0x00, 0x00, 0x00, 0x00, 0x00,
  0x00, 0x00, 0x00, 0x00, 0x00, 0x00, 0x00, 0x00, 0x00, 0x00,
  0x00, 0x00, 0x00, 0x00, 0x00, 0x00, 0x00, 0x00, 0x00, 0x00,
  0x00, 0x00, 0x00, 0x00, 0x00, 0x00, 0x10, 0x00, 0x00, 0x00,
  0xEC, 0xC8, 0x2D, 0x37, 0xCB, 0x2B, 0x1B, 0x37, 0x59, 0x58,
  0xC3, 0x36, 0x86, 0xED, 0xEA, 0x36, 0x07, 0x26, 0xDA, 0x36,
  0x21, 0x12, 0xE4, 0x36, 0x4A, 0xC9, 0xA9, 0x36, 0x7C, 0x49,
  0x0A, 0x37, 0xA5, 0x0D, 0x09, 0x37, 0x79, 0xC9, 0x1A, 0x37,
  0x7A, 0x71, 0x2A, 0x37, 0x32, 0x2A, 0xE5, 0x36, 0x2E, 0x17,
  0xF3, 0x36, 0x51, 0xBE, 0x0A, 0x37, 0xAD, 0xD1, 0xFE, 0x36,
  0xB9, 0x71, 0xE8, 0x36, 0x98, 0x00, 0x00, 0x00, 0x73, 0x65,
  0x71, 0x75, 0x65, 0x6E, 0x74, 0x69, 0x61, 0x6C, 0x2F, 0x63,
  0x6F, 0x6E, 0x76, 0x32, 0x64, 0x2F, 0x52, 0x65, 0x6C, 0x75,
  0x3B, 0x73, 0x65, 0x71, 0x75, 0x65, 0x6E, 0x74, 0x69, 0x61,
  0x6C, 0x2F, 0x63, 0x6F, 0x6E, 0x76, 0x32, 0x64, 0x2F, 0x42,
  0x69, 0x61, 0x73, 0x41, 0x64, 0x64, 0x3B, 0x73, 0x65, 0x71,
  0x75, 0x65, 0x6E, 0x74, 0x69, 0x61, 0x6C, 0x2F, 0x64, 0x65,
  0x70, 0x74, 0x68, 0x77, 0x69, 0x73, 0x65, 0x5F, 0x63, 0x6F,
  0x6E, 0x76, 0x32, 0x64, 0x2F, 0x64, 0x65, 0x70, 0x74, 0x68,
  0x77, 0x69, 0x73, 0x65, 0x3B, 0x73, 0x65, 0x71, 0x75, 0x65,
  0x6E, 0x74, 0x69, 0x61, 0x6C, 0x2F, 0x63, 0x6F, 0x6E, 0x76,
  0x32, 0x64, 0x2F, 0x43, 0x6F, 0x6E, 0x76, 0x32, 0x44, 0x3B,
  0x73, 0x65, 0x71, 0x75, 0x65, 0x6E, 0x74, 0x69, 0x61, 0x6C,
  0x2F, 0x63, 0x6F, 0x6E, 0x76, 0x32, 0x64, 0x2F, 0x42, 0x69,
  0x61, 0x73, 0x41, 0x64, 0x64, 0x2F, 0x52, 0x65, 0x61, 0x64,
  0x56, 0x61, 0x72, 0x69, 0x61, 0x62, 0x6C, 0x65, 0x4F, 0x70,
  0x00, 0x00, 0x00, 0x00, 0x04, 0x00, 0x00, 0x00, 0x10, 0x00,
  0x00, 0x00, 0x03, 0x00, 0x00, 0x00, 0x03, 0x00, 0x00, 0x00,
  0x01, 0x00, 0x00, 0x00, 0x4E, 0xFA, 0xFF, 0xFF, 0x00, 0x00,
  0x00, 0x01, 0x14, 0x00, 0x00, 0x00, 0xE4, 0x00, 0x00, 0x00,
  0x0B, 0x00, 0x00, 0x00, 0x00, 0x00, 0x00, 0x02, 0x08, 0x01,
  0x00, 0x00, 0xB4, 0xF9, 0xFF, 0xFF, 0x08, 0x00, 0x00, 0x00,
  0x88, 0x00, 0x00, 0x00, 0x10, 0x00, 0x00, 0x00, 0x00, 0x00,
  0x00, 0x00, 0x00, 0x00, 0x00, 0x00, 0x00, 0x00, 0x00, 0x00,
  0x00, 0x00, 0x00, 0x00, 0x00, 0x00, 0x00, 0x00, 0x00, 0x00,
  0x00, 0x00, 0x00, 0x00, 0x00, 0x00, 0x00, 0x00, 0x00, 0x00,
  0x00, 0x00, 0x00, 0x00, 0x00, 0x00, 0x00, 0x00, 0x00, 0x00,
  0x00, 0x00, 0x00, 0x00, 0x00, 0x00, 0x00, 0x00, 0x00, 0x00,
  0x00, 0x00, 0x00, 0x00, 0x00, 0x00, 0x00, 0x00, 0x00, 0x00,
  0x00, 0x00, 0x00, 0x00, 0x00, 0x00, 0x00, 0x00, 0x00, 0x00,
  0x00, 0x00, 0x00, 0x00, 0x00, 0x00, 0x00, 0x00, 0x00, 0x00,
  0x00, 0x00, 0x00, 0x00, 0x00, 0x00, 0x00, 0x00, 0x00, 0x00,
  0x00, 0x00, 0x00, 0x00, 0x00, 0x00, 0x00, 0x00, 0x00, 0x00,
  0x00, 0x00, 0x00, 0x00, 0x00, 0x00, 0x00, 0x00, 0x00, 0x00,
  0x00, 0x00, 0x00, 0x00, 0x00, 0x00, 0x00, 0x00, 0x00, 0x00,
  0x00, 0x00, 0x00, 0x00, 0x00, 0x00, 0x10, 0x00, 0x00, 0x00,
  0xEC, 0xC8, 0x2D, 0x37, 0xCB, 0x2B, 0x1B, 0x37, 0x59, 0x58,
  0xC3, 0x36, 0x86, 0xED, 0xEA, 0x36, 0x07, 0x26, 0xDA, 0x36,
  0x21, 0x12, 0xE4, 0x36, 0x4A, 0xC9, 0xA9, 0x36, 0x7C, 0x49,
  0x0A, 0x37, 0xA5, 0x0D, 0x09, 0x37, 0x79, 0xC9, 0x1A, 0x37,
  0x7A, 0x71, 0x2A, 0x37, 0x32, 0x2A, 0xE5, 0x36, 0x2E, 0x17,
  0xF3, 0x36, 0x51, 0xBE, 0x0A, 0x37, 0xAD, 0xD1, 0xFE, 0x36,
  0xB9, 0x71, 0xE8, 0x36, 0x28, 0x00, 0x00, 0x00, 0x73, 0x65,
  0x71, 0x75, 0x65, 0x6E, 0x74, 0x69, 0x61, 0x6C, 0x2F, 0x63,
  0x6F, 0x6E, 0x76, 0x32, 0x64, 0x2F, 0x42, 0x69, 0x61, 0x73,
  0x41, 0x64, 0x64, 0x2F, 0x52, 0x65, 0x61, 0x64, 0x56, 0x61,
  0x72, 0x69, 0x61, 0x62, 0x6C, 0x65, 0x4F, 0x70, 0x00, 0x00,
  0x00, 0x00, 0x01, 0x00, 0x00, 0x00, 0x10, 0x00, 0x00, 0x00,
  0x76, 0xFB, 0xFF, 0xFF, 0x00, 0x00, 0x00, 0x01, 0x28, 0x00,
  0x00, 0x00, 0xFC, 0x00, 0x00, 0x00, 0x0A, 0x00, 0x00, 0x00,
  0x00, 0x00, 0x00, 0x09, 0x1C, 0x01, 0x00, 0x00, 0x00, 0x00,
  0x12, 0x00, 0x10, 0x00, 0x00, 0x00, 0x00, 0x00, 0x0C, 0x00,
  0x08, 0x00, 0x00, 0x00, 0x00, 0x00, 0x04, 0x00, 0x12, 0x00,
  0x00, 0x00, 0x03, 0x00, 0x00, 0x00, 0x08, 0x00, 0x00, 0x00,
  0x88, 0x00, 0x00, 0x00, 0x10, 0x00, 0x00, 0x00, 0x00, 0x00,
  0x00, 0x00, 0x00, 0x00, 0x00, 0x00, 0x00, 0x00, 0x00, 0x00,
  0x00, 0x00, 0x00, 0x00, 0x00, 0x00, 0x00, 0x00, 0x00, 0x00,
  0x00, 0x00, 0x00, 0x00, 0x00, 0x00, 0x00, 0x00, 0x00, 0x00,
  0x00, 0x00, 0x00, 0x00, 0x00, 0x00, 0x00, 0x00, 0x00, 0x00,
  0x00, 0x00, 0x00, 0x00, 0x00, 0x00, 0x00, 0x00, 0x00, 0x00,
  0x00, 0x00, 0x00, 0x00, 0x00, 0x00, 0x00, 0x00, 0x00, 0x00,
  0x00, 0x00, 0x00, 0x00, 0x00, 0x00, 0x00, 0x00, 0x00, 0x00,
  0x00, 0x00, 0x00, 0x00, 0x00, 0x00, 0x00, 0x00, 0x00, 0x00,
  0x00, 0x00, 0x00, 0x00, 0x00, 0x00, 0x00, 0x00, 0x00, 0x00,
  0x00, 0x00, 0x00, 0x00, 0x00, 0x00, 0x00, 0x00, 0x00, 0x00,
  0x00, 0x00, 0x00, 0x00, 0x00, 0x00, 0x00, 0x00, 0x00, 0x00,
  0x00, 0x00, 0x00, 0x00, 0x00, 0x00, 0x00, 0x00, 0x00, 0x00,
  0x00, 0x00, 0x00, 0x00, 0x00, 0x00, 0x10, 0x00, 0x00, 0x00,
  0x48, 0xD5, 0x52, 0x3B, 0x91, 0x3F, 0xAF, 0x3A, 0x6C, 0x54,
  0x2C, 0x3A, 0x52, 0x0F, 0x71, 0x3B, 0x34, 0x0A, 0x01, 0x3B,
  0xEB, 0xE3, 0x38, 0x3B, 0x80, 0x32, 0x2B, 0x3A, 0x52, 0x53,
  0x67, 0x3B, 0x6F, 0xDC, 0x28, 0x3B, 0x77, 0xD6, 0xEB, 0x3A,
  0x4A, 0x19, 0x1C, 0x3B, 0x8C, 0xC9, 0xA4, 0x3A, 0xB9, 0x54,
  0xC6, 0x3A, 0x07, 0x8C, 0x80, 0x3B, 0x0F, 0xED, 0x5C, 0x3A,
  0x4D, 0x0C, 0x16, 0x3B, 0x25, 0x00, 0x00, 0x00, 0x73, 0x65,
  0x71, 0x75, 0x65, 0x6E, 0x74, 0x69, 0x61, 0x6C, 0x2F, 0x64,
  0x65, 0x70, 0x74, 0x68, 0x77, 0x69, 0x73, 0x65, 0x5F, 0x63,
  0x6F, 0x6E, 0x76, 0x32, 0x64, 0x2F, 0x64, 0x65, 0x70, 0x74,
  0x68, 0x77, 0x69, 0x73, 0x65, 0x00, 0x00, 0x00, 0x04, 0x00,
  0x00, 0x00, 0x01, 0x00, 0x00, 0x00, 0x08, 0x00, 0x00, 0x00,
  0x08, 0x00, 0x00, 0x00, 0x10, 0x00, 0x00, 0x00, 0xBE, 0xFC,
  0xFF, 0xFF, 0x00, 0x00, 0x00, 0x01, 0x14, 0x00, 0x00, 0x00,
  0xE4, 0x00, 0x00, 0x00, 0x09, 0x00, 0x00, 0x00, 0x00, 0x00,
  0x00, 0x02, 0x10, 0x01, 0x00, 0x00, 0x24, 0xFC, 0xFF, 0xFF,
  0x08, 0x00, 0x00, 0x00, 0x88, 0x00, 0x00, 0x00, 0x10, 0x00,
  0x00, 0x00, 0x00, 0x00, 0x00, 0x00, 0x00, 0x00, 0x00, 0x00,
  0x00, 0x00, 0x00, 0x00, 0x00, 0x00, 0x00, 0x00, 0x00, 0x00,
  0x00, 0x00, 0x00, 0x00, 0x00, 0x00, 0x00, 0x00, 0x00, 0x00,
  0x00, 0x00, 0x00, 0x00, 0x00, 0x00, 0x00, 0x00, 0x00, 0x00,
  0x00, 0x00, 0x00, 0x00, 0x00, 0x00, 0x00, 0x00, 0x00, 0x00,
  0x00, 0x00, 0x00, 0x00, 0x00, 0x00, 0x00, 0x00, 0x00, 0x00,
  0x00, 0x00, 0x00, 0x00, 0x00, 0x00, 0x00, 0x00, 0x00, 0x00,
  0x00, 0x00, 0x00, 0x00, 0x00, 0x00, 0x00, 0x00, 0x00, 0x00,
  0x00, 0x00, 0x00, 0x00, 0x00, 0x00, 0x00, 0x00, 0x00, 0x00,
  0x00, 0x00, 0x00, 0x00, 0x00, 0x00, 0x00, 0x00, 0x00, 0x00,
  0x00, 0x00, 0x00, 0x00, 0x00, 0x00, 0x00, 0x00, 0x00, 0x00,
  0x00, 0x00, 0x00, 0x00, 0x00, 0x00, 0x00, 0x00, 0x00, 0x00,
  0x00, 0x00, 0x00, 0x00, 0x00, 0x00, 0x00, 0x00, 0x00, 0x00,
  0x10, 0x00, 0x00, 0x00, 0x0F, 0x0B, 0x36, 0x37, 0x4E, 0x51,
  0x97, 0x36, 0x2F, 0xCC, 0x14, 0x36, 0x72, 0x24, 0x50, 0x37,
  0x8E, 0xD6, 0xDE, 0x36, 0x98, 0xA4, 0x1F, 0x37, 0xDA, 0xD1,
  0x13, 0x36, 0xBC, 0xBC, 0x47, 0x37, 0x74, 0xCD, 0x11, 0x37,
  0x24, 0xA2, 0xCB, 0x36, 0x73, 0xC8, 0x06, 0x37, 0xFA, 0x48,
  0x8E, 0x36, 0x8C, 0x3F, 0xAB, 0x36, 0xAA, 0xFC, 0x5D, 0x37,
  0x03, 0xC2, 0x3E, 0x36, 0xFB, 0x8E, 0x01, 0x37, 0x32, 0x00,
  0x00, 0x00, 0x73, 0x65, 0x71, 0x75, 0x65, 0x6E, 0x74, 0x69,
  0x61, 0x6C, 0x2F, 0x64, 0x65, 0x70, 0x74, 0x68, 0x77, 0x69,
  0x73, 0x65, 0x5F, 0x63, 0x6F, 0x6E, 0x76, 0x32, 0x64, 0x2F,
  0x42, 0x69, 0x61, 0x73, 0x41, 0x64, 0x64, 0x2F, 0x52, 0x65,
  0x61, 0x64, 0x56, 0x61, 0x72, 0x69, 0x61, 0x62, 0x6C, 0x65,
  0x4F, 0x70, 0x00, 0x00, 0x01, 0x00, 0x00, 0x00, 0x10, 0x00,
  0x00, 0x00, 0xEE, 0xFD, 0xFF, 0xFF, 0x00, 0x00, 0x00, 0x01,
  0x14, 0x00, 0x00, 0x00, 0x34, 0x00, 0x00, 0x00, 0x08, 0x00,
  0x00, 0x00, 0x00, 0x00, 0x00, 0x09, 0x44, 0x00, 0x00, 0x00,
  0x54, 0xFD, 0xFF, 0xFF, 0x08, 0x00, 0x00, 0x00, 0x14, 0x00,
  0x00, 0x00, 0x01, 0x00, 0x00, 0x00, 0x00, 0x00, 0x00, 0x00,
  0x00, 0x00, 0x00, 0x00, 0x00, 0x00, 0x00, 0x00, 0x01, 0x00,
  0x00, 0x00, 0xF0, 0x42, 0x2B, 0x3B, 0x17, 0x00, 0x00, 0x00,
  0x73, 0x65, 0x71, 0x75, 0x65, 0x6E, 0x74, 0x69, 0x61, 0x6C,
  0x2F, 0x64, 0x65, 0x6E, 0x73, 0x65, 0x2F, 0x4D, 0x61, 0x74,
  0x4D, 0x75, 0x6C, 0x00, 0x02, 0x00, 0x00, 0x00, 0x02, 0x00,
  0x00, 0x00, 0x00, 0x04, 0x00, 0x00, 0x56, 0xFE, 0xFF, 0xFF,
  0x00, 0x00, 0x00, 0x01, 0x14, 0x00, 0x00, 0x00, 0x30, 0x00,
  0x00, 0x00, 0x07, 0x00, 0x00, 0x00, 0x00, 0x00, 0x00, 0x02,
  0x50, 0x00, 0x00, 0x00, 0xBC, 0xFD, 0xFF, 0xFF, 0x08, 0x00,
  0x00, 0x00, 0x10, 0x00, 0x00, 0x00, 0x01, 0x00, 0x00, 0x00,
  0x00, 0x00, 0x00, 0x00, 0x00, 0x00, 0x00, 0x00, 0x01, 0x00,
  0x00, 0x00, 0xA0, 0x89, 0xA0, 0x37, 0x27, 0x00, 0x00, 0x00,
  0x73, 0x65, 0x71, 0x75, 0x65, 0x6E, 0x74, 0x69, 0x61, 0x6C,
  0x2F, 0x64, 0x65, 0x6E, 0x73, 0x65, 0x2F, 0x42, 0x69, 0x61,
  0x73, 0x41, 0x64, 0x64, 0x2F, 0x52, 0x65, 0x61, 0x64, 0x56,
  0x61, 0x72, 0x69, 0x61, 0x62, 0x6C, 0x65, 0x4F, 0x70, 0x00,
  0x01, 0x00, 0x00, 0x00, 0x02, 0x00, 0x00, 0x00, 0xC6, 0xFE,
  0xFF, 0xFF, 0x00, 0x00, 0x00, 0x01, 0x14, 0x00, 0x00, 0x00,
  0x14, 0x00, 0x00, 0x00, 0x06, 0x00, 0x00, 0x00, 0x00, 0x00,
  0x00, 0x02, 0x28, 0x00, 0x00, 0x00, 0xB0, 0xFE, 0xFF, 0xFF,
  0x18, 0x00, 0x00, 0x00, 0x73, 0x65, 0x71, 0x75, 0x65, 0x6E,
  0x74, 0x69, 0x61, 0x6C, 0x2F, 0x66, 0x6C, 0x61, 0x74, 0x74,
  0x65, 0x6E, 0x2F, 0x43, 0x6F, 0x6E, 0x73, 0x74, 0x00, 0x00,
  0x00, 0x00, 0x01, 0x00, 0x00, 0x00, 0x02, 0x00, 0x00, 0x00,
  0x0E, 0xFF, 0xFF, 0xFF, 0x00, 0x00, 0x00, 0x01, 0x14, 0x00,
  0x00, 0x00, 0x14, 0x00, 0x00, 0x00, 0x03, 0x00, 0x00, 0x00,
  0x00, 0x00, 0x00, 0x02, 0x30, 0x00, 0x00, 0x00, 0xF8, 0xFE,
  0xFF, 0xFF, 0x22, 0x00, 0x00, 0x00, 0x73, 0x65, 0x71, 0x75,
  0x65, 0x6E, 0x74, 0x69, 0x61, 0x6C, 0x2F, 0x72, 0x65, 0x73,
  0x68, 0x61, 0x70, 0x65, 0x2F, 0x52, 0x65, 0x73, 0x68, 0x61,
  0x70, 0x65, 0x2F, 0x73, 0x68, 0x61, 0x70, 0x65, 0x2F, 0x33,
  0x00, 0x00, 0x00, 0x00, 0x00, 0x00, 0x5A, 0xFF, 0xFF, 0xFF,
  0x00, 0x00, 0x00, 0x01, 0x14, 0x00, 0x00, 0x00, 0x14, 0x00,
  0x00, 0x00, 0x04, 0x00, 0x00, 0x00, 0x00, 0x00, 0x00, 0x02,
  0x30, 0x00, 0x00, 0x00, 0x44, 0xFF, 0xFF, 0xFF, 0x22, 0x00,
  0x00, 0x00, 0x73, 0x65, 0x71, 0x75, 0x65, 0x6E, 0x74, 0x69,
  0x61, 0x6C, 0x2F, 0x72, 0x65, 0x73, 0x68, 0x61, 0x70, 0x65,
  0x2F, 0x52, 0x65, 0x73, 0x68, 0x61, 0x70, 0x65, 0x2F, 0x73,
  0x68, 0x61, 0x70, 0x65, 0x2F, 0x31, 0x00, 0x00, 0x00, 0x00,
  0x00, 0x00, 0xA6, 0xFF, 0xFF, 0xFF, 0x00, 0x00, 0x00, 0x01,
  0x14, 0x00, 0x00, 0x00, 0x14, 0x00, 0x00, 0x00, 0x03, 0x00,
  0x00, 0x00, 0x00, 0x00, 0x00, 0x02, 0x38, 0x00, 0x00, 0x00,
  0x90, 0xFF, 0xFF, 0xFF, 0x28, 0x00, 0x00, 0x00, 0x73, 0x65,
  0x71, 0x75, 0x65, 0x6E, 0x74, 0x69, 0x61, 0x6C, 0x2F, 0x72,
  0x65, 0x73, 0x68, 0x61, 0x70, 0x65, 0x2F, 0x73, 0x74, 0x72,
  0x69, 0x64, 0x65, 0x64, 0x5F, 0x73, 0x6C, 0x69, 0x63, 0x65,
  0x2F, 0x73, 0x74, 0x61, 0x63, 0x6B, 0x5F, 0x31, 0x00, 0x00,
  0x00, 0x00, 0x01, 0x00, 0x00, 0x00, 0x01, 0x00, 0x00, 0x00,
  0x00, 0x00, 0x16, 0x00, 0x1C, 0x00, 0x18, 0x00, 0x17, 0x00,
  0x10, 0x00, 0x0C, 0x00, 0x08, 0x00, 0x00, 0x00, 0x00, 0x00,
  0x00, 0x00, 0x07, 0x00, 0x16, 0x00, 0x00, 0x00, 0x00, 0x00,
  0x00, 0x01, 0x18, 0x00, 0x00, 0x00, 0x18, 0x00, 0x00, 0x00,
  0x02, 0x00, 0x00, 0x00, 0x00, 0x00, 0x00, 0x02, 0x38, 0x00,
  0x00, 0x00, 0x04, 0x00, 0x04, 0x00, 0x04, 0x00, 0x00, 0x00,
  0x26, 0x00, 0x00, 0x00, 0x73, 0x65, 0x71, 0x75, 0x65, 0x6E,
  0x74, 0x69, 0x61, 0x6C, 0x2F, 0x72, 0x65, 0x73, 0x68, 0x61,
  0x70, 0x65, 0x2F, 0x73, 0x74, 0x72, 0x69, 0x64, 0x65, 0x64,
  0x5F, 0x73, 0x6C, 0x69, 0x63, 0x65, 0x2F, 0x73, 0x74, 0x61,
  0x63, 0x6B, 0x00, 0x00, 0x01, 0x00, 0x00, 0x00, 0x01, 0x00,
  0x00, 0x00, 0x00, 0x00, 0x16, 0x00, 0x20, 0x00, 0x1C, 0x00,
  0x1B, 0x00, 0x14, 0x00, 0x10, 0x00, 0x0C, 0x00, 0x00, 0x00,
  0x00, 0x00, 0x08, 0x00, 0x07, 0x00, 0x16, 0x00, 0x00, 0x00,
  0x00, 0x00, 0x00, 0x01, 0x18, 0x00, 0x00, 0x00, 0x30, 0x00,
  0x00, 0x00, 0x50, 0x00, 0x00, 0x00, 0x01, 0x00, 0x00, 0x00,
  0x00, 0x00, 0x00, 0x09, 0x68, 0x00, 0x00, 0x00, 0x03, 0x00,
  0x00, 0x00, 0xFF, 0xFF, 0xFF, 0xFF, 0x60, 0x00, 0x00, 0x00,
  0x60, 0x00, 0x00, 0x00, 0x0C, 0x00, 0x0C, 0x00, 0x00, 0x00,
  0x00, 0x00, 0x08, 0x00, 0x04, 0x00, 0x0C, 0x00, 0x00, 0x00,
  0x08, 0x00, 0x00, 0x00, 0x14, 0x00, 0x00, 0x00, 0x01, 0x00,
  0x00, 0x00, 0x80, 0xFF, 0xFF, 0xFF, 0xFF, 0xFF, 0xFF, 0xFF,
  0x00, 0x00, 0x00, 0x00, 0x01, 0x00, 0x00, 0x00, 0x00, 0x00,
  0x80, 0x3F, 0x1F, 0x00, 0x00, 0x00, 0x73, 0x65, 0x72, 0x76,
  0x69, 0x6E, 0x67, 0x5F, 0x64, 0x65, 0x66, 0x61, 0x75, 0x6C,
  0x74, 0x5F, 0x72, 0x65, 0x73, 0x68, 0x61, 0x70, 0x65, 0x5F,
  0x69, 0x6E, 0x70, 0x75, 0x74, 0x3A, 0x30, 0x00, 0x03, 0x00,
  0x00, 0x00, 0x01, 0x00, 0x00, 0x00, 0x60, 0x00, 0x00, 0x00,
  0x60, 0x00, 0x00, 0x00, 0x09, 0x00, 0x00, 0x00, 0xB0, 0x00,
  0x00, 0x00, 0x94, 0x00, 0x00, 0x00, 0x84, 0x00, 0x00, 0x00,
  0x74, 0x00, 0x00, 0x00, 0x60, 0x00, 0x00, 0x00, 0x40, 0x00,
  0x00, 0x00, 0x2C, 0x00, 0x00, 0x00, 0x18, 0x00, 0x00, 0x00,
  0x04, 0x00, 0x00, 0x00, 0xC0, 0xFF, 0xFF, 0xFF, 0x19, 0x00,
  0x00, 0x00, 0x02, 0x00, 0x00, 0x00, 0x00, 0x00, 0x00, 0x19,
  0xD0, 0xFF, 0xFF, 0xFF, 0x09, 0x00, 0x00, 0x00, 0x04, 0x00,
  0x00, 0x00, 0x00, 0x00, 0x00, 0x09, 0xE0, 0xFF, 0xFF, 0xFF,
  0x04, 0x00, 0x00, 0x00, 0x03, 0x00, 0x00, 0x00, 0x00, 0x00,
  0x00, 0x04, 0xF0, 0xFF, 0xFF, 0xFF, 0x11, 0x00, 0x00, 0x00,
  0x02, 0x00, 0x00, 0x00, 0x00, 0x00, 0x00, 0x11, 0x0C, 0x00,
  0x10, 0x00, 0x0F, 0x00, 0x00, 0x00, 0x08, 0x00, 0x04, 0x00,
  0x0C, 0x00, 0x00, 0x00, 0x03, 0x00, 0x00, 0x00, 0x03, 0x00,
  0x00, 0x00, 0x00, 0x00, 0x00, 0x03, 0xDC, 0xFF, 0xFF, 0xFF,
  0x16, 0x00, 0x00, 0x00, 0x00, 0x00, 0x00, 0x16, 0xE8, 0xFF,
  0xFF, 0xFF, 0x53, 0x00, 0x00, 0x00, 0x00, 0x00, 0x00, 0x53,
  0xF4, 0xFF, 0xFF, 0xFF, 0x2D, 0x00, 0x00, 0x00, 0x00, 0x00,
  0x00, 0x2D, 0x0C, 0x00, 0x0C, 0x00, 0x0B, 0x00, 0x00, 0x00,
  0x00, 0x00, 0x04, 0x00, 0x0C, 0x00, 0x00, 0x00, 0x4D, 0x00,
  0x00, 0x00, 0x00, 0x00, 0x00, 0x4D
};
unsigned int model_tflite_len = sizeof(model_tflite);
