
/* Copyright 2023 The TensorFlow Authors. All Rights Reserved.

Licensed under the Apache License, Version 2.0 (the "License");
you may not use this file except in compliance with the License.
You may obtain a copy of the License at

    http://www.apache.org/licenses/LICENSE-2.0

Unless required by applicable law or agreed to in writing, software
distributed under the License is distributed on an "AS IS" BASIS,
WITHOUT WARRANTIES OR CONDITIONS OF ANY KIND, either express or implied.
See the License for the specific language governing permissions and
limitations under the License.
==============================================================================*/

// This is a TensorFlow Lite model file that has been converted into a C data
// array using the tensorflow.lite.util.convert_bytes_to_c_source() function.
// This form is useful for compiling into a binary for devices that don't have a
// file system.

#include "person_detect_model_data.h"

// Keep aligned to 16 bytes for CMSIS
alignas(16) const unsigned char model_tflite[] = {
  0x1C, 0x00, 0x00, 0x00, 0x54, 0x46, 0x4C, 0x33, 0x14, 0x00,
  0x20, 0x00, 0x1C, 0x00, 0x18, 0x00, 0x14, 0x00, 0x10, 0x00,
  0x0C, 0x00, 0x00, 0x00, 0x08, 0x00, 0x04, 0x00, 0x14, 0x00,
  0x00, 0x00, 0x1C, 0x00, 0x00, 0x00, 0x88, 0x00, 0x00, 0x00,
  0xE0, 0x00, 0x00, 0x00, 0xA4, 0x0F, 0x00, 0x00, 0xB4, 0x0F,
  0x00, 0x00, 0xF4, 0x21, 0x00, 0x00, 0x03, 0x00, 0x00, 0x00,
  0x01, 0x00, 0x00, 0x00, 0x04, 0x00, 0x00, 0x00, 0x3A, 0xEE,
  0xFF, 0xFF, 0x0C, 0x00, 0x00, 0x00, 0x1C, 0x00, 0x00, 0x00,
  0x38, 0x00, 0x00, 0x00, 0x0F, 0x00, 0x00, 0x00, 0x73, 0x65,
  0x72, 0x76, 0x69, 0x6E, 0x67, 0x5F, 0x64, 0x65, 0x66, 0x61,
  0x75, 0x6C, 0x74, 0x00, 0x01, 0x00, 0x00, 0x00, 0x04, 0x00,
  0x00, 0x00, 0x94, 0xFF, 0xFF, 0xFF, 0x16, 0x00, 0x00, 0x00,
  0x04, 0x00, 0x00, 0x00, 0x05, 0x00, 0x00, 0x00, 0x64, 0x65,
  0x6E, 0x73, 0x65, 0x00, 0x00, 0x00, 0x01, 0x00, 0x00, 0x00,
  0x04, 0x00, 0x00, 0x00, 0x3E, 0xEE, 0xFF, 0xFF, 0x04, 0x00,
  0x00, 0x00, 0x0D, 0x00, 0x00, 0x00, 0x72, 0x65, 0x73, 0x68,
  0x61, 0x70, 0x65, 0x5F, 0x69, 0x6E, 0x70, 0x75, 0x74, 0x00,
  0x00, 0x00, 0x02, 0x00, 0x00, 0x00, 0x34, 0x00, 0x00, 0x00,
  0x04, 0x00, 0x00, 0x00, 0xDC, 0xFF, 0xFF, 0xFF, 0x19, 0x00,
  0x00, 0x00, 0x04, 0x00, 0x00, 0x00, 0x13, 0x00, 0x00, 0x00,
  0x43, 0x4F, 0x4E, 0x56, 0x45, 0x52, 0x53, 0x49, 0x4F, 0x4E,
  0x5F, 0x4D, 0x45, 0x54, 0x41, 0x44, 0x41, 0x54, 0x41, 0x00,
  0x08, 0x00, 0x0C, 0x00, 0x08, 0x00, 0x04, 0x00, 0x08, 0x00,
  0x00, 0x00, 0x18, 0x00, 0x00, 0x00, 0x04, 0x00, 0x00, 0x00,
  0x13, 0x00, 0x00, 0x00, 0x6D, 0x69, 0x6E, 0x5F, 0x72, 0x75,
  0x6E, 0x74, 0x69, 0x6D, 0x65, 0x5F, 0x76, 0x65, 0x72, 0x73,
  0x69, 0x6F, 0x6E, 0x00, 0x1A, 0x00, 0x00, 0x00, 0xC0, 0x0E,
  0x00, 0x00, 0xB8, 0x0E, 0x00, 0x00, 0xA4, 0x0E, 0x00, 0x00,
  0x90, 0x0E, 0x00, 0x00, 0x7C, 0x0E, 0x00, 0x00, 0x74, 0x0E,
  0x00, 0x00, 0x5C, 0x0E, 0x00, 0x00, 0x44, 0x0E, 0x00, 0x00,
  0x34, 0x06, 0x00, 0x00, 0xE4, 0x05, 0x00, 0x00, 0xD4, 0x01,
  0x00, 0x00, 0x84, 0x01, 0x00, 0x00, 0xE4, 0x00, 0x00, 0x00,
  0xDC, 0x00, 0x00, 0x00, 0xD4, 0x00, 0x00, 0x00, 0xCC, 0x00,
  0x00, 0x00, 0xC4, 0x00, 0x00, 0x00, 0xBC, 0x00, 0x00, 0x00,
  0xB4, 0x00, 0x00, 0x00, 0xAC, 0x00, 0x00, 0x00, 0xA4, 0x00,
  0x00, 0x00, 0x9C, 0x00, 0x00, 0x00, 0x94, 0x00, 0x00, 0x00,
  0x8C, 0x00, 0x00, 0x00, 0x6C, 0x00, 0x00, 0x00, 0x04, 0x00,
  0x00, 0x00, 0x22, 0xEF, 0xFF, 0xFF, 0x04, 0x00, 0x00, 0x00,
  0x58, 0x00, 0x00, 0x00, 0x0C, 0x00, 0x00, 0x00, 0x08, 0x00,
  0x0E, 0x00, 0x08, 0x00, 0x04, 0x00, 0x08, 0x00, 0x00, 0x00,
  0x10, 0x00, 0x00, 0x00, 0x28, 0x00, 0x00, 0x00, 0x00, 0x00,
  0x06, 0x00, 0x08, 0x00, 0x04, 0x00, 0x06, 0x00, 0x00, 0x00,
  0x04, 0x00, 0x00, 0x00, 0x01, 0x00, 0x00, 0x00, 0xEB, 0x03,
  0x00, 0x00, 0x00, 0x00, 0x0A, 0x00, 0x10, 0x00, 0x0C, 0x00,
  0x08, 0x00, 0x04, 0x00, 0x0A, 0x00, 0x00, 0x00, 0x01, 0x00,
  0x00, 0x00, 0x02, 0x00, 0x00, 0x00, 0x04, 0x00, 0x00, 0x00,
  0x06, 0x00, 0x00, 0x00, 0x32, 0x2E, 0x31, 0x32, 0x2E, 0x30,
  0x00, 0x00, 0x86, 0xEF, 0xFF, 0xFF, 0x04, 0x00, 0x00, 0x00,
  0x10, 0x00, 0x00, 0x00, 0x31, 0x2E, 0x31, 0x34, 0x2E, 0x30,
  0x00, 0x00, 0x00, 0x00, 0x00, 0x00, 0x00, 0x00, 0x00, 0x00,
  0xB4, 0xE0, 0xFF, 0xFF, 0xB8, 0xE0, 0xFF, 0xFF, 0xBC, 0xE0,
  0xFF, 0xFF, 0xC0, 0xE0, 0xFF, 0xFF, 0xC4, 0xE0, 0xFF, 0xFF,
  0xC8, 0xE0, 0xFF, 0xFF, 0xCC, 0xE0, 0xFF, 0xFF, 0xD0, 0xE0,
  0xFF, 0xFF, 0xD4, 0xE0, 0xFF, 0xFF, 0xD8, 0xE0, 0xFF, 0xFF,
  0xDC, 0xE0, 0xFF, 0xFF, 0xCE, 0xEF, 0xFF, 0xFF, 0x04, 0x00,
  0x00, 0x00, 0x90, 0x00, 0x00, 0x00, 0xCE, 0xE4, 0x0A, 0xBA,
  0x16, 0x60, 0x81, 0x1F, 0x45, 0x26, 0x17, 0xAD, 0xCC, 0x7A,
  0x84, 0x5F, 0x64, 0x81, 0xFA, 0xD3, 0xDF, 0x60, 0xD1, 0xE4,
  0xBF, 0xAE, 0x7F, 0xC3, 0xDB, 0x38, 0x3E, 0x93, 0x44, 0x7F,
  0xC0, 0x93, 0x0F, 0xE8, 0x57, 0x0E, 0xEA, 0x7F, 0xFD, 0x29,
  0x4D, 0x3D, 0x07, 0x50, 0x91, 0x68, 0xD0, 0x7F, 0x9D, 0x02,
  0x8D, 0x9E, 0x81, 0xDE, 0xB6, 0xE3, 0x73, 0x7E, 0x7A, 0xEA,
  0x03, 0x7F, 0x10, 0x8C, 0x26, 0x58, 0xDF, 0x86, 0x10, 0x23,
  0x19, 0x81, 0xBC, 0xC9, 0xAB, 0x4F, 0x42, 0x4E, 0x3F, 0x7F,
  0x20, 0x5D, 0x04, 0x18, 0xE2, 0x4A, 0x96, 0xB2, 0xEB, 0x6B,
  0x74, 0x81, 0xDD, 0x4F, 0x17, 0xDE, 0x04, 0x79, 0x7F, 0x09,
  0x84, 0xDB, 0xF0, 0xB9, 0xC2, 0x88, 0x64, 0x81, 0x3C, 0x51,
  0xCD, 0x72, 0x01, 0xF3, 0xCF, 0xB4, 0xC1, 0x4B, 0x81, 0xA0,
  0x45, 0x88, 0x81, 0xCC, 0x50, 0x8B, 0x57, 0x76, 0xBE, 0x30,
  0x03, 0xD5, 0xC4, 0x47, 0xCC, 0xC4, 0x3E, 0x94, 0xB5, 0x7F,
  0x6A, 0xF0, 0xFF, 0xFF, 0x04, 0x00, 0x00, 0x00, 0x40, 0x00,
  0x00, 0x00, 0x81, 0x18, 0x00, 0x00, 0x33, 0xF1, 0xFF, 0xFF,
  0xC0, 0x2C, 0x00, 0x00, 0x94, 0x1A, 0x00, 0x00, 0x5D, 0xF3,
  0xFF, 0xFF, 0xDF, 0x0C, 0x00, 0x00, 0xAA, 0x07, 0x00, 0x00,
  0xF7, 0x08, 0x00, 0x00, 0x35, 0x16, 0x00, 0x00, 0x14, 0xD2,
  0xFF, 0xFF, 0x88, 0x12, 0x00, 0x00, 0xAA, 0x06, 0x00, 0x00,
  0x28, 0x07, 0x00, 0x00, 0xCA, 0x42, 0x00, 0x00, 0x30, 0x09,
  0x00, 0x00, 0x5F, 0x17, 0x00, 0x00, 0xB6, 0xF0, 0xFF, 0xFF,
  0x04, 0x00, 0x00, 0x00, 0x00, 0x04, 0x00, 0x00, 0xE0, 0xF7,
  0x0D, 0xF9, 0x27, 0x8B, 0x51, 0xC5, 0x41, 0x57, 0x2E, 0xFE,
  0x63, 0xD7, 0x03, 0x37, 0xDC, 0x0B, 0x28, 0xCF, 0xEF, 0x87,
  0x49, 0x54, 0x2B, 0xEE, 0x00, 0xF1, 0x12, 0xD9, 0x2B, 0x4E,
  0xE2, 0x27, 0x3D, 0x2E, 0xEE, 0xEF, 0x73, 0x00, 0x1C, 0x5A,
  0x3D, 0x0C, 0xF3, 0x29, 0x02, 0xFE, 0xD7, 0x07, 0x0C, 0x71,
  0xDD, 0xBD, 0x77, 0x49, 0x3B, 0x46, 0x67, 0xFD, 0xB7, 0x06,
  0xF7, 0x35, 0xEB, 0xE9, 0xEE, 0xF7, 0x13, 0x44, 0x7E, 0x7F,
  0xE3, 0x11, 0x4B, 0xEB, 0xE2, 0x07, 0x15, 0x67, 0xF9, 0x3F,
  0xF1, 0x0F, 0xD8, 0xD9, 0x62, 0x45, 0x2E, 0x39, 0x3F, 0x34,
  0x21, 0x14, 0x78, 0xE6, 0x32, 0x7F, 0x19, 0x07, 0x75, 0xC9,
  0x72, 0x19, 0xEB, 0x34, 0x7B, 0x30, 0xDA, 0x23, 0x3D, 0x25,
  0x40, 0x32, 0x03, 0xAB, 0x2F, 0xCC, 0x4E, 0x2C, 0xC2, 0x56,
  0x43, 0x0D, 0x1D, 0x13, 0xD0, 0xFE, 0xFC, 0x0B, 0x1C, 0xF5,
  0xF4, 0xAD, 0x68, 0x32, 0x13, 0xFD, 0x78, 0xB9, 0x57, 0x1F,
  0xEB, 0x4D, 0xD5, 0xD9, 0x62, 0xFD, 0xF6, 0x28, 0x5C, 0xED,
  0xF3, 0x58, 0x36, 0x06, 0x69, 0x4D, 0x05, 0x28, 0xE8, 0xF7,
  0x4C, 0x3E, 0x06, 0x3C, 0x48, 0x0F, 0xE7, 0x50, 0x3B, 0xE6,
  0xD2, 0x34, 0xCF, 0x18, 0xE5, 0xF5, 0x25, 0x7F, 0xE7, 0xB1,
  0x3F, 0x29, 0x33, 0x46, 0xED, 0xD3, 0xD5, 0x0D, 0xF6, 0x14,
  0xE1, 0x0B, 0x20, 0xE9, 0xD9, 0x1E, 0x10, 0x4D, 0xD0, 0x4E,
  0xD9, 0xE8, 0xDF, 0x21, 0x2E, 0x2C, 0xF6, 0x4E, 0x63, 0xFA,
  0x06, 0xE4, 0x1A, 0xC4, 0x18, 0x5D, 0x20, 0x27, 0xCD, 0x0A,
  0x38, 0x27, 0x23, 0x26, 0xE4, 0x08, 0x7F, 0xC7, 0x56, 0x69,
  0xDC, 0x4D, 0x48, 0x18, 0x08, 0x09, 0x33, 0x0F, 0x29, 0x3E,
  0xAE, 0xEB, 0x4C, 0xB2, 0x37, 0xE5, 0xE6, 0x5A, 0x5E, 0xD2,
  0x04, 0x12, 0xF8, 0x11, 0xDF, 0x59, 0x0C, 0x39, 0xFF, 0xF9,
  0x46, 0xFD, 0x03, 0xFB, 0x16, 0xD5, 0x7F, 0x2F, 0xB1, 0x60,
  0x00, 0xCE, 0x0E, 0xC9, 0x0B, 0x8D, 0x34, 0x48, 0x34, 0xFB,
  0x04, 0xD8, 0x3B, 0x39, 0x17, 0xF9, 0xF7, 0x08, 0x44, 0x1E,
  0xBF, 0xEF, 0x37, 0xEA, 0xE8, 0x41, 0xEE, 0xC9, 0xF2, 0x12,
  0x01, 0xFE, 0xDC, 0xF2, 0x07, 0x5F, 0xA1, 0x4E, 0x32, 0xFB,
  0x35, 0xF7, 0x50, 0xD9, 0xF2, 0x15, 0xFB, 0x11, 0xFD, 0x0C,
  0x2B, 0x15, 0x09, 0x9C, 0x16, 0x50, 0xB7, 0xFE, 0xD7, 0xF6,
  0xE4, 0x27, 0xF8, 0x55, 0xE0, 0x60, 0xFA, 0xD1, 0x42, 0x3B,
  0x2A, 0xBC, 0x10, 0x55, 0x96, 0xD6, 0x07, 0x1B, 0x37, 0x03,
  0x26, 0x69, 0x0D, 0x17, 0x23, 0x1C, 0x38, 0xD3, 0xE6, 0x09,
  0x39, 0x06, 0x2E, 0x23, 0x54, 0xEA, 0x53, 0x11, 0xBB, 0x09,
  0x6A, 0x04, 0x08, 0x45, 0xA6, 0x35, 0x23, 0x4F, 0xF1, 0x26,
  0xF6, 0x1A, 0xFF, 0x47, 0x37, 0x2A, 0xE5, 0xCA, 0x1B, 0x6A,
  0x43, 0xE4, 0xFB, 0xE8, 0x72, 0x55, 0xAB, 0x5A, 0xF5, 0x09,
  0x7F, 0xF1, 0x06, 0x98, 0x05, 0x75, 0xC4, 0x22, 0xB7, 0xF0,
  0x11, 0x4A, 0x0C, 0x21, 0xB1, 0xC0, 0x14, 0xDF, 0xDE, 0xCF,
  0x21, 0x77, 0xEB, 0x42, 0x0D, 0x29, 0xE4, 0x2D, 0xEE, 0xF2,
  0x0A, 0x0A, 0x38, 0x2B, 0x88, 0x3C, 0x52, 0xDC, 0x7F, 0x38,
  0x36, 0xCC, 0xC8, 0x6A, 0x3A, 0x1B, 0xD8, 0xFE, 0xDF, 0x4C,
  0x12, 0x4D, 0x59, 0xCD, 0xBC, 0xF7, 0xF1, 0xFB, 0x11, 0x38,
  0xF6, 0x67, 0x01, 0x4E, 0x1A, 0xE1, 0xE8, 0xE2, 0x5B, 0xD8,
  0xB9, 0xFE, 0xC2, 0x0B, 0xD9, 0x3E, 0x08, 0x07, 0x1C, 0x58,
  0x02, 0x09, 0xEE, 0x1C, 0x1C, 0xFC, 0xCC, 0xD2, 0xDE, 0xB8,
  0x46, 0x25, 0x4E, 0xF1, 0x22, 0xFB, 0x94, 0x19, 0x3D, 0xAE,
  0x3A, 0x7B, 0x06, 0xF6, 0x1B, 0xED, 0x1D, 0xE0, 0xEC, 0xFE,
  0xFF, 0x2B, 0xE0, 0xD7, 0xD2, 0xDE, 0x73, 0x78, 0x4C, 0xE4,
  0x2B, 0xD2, 0x3D, 0x4E, 0x93, 0x69, 0x07, 0xEF, 0x31, 0x25,
  0xFB, 0xC8, 0x71, 0x42, 0xC9, 0xED, 0x16, 0xF5, 0xE2, 0x6C,
  0xDA, 0x14, 0xEE, 0xD0, 0x34, 0xED, 0xCD, 0xF2, 0x76, 0x43,
  0x33, 0xE0, 0x09, 0x0F, 0xBB, 0x31, 0x0C, 0x19, 0xB7, 0x2A,
  0xE3, 0x2D, 0x97, 0x01, 0x7F, 0xFF, 0x2B, 0xED, 0x9F, 0x27,
  0xE6, 0x72, 0x48, 0x22, 0xDE, 0x23, 0xFC, 0x3B, 0x24, 0xCE,
  0x7A, 0xCD, 0xFA, 0xD7, 0x17, 0xEF, 0xEA, 0x7A, 0x28, 0x70,
  0x00, 0x28, 0xDB, 0x5C, 0xE4, 0x26, 0x7B, 0x36, 0xBF, 0xDE,
  0x05, 0xEC, 0xED, 0x46, 0x37, 0xF7, 0x47, 0x56, 0xA9, 0xAC,
  0x16, 0xE3, 0x43, 0xF1, 0xB9, 0xF4, 0x3E, 0xE4, 0x4A, 0x39,
  0x53, 0x03, 0x5C, 0x08, 0xDD, 0x20, 0xFB, 0xE0, 0x46, 0x6F,
  0xC0, 0x07, 0xE9, 0xFF, 0xED, 0x3D, 0xF5, 0x29, 0x00, 0x54,
  0x0B, 0x1D, 0xF3, 0xE0, 0x6C, 0xFF, 0xEC, 0xC8, 0x46, 0xDE,
  0xFA, 0x6A, 0x9F, 0x54, 0xFF, 0xC4, 0x2D, 0x0E, 0xDA, 0xBF,
  0x47, 0x6B, 0xF3, 0x0C, 0x43, 0xE7, 0xD5, 0x50, 0xAA, 0x16,
  0xE1, 0x2B, 0x5E, 0x39, 0xC4, 0x1C, 0x53, 0x25, 0x0C, 0xA9,
  0x1D, 0x10, 0xDC, 0x27, 0x15, 0x19, 0xCA, 0xF3, 0x56, 0x19,
  0xAC, 0x4E, 0x42, 0xFD, 0x38, 0xD0, 0x6A, 0x2F, 0xC2, 0x4F,
  0x46, 0x0B, 0xD6, 0x11, 0x00, 0x2C, 0xF4, 0xE3, 0x26, 0x49,
  0xF6, 0x8A, 0xF3, 0x37, 0xE2, 0x52, 0xE4, 0x6C, 0x14, 0x19,
  0xD8, 0x1A, 0x15, 0x0D, 0x44, 0xC2, 0xB0, 0xD9, 0x14, 0x42,
  0x52, 0x66, 0x05, 0x02, 0x54, 0x29, 0xE7, 0x05, 0xF7, 0x81,
  0x51, 0x02, 0xC5, 0xEA, 0x69, 0xF9, 0x09, 0x54, 0x7F, 0x05,
  0x7F, 0xFA, 0xB0, 0xCD, 0x13, 0xF1, 0x3B, 0xF6, 0xEE, 0xD2,
  0x1D, 0x4A, 0xF4, 0x60, 0x2C, 0x21, 0xF8, 0x1A, 0x31, 0xBD,
  0xE6, 0x90, 0x24, 0x10, 0xEE, 0xF3, 0x99, 0xF5, 0x1C, 0x5C,
  0xA7, 0x65, 0xD0, 0x10, 0x64, 0xD4, 0x32, 0xA5, 0x31, 0xDA,
  0xF6, 0xC2, 0xF6, 0xF6, 0xF7, 0x31, 0xE2, 0x09, 0xC7, 0xE7,
  0x26, 0x03, 0x23, 0x16, 0x49, 0xEB, 0x65, 0xAE, 0xF3, 0xCC,
  0xBF, 0x62, 0xC2, 0xFE, 0xDD, 0x04, 0x18, 0x3C, 0x3A, 0x49,
  0x03, 0xF4, 0xEF, 0xC1, 0x7F, 0x0B, 0xBC, 0x7E, 0x1D, 0x0C,
  0xFB, 0xF2, 0xEE, 0xFE, 0xEE, 0xE3, 0x26, 0x3B, 0x22, 0x81,
  0x06, 0x6C, 0x14, 0x3D, 0xDB, 0x7F, 0x17, 0x40, 0xDC, 0x23,
  0x03, 0xC4, 0x25, 0x4D, 0xFA, 0x8F, 0xB8, 0x4E, 0x1B, 0x51,
  0x2F, 0x20, 0x3C, 0x14, 0xD5, 0xF0, 0x03, 0xEC, 0x22, 0x05,
  0xA7, 0xA7, 0x29, 0x58, 0xFD, 0x53, 0x7B, 0x39, 0x4B, 0xE9,
  0xFF, 0xDA, 0x1B, 0x28, 0x64, 0x30, 0xAB, 0xEF, 0xAC, 0x4A,
  0x0A, 0x3D, 0xBE, 0xEB, 0xFA, 0x16, 0x60, 0xC9, 0xDB, 0x98,
  0x43, 0xAF, 0xFF, 0xD6, 0x2C, 0x02, 0xF7, 0x70, 0xB8, 0x4F,
  0xB3, 0xE8, 0x37, 0xF3, 0x24, 0x13, 0x35, 0x5C, 0x0B, 0xF2,
  0xE6, 0x36, 0xE6, 0x24, 0xBC, 0x19, 0xCE, 0x06, 0x48, 0xE9,
  0xFF, 0xAF, 0x16, 0x30, 0x17, 0xCA, 0x0F, 0x28, 0xCB, 0x5A,
  0xDC, 0x29, 0xFE, 0x08, 0xF8, 0x0F, 0x41, 0xA8, 0x18, 0x6C,
  0xC8, 0x90, 0x52, 0x7F, 0xD8, 0x7F, 0x21, 0x35, 0xFD, 0x19,
  0x0B, 0x35, 0x20, 0x01, 0x23, 0x0B, 0x0F, 0xE6, 0xE5, 0x39,
  0x15, 0x46, 0x1C, 0x35, 0x27, 0x26, 0xBC, 0x09, 0xDC, 0x10,
  0x1A, 0x55, 0xB3, 0x13, 0x05, 0x01, 0x33, 0x70, 0x4D, 0x54,
  0x4A, 0x17, 0x06, 0x05, 0xFB, 0xAB, 0x45, 0x63, 0xAE, 0xE9,
  0xEC, 0xCC, 0xFA, 0x6F, 0x7E, 0x28, 0x3E, 0xF7, 0x87, 0xC8,
  0x06, 0xBF, 0x34, 0x03, 0xF2, 0xCC, 0xE0, 0xD3, 0x27, 0x1F,
  0xB0, 0xDC, 0xC2, 0xF4, 0xFF, 0xFF, 0x04, 0x00, 0x00, 0x00,
  0x40, 0x00, 0x00, 0x00, 0xF9, 0xFA, 0xFF, 0xFF, 0x81, 0xFA,
  0xFF, 0xFF, 0xE5, 0xF9, 0xFF, 0xFF, 0x2D, 0xFD, 0xFF, 0xFF,
  0x54, 0x05, 0x00, 0x00, 0x04, 0xF6, 0xFF, 0xFF, 0xA9, 0xF0,
  0xFF, 0xFF, 0x84, 0xF6, 0xFF, 0xFF, 0x37, 0x04, 0x00, 0x00,
  0x56, 0x14, 0x00, 0x00, 0xB8, 0xF7, 0xFF, 0xFF, 0x2C, 0xFE,
  0xFF, 0xFF, 0x48, 0xFE, 0xFF, 0xFF, 0x36, 0xF9, 0xFF, 0xFF,
  0x38, 0xFC, 0xFF, 0xFF, 0xD2, 0xFF, 0xFF, 0xFF, 0x0E, 0xF5,
  0xFF, 0xFF, 0x04, 0x00, 0x00, 0x00, 0x00, 0x08, 0x00, 0x00,
  0x25, 0xC1, 0xCA, 0xC9, 0x1C, 0xED, 0xDD, 0xF1, 0x02, 0xDA,
  0xEA, 0x16, 0xC1, 0x0B, 0xDD, 0xDA, 0x73, 0xE3, 0xEA, 0xCF,
  0xFE, 0x17, 0x07, 0xDE, 0xE1, 0xF2, 0xCC, 0x36, 0x2F, 0x0F,
  0x23, 0x53, 0x0C, 0xDD, 0xED, 0xDB, 0x07, 0x10, 0xDA, 0xF2,
  0xD0, 0xE6, 0xCA, 0x58, 0xFC, 0x4C, 0xDE, 0x4A, 0x1B, 0xA8,
  0x02, 0xCD, 0x0B, 0xF0, 0xEC, 0xD9, 0xE6, 0x0F, 0xCE, 0xE7,
  0xDD, 0x34, 0xE3, 0x30, 0x00, 0xFE, 0x03, 0x02, 0x0B, 0xED,
  0xF4, 0xD4, 0xD4, 0x14, 0xDC, 0x2A, 0x14, 0x6E, 0xF1, 0x1F,
  0xAB, 0x13, 0x17, 0xE3, 0x0C, 0x02, 0xF4, 0xFE, 0xFF, 0x2B,
  0xCF, 0x36, 0x16, 0x2A, 0x42, 0x20, 0x1E, 0x04, 0x2C, 0x13,
  0x0C, 0x05, 0xDE, 0xE0, 0x05, 0x08, 0xDE, 0xCE, 0x17, 0x50,
  0x21, 0xD2, 0x63, 0xE3, 0xE9, 0x27, 0x11, 0x0D, 0xED, 0x0A,
  0xFA, 0x51, 0xDA, 0xFF, 0x26, 0x45, 0xEA, 0x38, 0xFC, 0xE4,
  0x93, 0xE8, 0xD3, 0xE1, 0x06, 0xC7, 0x19, 0x00, 0x0D, 0x0C,
  0xE6, 0x03, 0xE9, 0xD5, 0x0B, 0x07, 0xD0, 0xF6, 0x27, 0xE5,
  0xFF, 0xF0, 0xE2, 0x03, 0xF4, 0x2D, 0x1F, 0xF3, 0x19, 0x37,
  0xDA, 0xDB, 0x0A, 0x0D, 0x01, 0x06, 0xDE, 0xF5, 0xEB, 0xD5,
  0xE9, 0x0D, 0xE5, 0x05, 0xC9, 0x1F, 0xD7, 0xB3, 0xC2, 0xD7,
  0x2A, 0x02, 0x0B, 0xF3, 0x12, 0x00, 0xB5, 0x91, 0xBE, 0xF5,
  0xBA, 0x05, 0xFB, 0xD1, 0xD0, 0xE2, 0xEF, 0xEA, 0xE8, 0xD7,
  0xE2, 0x05, 0xCE, 0xF5, 0x09, 0xD6, 0x08, 0x16, 0x04, 0xCD,
  0xF7, 0x12, 0x23, 0x03, 0xE5, 0xE1, 0xE8, 0x0E, 0xC2, 0x1A,
  0xCD, 0x10, 0x12, 0xD6, 0xCA, 0xE6, 0xED, 0x08, 0x2C, 0x02,
  0xDB, 0xFF, 0xF7, 0xFB, 0xC5, 0xBE, 0x00, 0xC9, 0xE2, 0xC9,
  0x31, 0xE6, 0xED, 0x08, 0x06, 0x24, 0xFB, 0xFE, 0x15, 0x0A,
  0x0D, 0x24, 0x45, 0xF3, 0x07, 0x0F, 0x46, 0xFE, 0xED, 0x0E,
  0x18, 0xD5, 0x2B, 0x00, 0x15, 0x21, 0x0F, 0x23, 0x09, 0x19,
  0x0E, 0x14, 0x13, 0x2D, 0xC4, 0x13, 0x31, 0xDB, 0x10, 0xDE,
  0x15, 0xD3, 0x07, 0xD6, 0xD0, 0xFB, 0xF7, 0xFE, 0xB8, 0xD2,
  0x1B, 0xFC, 0x26, 0x02, 0x30, 0xF4, 0xE3, 0x0B, 0x1D, 0x07,
  0x1E, 0xD7, 0xFD, 0xD0, 0xD4, 0xE0, 0xC7, 0xAA, 0x1D, 0xDE,
  0x2A, 0xD9, 0x0C, 0x3F, 0x1E, 0x1F, 0xEF, 0xAB, 0xCA, 0xBF,
  0xCA, 0xC7, 0xE5, 0xED, 0xF2, 0xD2, 0xF9, 0xDB, 0xDF, 0xF0,
  0xD9, 0xE6, 0xC0, 0xD2, 0xEB, 0xBB, 0xD9, 0xB6, 0x14, 0xCC,
  0x0D, 0xF2, 0x39, 0xF5, 0x10, 0xB3, 0xEA, 0x21, 0x07, 0xD7,
  0xF4, 0xDA, 0xEC, 0xFA, 0x04, 0x1A, 0xD9, 0x14, 0x1C, 0x1D,
  0x09, 0xFF, 0xEE, 0xFD, 0xFC, 0xD9, 0xBA, 0x08, 0x1B, 0x05,
  0xFC, 0x04, 0x05, 0xFF, 0xD7, 0x0C, 0x1B, 0x00, 0x06, 0x1A,
  0xAC, 0xD6, 0xFE, 0x00, 0xD6, 0x11, 0x33, 0xFF, 0x12, 0x0C,
  0x22, 0x14, 0x0F, 0x1D, 0xF9, 0xD3, 0xE2, 0x46, 0x16, 0x36,
  0xD8, 0x17, 0xC4, 0xF2, 0xF7, 0xE7, 0x26, 0x05, 0x01, 0xF6,
  0x0B, 0x0C, 0xE4, 0xCC, 0xAD, 0xDF, 0x82, 0xEB, 0xD7, 0xAB,
  0x9E, 0xDD, 0x54, 0x09, 0x12, 0x14, 0xEC, 0x16, 0xBD, 0xC1,
  0xE4, 0xC6, 0xBA, 0xD4, 0xFB, 0x0B, 0xF6, 0x0D, 0x5B, 0xED,
  0xE7, 0x10, 0x26, 0x61, 0xAA, 0xE1, 0xDB, 0xF2, 0xA5, 0xF0,
  0x16, 0xD0, 0x12, 0x10, 0x32, 0x1C, 0xE7, 0x14, 0xEF, 0xCC,
  0xC1, 0x92, 0xE3, 0xCB, 0xC1, 0xB3, 0x05, 0xD6, 0xFE, 0xE9,
  0x13, 0xE8, 0xF1, 0xFD, 0xDC, 0x3F, 0xF8, 0xB6, 0xE8, 0xC2,
  0x3D, 0xCF, 0xCA, 0xEF, 0xF3, 0x0C, 0x0B, 0xF7, 0xF5, 0x28,
  0x2E, 0xC9, 0x2D, 0xB9, 0xE8, 0xE5, 0xF3, 0x20, 0x12, 0x0E,
  0xF0, 0x0B, 0x26, 0x27, 0xF3, 0xF3, 0xF4, 0xCA, 0xA8, 0xEE,
  0x2D, 0x0F, 0xE4, 0x05, 0x60, 0x04, 0xFB, 0xDF, 0x43, 0x23,
  0xE0, 0x25, 0x22, 0x11, 0x0E, 0x4A, 0x04, 0x42, 0xF5, 0xE3,
  0xC0, 0xD9, 0xE8, 0x19, 0x44, 0x04, 0x15, 0x1D, 0x08, 0x0B,
  0xFC, 0x02, 0xC1, 0xCA, 0xB6, 0x03, 0x1C, 0x16, 0xFC, 0xED,
  0x31, 0x28, 0x15, 0x28, 0x18, 0xFE, 0xBD, 0x32, 0xFA, 0xC1,
  0xD4, 0xE5, 0xEE, 0xFC, 0xCA, 0x1E, 0x74, 0x09, 0xE2, 0x05,
  0x32, 0xEC, 0xEF, 0x03, 0xC4, 0xDF, 0xAE, 0xAD, 0x41, 0x1E,
  0xB6, 0xED, 0x53, 0x05, 0xE8, 0xDF, 0x0D, 0xFA, 0xEF, 0xE4,
  0x0C, 0xB4, 0xDF, 0xBE, 0xD5, 0xEF, 0xC5, 0x22, 0x0F, 0xFD,
  0x10, 0x13, 0xE2, 0x37, 0xD7, 0xDF, 0xAF, 0xA2, 0x11, 0xD9,
  0xEB, 0xF1, 0x29, 0xD2, 0x53, 0x10, 0xD8, 0x37, 0xFF, 0xD2,
  0x04, 0xF5, 0xCD, 0xF2, 0x00, 0x08, 0x2E, 0x42, 0x28, 0x08,
  0x61, 0x41, 0x15, 0x44, 0x2F, 0x26, 0x1E, 0x29, 0x0A, 0x1D,
  0xB8, 0xF6, 0x32, 0x48, 0x05, 0x0C, 0x65, 0x22, 0xF4, 0x3D,
  0x01, 0xC9, 0x1A, 0x56, 0xFA, 0x6B, 0xF5, 0xC0, 0xD1, 0xBB,
  0xBB, 0xE3, 0x43, 0x1B, 0xEA, 0xF6, 0x25, 0x44, 0xEC, 0x24,
  0xC0, 0xB8, 0xAE, 0x05, 0x15, 0xDD, 0xEB, 0xFD, 0x1C, 0x0A,
  0xE7, 0x0F, 0xF3, 0x3E, 0xD7, 0xE7, 0xCA, 0xC8, 0xA5, 0xD7,
  0xEE, 0xD6, 0xFD, 0xF5, 0x60, 0x36, 0xF6, 0x31, 0x24, 0x11,
  0xCC, 0xD2, 0x19, 0xC4, 0x81, 0xE2, 0x13, 0xB7, 0xC5, 0xEA,
  0x4F, 0xFD, 0x1A, 0x1C, 0xF7, 0xCF, 0xD0, 0xD1, 0xEF, 0x91,
  0xC6, 0x08, 0x10, 0xEE, 0xC1, 0x12, 0x36, 0x28, 0xED, 0x0C,
  0x33, 0xC9, 0xE1, 0x0C, 0xAF, 0xEF, 0xD3, 0x26, 0xC5, 0x0B,
  0xE9, 0xF2, 0x42, 0xFF, 0xD4, 0x10, 0x18, 0x2E, 0xF2, 0x4D,
  0xB7, 0xD9, 0x11, 0x11, 0x25, 0x46, 0x1E, 0xF6, 0x2F, 0x21,
  0x14, 0x21, 0x06, 0x1A, 0xEC, 0x1B, 0x4F, 0xBB, 0xE7, 0xFA,
  0x26, 0x4B, 0x2F, 0x01, 0x35, 0xFE, 0xFF, 0x23, 0xE1, 0xDE,
  0x21, 0x4B, 0x13, 0x39, 0xD6, 0xAF, 0x15, 0x01, 0xE3, 0x06,
  0x20, 0x0E, 0x05, 0x03, 0x15, 0x0D, 0x13, 0x05, 0x11, 0xC7,
  0xE5, 0xF4, 0x19, 0xF3, 0xEE, 0xEF, 0x05, 0xFF, 0x18, 0xF0,
  0xF2, 0xC8, 0xE2, 0xDE, 0xB5, 0xF1, 0xE6, 0xE5, 0xC6, 0xFC,
  0x07, 0x19, 0xFC, 0x07, 0x0E, 0x1F, 0x27, 0x26, 0xCF, 0x1A,
  0x17, 0xB2, 0xA0, 0xFF, 0xEF, 0x4D, 0x27, 0xFD, 0x14, 0x07,
  0xD4, 0x0C, 0x34, 0xF6, 0xE1, 0x3A, 0xDB, 0xD6, 0x0B, 0x15,
  0x16, 0x02, 0x29, 0xE0, 0x38, 0x03, 0x09, 0x0A, 0x04, 0xD2,
  0x27, 0x3B, 0x02, 0xF0, 0x17, 0x09, 0x1B, 0xE6, 0xE9, 0x11,
  0xFE, 0x04, 0xDE, 0xFC, 0x0F, 0xE4, 0xE0, 0x1A, 0x15, 0x10,
  0x93, 0xDA, 0x0C, 0x46, 0xF4, 0x08, 0xF5, 0xEF, 0xF7, 0xDD,
  0x10, 0xAC, 0x00, 0x1E, 0x23, 0xE8, 0xE8, 0x02, 0xE9, 0xF4,
  0x0C, 0xF9, 0x98, 0xDD, 0xFF, 0xEC, 0xE5, 0xC2, 0x1F, 0x22,
  0x15, 0x35, 0x36, 0x2C, 0xE6, 0x24, 0x47, 0x02, 0xBB, 0xD1,
  0xF2, 0x18, 0xF5, 0xE6, 0x1D, 0xEA, 0xE0, 0x06, 0xF9, 0xF4,
  0x00, 0xF9, 0xA5, 0x0B, 0xA8, 0x13, 0x2A, 0x17, 0x17, 0x1F,
  0x0D, 0xF3, 0xE6, 0x24, 0xE5, 0x1A, 0xCB, 0x2E, 0x30, 0xF6,
  0xCE, 0xED, 0xE9, 0x0A, 0xE2, 0x10, 0xE6, 0x23, 0x05, 0xDB,
  0x26, 0x3F, 0xC1, 0x3B, 0xE1, 0x2A, 0xFA, 0x1F, 0x00, 0x08,
  0x07, 0x06, 0x08, 0xF6, 0x26, 0x2E, 0x08, 0x11, 0x20, 0x17,
  0x33, 0x33, 0xE1, 0x0E, 0xEC, 0xFD, 0x21, 0x1C, 0x11, 0xFB,
  0x18, 0x2B, 0xFA, 0xE3, 0xFD, 0x08, 0xD4, 0xE4, 0xEB, 0xF2,
  0xEF, 0xE6, 0x1D, 0xD0, 0xF3, 0x16, 0x1E, 0xFF, 0xC1, 0xFE,
  0xD0, 0xCB, 0xDE, 0xFA, 0x2F, 0x0E, 0xF7, 0x0B, 0xFB, 0x42,
  0x08, 0xF9, 0xCC, 0xC1, 0x03, 0x19, 0x11, 0x46, 0xD2, 0x01,
  0x0A, 0xFB, 0xF1, 0x5C, 0x02, 0xF2, 0x46, 0xEB, 0xFA, 0x28,
  0x9F, 0x19, 0x47, 0xFF, 0x00, 0xF0, 0x04, 0x18, 0xFA, 0x1F,
  0x31, 0x9E, 0xD1, 0x15, 0xF5, 0xCA, 0xD0, 0x1E, 0xE0, 0x23,
  0x15, 0xF8, 0x28, 0x11, 0x23, 0x45, 0x16, 0x9E, 0x06, 0xAB,
  0x15, 0x9F, 0xE9, 0x64, 0x28, 0x45, 0xE7, 0x2B, 0x11, 0x15,
  0x1A, 0xFB, 0x05, 0x30, 0x28, 0xB7, 0x11, 0xDD, 0x36, 0x0A,
  0xFB, 0x1E, 0x0D, 0xF4, 0x10, 0x0A, 0x0B, 0xD0, 0x0F, 0xC6,
  0xF0, 0xA1, 0x12, 0x0A, 0x4C, 0x0F, 0xEE, 0x08, 0xF7, 0x07,
  0x37, 0xED, 0xE9, 0x04, 0x2A, 0xA6, 0xE2, 0xE5, 0xB3, 0xD0,
  0xB1, 0x21, 0xF0, 0x0E, 0xDA, 0x16, 0x15, 0x0A, 0xED, 0xFF,
  0x1C, 0x4E, 0x09, 0xEB, 0xDE, 0x0B, 0x96, 0x08, 0x15, 0xD7,
  0x02, 0x1C, 0x15, 0x07, 0xDA, 0xCF, 0x3C, 0x1A, 0xBD, 0xB7,
  0xFE, 0xB0, 0x13, 0x07, 0x56, 0x1F, 0x0C, 0x2A, 0x0A, 0x18,
  0xF3, 0xFB, 0xF8, 0xC8, 0x11, 0xF3, 0xE7, 0x33, 0xC8, 0xC6,
  0x12, 0x23, 0xDF, 0x03, 0xED, 0x17, 0xFC, 0x04, 0x1E, 0x02,
  0x07, 0x0E, 0x03, 0xC7, 0x31, 0xF0, 0x0C, 0xED, 0xEB, 0xE3,
  0x03, 0x0B, 0x0D, 0xFB, 0x1C, 0xEA, 0x21, 0x0E, 0x1B, 0xDC,
  0x0D, 0x34, 0x15, 0x42, 0xC0, 0x15, 0xEF, 0x2A, 0xE3, 0x27,
  0x49, 0x6F, 0x1C, 0x21, 0x45, 0xE7, 0x09, 0x3E, 0x3E, 0xFE,
  0x02, 0xF0, 0x06, 0x00, 0x01, 0xF7, 0x26, 0x2F, 0x31, 0x26,
  0x00, 0xDB, 0xF4, 0x20, 0xE6, 0xFC, 0xF5, 0x29, 0x07, 0x2D,
  0x0D, 0x17, 0x2F, 0xEC, 0x2C, 0xF0, 0xFD, 0x20, 0x1E, 0xF6,
  0x1B, 0x1F, 0xEB, 0xF2, 0x26, 0x12, 0x02, 0x03, 0x0C, 0x43,
  0x25, 0x0E, 0x14, 0x2C, 0xDD, 0x09, 0xEA, 0xF1, 0xC9, 0xDC,
  0x04, 0x0F, 0x1B, 0xE3, 0xEF, 0xDC, 0xC5, 0xE9, 0xF4, 0x04,
  0xC1, 0xFB, 0x13, 0x0A, 0xF8, 0x1A, 0x00, 0x11, 0xF6, 0xF2,
  0x01, 0xCF, 0x1C, 0x0B, 0x1A, 0xE2, 0xDD, 0xCD, 0x31, 0xCC,
  0xDB, 0xFF, 0xCF, 0x16, 0x0C, 0x37, 0xE0, 0x1B, 0x31, 0x03,
  0x26, 0x0F, 0x69, 0x22, 0xDF, 0xDD, 0xD6, 0xF4, 0xF2, 0xFF,
  0x20, 0x11, 0x09, 0xEF, 0x06, 0x3F, 0x05, 0x20, 0x1C, 0x29,
  0x2D, 0x39, 0xC5, 0x1D, 0xFD, 0x0B, 0x12, 0xBF, 0x1A, 0xE0,
  0xE3, 0x5D, 0x53, 0x21, 0x09, 0x51, 0xFD, 0x28, 0x05, 0x08,
  0xE3, 0xF6, 0xF7, 0x0A, 0x17, 0xF9, 0x0E, 0x17, 0xF6, 0x0F,
  0x21, 0x59, 0xFC, 0x13, 0xEC, 0x1A, 0xCB, 0x1B, 0xED, 0x33,
  0x08, 0xE0, 0x20, 0x3E, 0xEA, 0x02, 0x27, 0x05, 0x14, 0xF3,
  0x2A, 0xFC, 0xDB, 0x02, 0xDD, 0x3A, 0xF2, 0x21, 0x05, 0x28,
  0x4A, 0xFA, 0xC3, 0xE6, 0xF9, 0xFA, 0xED, 0xFF, 0xF3, 0x13,
  0xF8, 0xD7, 0xFD, 0x06, 0x4D, 0x12, 0x06, 0x1F, 0x1F, 0x00,
  0xDD, 0xEB, 0xE8, 0x15, 0xD0, 0x02, 0xED, 0xCA, 0x0B, 0x32,
  0x26, 0xC4, 0xD3, 0xDC, 0x29, 0xF9, 0x1B, 0x2D, 0x09, 0x10,
  0xEB, 0x13, 0x19, 0xE7, 0xE3, 0x1F, 0x0F, 0x02, 0x60, 0x3D,
  0x74, 0x46, 0xFE, 0x3C, 0x66, 0x2A, 0xAE, 0x05, 0x1C, 0x0E,
  0x18, 0x03, 0x23, 0x21, 0x29, 0x4B, 0x29, 0x07, 0xEF, 0x0A,
  0x1B, 0x07, 0xC2, 0xE4, 0xE6, 0xE3, 0xD7, 0x94, 0x3B, 0x27,
  0x42, 0x12, 0x49, 0x20, 0xDE, 0x09, 0xDB, 0x22, 0xE9, 0xE4,
  0x11, 0xD2, 0xEF, 0x26, 0x2D, 0x77, 0x06, 0x49, 0x4B, 0x45,
  0x07, 0x4A, 0xF4, 0x00, 0xCE, 0xF5, 0xE4, 0xDB, 0x10, 0xEF,
  0x1C, 0x4B, 0x21, 0x2E, 0xBD, 0x10, 0x15, 0x0D, 0x2F, 0x1C,
  0xFA, 0xF8, 0x20, 0xF4, 0xD2, 0x29, 0x06, 0x26, 0x3C, 0x15,
  0xFB, 0xEB, 0xD8, 0xDD, 0x1D, 0xF0, 0xC9, 0xF9, 0x17, 0xFF,
  0x0C, 0x38, 0x3C, 0xD8, 0xD9, 0xE4, 0x36, 0xFE, 0xBA, 0x05,
  0xF0, 0x1C, 0xA1, 0x02, 0xFE, 0xED, 0xD7, 0xCF, 0x11, 0x95,
  0x0A, 0xB2, 0x18, 0x0B, 0x49, 0x00, 0x1E, 0xEA, 0xC8, 0xF2,
  0x1D, 0xF1, 0xFD, 0xFC, 0xEF, 0xDE, 0x28, 0x18, 0x67, 0x07,
  0xF3, 0x1D, 0xFE, 0x21, 0xA7, 0xE4, 0xE4, 0xF5, 0xD4, 0xDE,
  0x2D, 0xE9, 0xF5, 0x4C, 0x30, 0x18, 0x33, 0xE2, 0x05, 0x17,
  0xB8, 0xEB, 0x08, 0x1C, 0xD4, 0xE8, 0x17, 0xE0, 0x0E, 0xEE,
  0x4E, 0x62, 0xDB, 0xE4, 0x51, 0x14, 0x9B, 0x17, 0x09, 0x17,
  0xF6, 0x1D, 0x42, 0x1C, 0xEC, 0x68, 0x09, 0x45, 0x2B, 0xF7,
  0x1E, 0x05, 0xC8, 0xEA, 0xF6, 0x20, 0x25, 0xCA, 0x1B, 0x09,
  0x27, 0x4A, 0xD3, 0x24, 0xF8, 0xFC, 0xBB, 0x01, 0xA9, 0x04,
  0x28, 0xF8, 0x10, 0xFA, 0xE6, 0x06, 0x34, 0x17, 0x00, 0x01,
  0xCD, 0xC9, 0xCF, 0xF7, 0xD3, 0xC8, 0xE0, 0xB0, 0xCA, 0xE8,
  0x03, 0xDC, 0x01, 0x03, 0x4B, 0x19, 0xE9, 0xBC, 0x0F, 0x06,
  0x97, 0xF8, 0x0B, 0xE1, 0x1D, 0x2A, 0xE6, 0x99, 0x07, 0xA4,
  0x35, 0x47, 0x23, 0x0A, 0x50, 0x10, 0xCA, 0x00, 0xF0, 0xEC,
  0x02, 0xD5, 0x1D, 0xD1, 0x56, 0x2A, 0x5A, 0x06, 0xFA, 0x0B,
  0x2E, 0x23, 0xD0, 0xE1, 0xF5, 0xF1, 0x13, 0xD3, 0x3C, 0x01,
  0x3D, 0x1B, 0x66, 0xFC, 0x1F, 0x1C, 0xF7, 0xE0, 0x8E, 0xC9,
  0x11, 0xE4, 0xE5, 0x08, 0x06, 0x3E, 0xE7, 0x3D, 0x7C, 0x1E,
  0xF8, 0x2E, 0x1F, 0x1D, 0xBF, 0xF6, 0xFF, 0xF2, 0x10, 0x2F,
  0xF9, 0x28, 0x10, 0x58, 0x09, 0x1C, 0xF1, 0x14, 0x1C, 0xE9,
  0xA0, 0xCD, 0x29, 0x00, 0xE7, 0x18, 0xEC, 0x05, 0x39, 0x2D,
  0x17, 0xF4, 0x2F, 0x08, 0x0A, 0x05, 0xC0, 0x07, 0x21, 0xE9,
  0xD7, 0xD8, 0x2F, 0xB2, 0x35, 0x1A, 0xE2, 0x06, 0xC7, 0xC3,
  0xD2, 0x09, 0xA2, 0xE8, 0xED, 0xD4, 0xCA, 0xED, 0x2F, 0xD3,
  0xB4, 0x37, 0xFE, 0x15, 0xF0, 0xB5, 0xF2, 0xF6, 0xF1, 0x2A,
  0xE1, 0xD6, 0x20, 0x11, 0x01, 0xC1, 0xEC, 0xB1, 0x10, 0x48,
  0x24, 0xE6, 0x06, 0xF3, 0xDB, 0x1D, 0x0D, 0x10, 0xFD, 0x1B,
  0x16, 0xF3, 0x17, 0x0A, 0x2A, 0xF2, 0xE9, 0x1F, 0xEC, 0xFB,
  0x10, 0xDD, 0xFB, 0x21, 0x18, 0x02, 0xFB, 0x24, 0x10, 0x0A,
  0x33, 0xEF, 0x43, 0x07, 0xE7, 0x18, 0xE0, 0x01, 0x1E, 0xFE,
  0xE5, 0xDC, 0x1A, 0xF5, 0xFB, 0x68, 0x3F, 0x0A, 0xDB, 0x9C,
  0xDB, 0xFF, 0xF4, 0xFE, 0x29, 0xCA, 0xFB, 0x24, 0x12, 0xBE,
  0xFD, 0x15, 0x0B, 0xF5, 0xD6, 0xD5, 0x07, 0x34, 0xC4, 0x10,
  0xD5, 0xE1, 0xF6, 0x42, 0xD4, 0xD8, 0xF3, 0x15, 0x00, 0xF6,
  0x1A, 0x19, 0xFF, 0x22, 0x09, 0x11, 0xF7, 0x2F, 0xCB, 0x16,
  0xE7, 0xCE, 0xDC, 0x0D, 0x4E, 0x29, 0xCD, 0xDB, 0xEF, 0x1F,
  0xEB, 0x07, 0xF1, 0x42, 0xE5, 0x42, 0x05, 0xF5, 0x0A, 0x2B,
  0x10, 0xE1, 0x0B, 0xFD, 0x25, 0xFC, 0x66, 0x24, 0xE9, 0x23,
  0x1E, 0x30, 0x05, 0xBA, 0xFA, 0xBB, 0xD4, 0xDE, 0x2F, 0xE3,
  0xB6, 0x25, 0x50, 0x0C, 0xFB, 0x1B, 0xFB, 0x14, 0x00, 0x05,
  0x28, 0xCF, 0x3B, 0x17, 0x0B, 0x19, 0x37, 0xD5, 0x6B, 0xF1,
  0xFA, 0x02, 0xE1, 0x10, 0xF3, 0x1E, 0x2D, 0xF9, 0x34, 0xF3,
  0x3B, 0xD2, 0xC1, 0xEF, 0x42, 0xF8, 0xE7, 0xFD, 0xE4, 0xEE,
  0x13, 0x0F, 0x14, 0xF4, 0xE3, 0xE3, 0x3B, 0xC9, 0x22, 0xEC,
  0x11, 0xFD, 0x1A, 0x0E, 0x02, 0x05, 0xDF, 0x07, 0x0C, 0xF0,
  0xF8, 0xDC, 0x02, 0xCF, 0xF4, 0xD1, 0x00, 0xE3, 0x01, 0xE9,
  0xF4, 0xDE, 0x00, 0xE6, 0xDF, 0xFB, 0xD8, 0x10, 0xFC, 0xD4,
  0x15, 0x1A, 0xFA, 0x15, 0x14, 0xE5, 0xD3, 0x18, 0xEB, 0xCB,
  0xEA, 0xF4, 0x3B, 0xF6, 0x00, 0x30, 0x43, 0x32, 0x02, 0xEB,
  0xF8, 0x02, 0xF8, 0xDC, 0x11, 0xEF, 0x31, 0x3E, 0x1A, 0xFD,
  0xFF, 0xFF, 0x04, 0x00, 0x00, 0x00, 0x08, 0x00, 0x00, 0x00,
  0xBD, 0xFF, 0xFF, 0xFF, 0x43, 0x00, 0x00, 0x00, 0x2E, 0xFD,
  0xFF, 0xFF, 0x04, 0x00, 0x00, 0x00, 0x08, 0x00, 0x00, 0x00,
  0xFF, 0xFF, 0xFF, 0xFF, 0x00, 0x04, 0x00, 0x00, 0x54, 0xEE,
  0xFF, 0xFF, 0x46, 0xFD, 0xFF, 0xFF, 0x04, 0x00, 0x00, 0x00,
  0x04, 0x00, 0x00, 0x00, 0x60, 0x00, 0x00, 0x00, 0x56, 0xFD,
  0xFF, 0xFF, 0x04, 0x00, 0x00, 0x00, 0x04, 0x00, 0x00, 0x00,
  0x01, 0x00, 0x00, 0x00, 0x66, 0xFD, 0xFF, 0xFF, 0x04, 0x00,
  0x00, 0x00, 0x04, 0x00, 0x00, 0x00, 0x00, 0x00, 0x00, 0x00,
  0x88, 0xEE, 0xFF, 0xFF, 0x8C, 0xEE, 0xFF, 0xFF, 0x0F, 0x00,
  0x00, 0x00, 0x4D, 0x4C, 0x49, 0x52, 0x20, 0x43, 0x6F, 0x6E,
  0x76, 0x65, 0x72, 0x74, 0x65, 0x64, 0x2E, 0x00, 0x01, 0x00,
  0x00, 0x00, 0x14, 0x00, 0x00, 0x00, 0x00, 0x00, 0x0E, 0x00,
  0x18, 0x00, 0x14, 0x00, 0x10, 0x00, 0x0C, 0x00, 0x08, 0x00,
  0x04, 0x00, 0x0E, 0x00, 0x00, 0x00, 0x14, 0x00, 0x00, 0x00,
  0x1C, 0x00, 0x00, 0x00, 0x14, 0x03, 0x00, 0x00, 0x18, 0x03,
  0x00, 0x00, 0x1C, 0x03, 0x00, 0x00, 0x04, 0x00, 0x00, 0x00,
  0x6D, 0x61, 0x69, 0x6E, 0x00, 0x00, 0x00, 0x00, 0x0B, 0x00,
  0x00, 0x00, 0xC4, 0x02, 0x00, 0x00, 0x64, 0x02, 0x00, 0x00,
  0x0C, 0x02, 0x00, 0x00, 0xE4, 0x01, 0x00, 0x00, 0x88, 0x01,
  0x00, 0x00, 0x34, 0x01, 0x00, 0x00, 0xDC, 0x00, 0x00, 0x00,
  0x98, 0x00, 0x00, 0x00, 0x70, 0x00, 0x00, 0x00, 0x38, 0x00,
  0x00, 0x00, 0x04, 0x00, 0x00, 0x00, 0xD2, 0xFD, 0xFF, 0xFF,
  0x14, 0x00, 0x00, 0x00, 0x00, 0x00, 0x00, 0x09, 0x14, 0x00,
  0x00, 0x00, 0x18, 0x00, 0x00, 0x00, 0x08, 0x00, 0x00, 0x00,
  0x16, 0xFE, 0xFF, 0xFF, 0x00, 0x00, 0x80, 0x3F, 0x01, 0x00,
  0x00, 0x00, 0x16, 0x00, 0x00, 0x00, 0x01, 0x00, 0x00, 0x00,
  0x15, 0x00, 0x00, 0x00, 0x02, 0xFE, 0xFF, 0xFF, 0x14, 0x00,
  0x00, 0x00, 0x00, 0x00, 0x00, 0x08, 0x10, 0x00, 0x00, 0x00,
  0x14, 0x00, 0x00, 0x00, 0x07, 0x00, 0x00, 0x00, 0x58, 0xEF,
  0xFF, 0xFF, 0x01, 0x00, 0x00, 0x00, 0x15, 0x00, 0x00, 0x00,
  0x03, 0x00, 0x00, 0x00, 0x14, 0x00, 0x00, 0x00, 0x07, 0x00,
  0x00, 0x00, 0x06, 0x00, 0x00, 0x00, 0xAA, 0xFE, 0xFF, 0xFF,
  0x0C, 0x00, 0x00, 0x00, 0x10, 0x00, 0x00, 0x00, 0x03, 0x00,
  0x00, 0x00, 0x01, 0x00, 0x00, 0x00, 0x14, 0x00, 0x00, 0x00,
  0x02, 0x00, 0x00, 0x00, 0x13, 0x00, 0x00, 0x00, 0x05, 0x00,
  0x00, 0x00, 0x5A, 0xFE, 0xFF, 0xFF, 0x14, 0x00, 0x00, 0x00,
  0x00, 0x00, 0x00, 0x05, 0x24, 0x00, 0x00, 0x00, 0x28, 0x00,
  0x00, 0x00, 0x05, 0x00, 0x00, 0x00, 0x6A, 0xFF, 0xFF, 0xFF,
  0x02, 0x00, 0x00, 0x00, 0x02, 0x00, 0x00, 0x00, 0x02, 0x00,
  0x00, 0x00, 0x02, 0x00, 0x00, 0x00, 0x00, 0x00, 0x00, 0x01,
  0x01, 0x00, 0x00, 0x00, 0x13, 0x00, 0x00, 0x00, 0x01, 0x00,
  0x00, 0x00, 0x12, 0x00, 0x00, 0x00, 0x9A, 0xFE, 0xFF, 0xFF,
  0x24, 0x00, 0x00, 0x00, 0x00, 0x00, 0x00, 0x02, 0x30, 0x00,
  0x00, 0x00, 0x34, 0x00, 0x00, 0x00, 0x06, 0x00, 0x00, 0x00,
  0x00, 0x00, 0x0E, 0x00, 0x14, 0x00, 0x00, 0x00, 0x10, 0x00,
  0x0C, 0x00, 0x08, 0x00, 0x07, 0x00, 0x0E, 0x00, 0x00, 0x00,
  0x00, 0x00, 0x00, 0x01, 0x01, 0x00, 0x00, 0x00, 0x03, 0x00,
  0x00, 0x00, 0x03, 0x00, 0x00, 0x00, 0x01, 0x00, 0x00, 0x00,
  0x12, 0x00, 0x00, 0x00, 0x03, 0x00, 0x00, 0x00, 0x11, 0x00,
  0x00, 0x00, 0x09, 0x00, 0x00, 0x00, 0x08, 0x00, 0x00, 0x00,
  0xEE, 0xFE, 0xFF, 0xFF, 0x24, 0x00, 0x00, 0x00, 0x00, 0x00,
  0x00, 0x05, 0x34, 0x00, 0x00, 0x00, 0x38, 0x00, 0x00, 0x00,
  0x05, 0x00, 0x00, 0x00, 0x00, 0x00, 0x0E, 0x00, 0x18, 0x00,
  0x17, 0x00, 0x10, 0x00, 0x0C, 0x00, 0x08, 0x00, 0x04, 0x00,
  0x0E, 0x00, 0x00, 0x00, 0x02, 0x00, 0x00, 0x00, 0x02, 0x00,
  0x00, 0x00, 0x02, 0x00, 0x00, 0x00, 0x02, 0x00, 0x00, 0x00,
  0x00, 0x00, 0x00, 0x01, 0x01, 0x00, 0x00, 0x00, 0x11, 0x00,
  0x00, 0x00, 0x01, 0x00, 0x00, 0x00, 0x10, 0x00, 0x00, 0x00,
  0x3E, 0xFF, 0xFF, 0xFF, 0x20, 0x00, 0x00, 0x00, 0x00, 0x00,
  0x00, 0x01, 0x28, 0x00, 0x00, 0x00, 0x2C, 0x00, 0x00, 0x00,
  0x04, 0x00, 0x00, 0x00, 0x0C, 0x00, 0x10, 0x00, 0x00, 0x00,
  0x0C, 0x00, 0x08, 0x00, 0x07, 0x00, 0x0C, 0x00, 0x00, 0x00,
  0x00, 0x00, 0x00, 0x01, 0x01, 0x00, 0x00, 0x00, 0x01, 0x00,
  0x00, 0x00, 0x01, 0x00, 0x00, 0x00, 0x10, 0x00, 0x00, 0x00,
  0x03, 0x00, 0x00, 0x00, 0x0F, 0x00, 0x00, 0x00, 0x0B, 0x00,
  0x00, 0x00, 0x0A, 0x00, 0x00, 0x00, 0x00, 0x00, 0x0A, 0x00,
  0x10, 0x00, 0x0C, 0x00, 0x08, 0x00, 0x04, 0x00, 0x0A, 0x00,
  0x00, 0x00, 0x0C, 0x00, 0x00, 0x00, 0x10, 0x00, 0x00, 0x00,
  0x03, 0x00, 0x00, 0x00, 0x01, 0x00, 0x00, 0x00, 0x0F, 0x00,
  0x00, 0x00, 0x02, 0x00, 0x00, 0x00, 0x00, 0x00, 0x00, 0x00,
  0x0E, 0x00, 0x00, 0x00, 0xBA, 0xFF, 0xFF, 0xFF, 0x1C, 0x00,
  0x00, 0x00, 0x00, 0x00, 0x00, 0x3B, 0x1C, 0x00, 0x00, 0x00,
  0x20, 0x00, 0x00, 0x00, 0x02, 0x00, 0x00, 0x00, 0x00, 0x00,
  0x06, 0x00, 0x08, 0x00, 0x04, 0x00, 0x06, 0x00, 0x00, 0x00,
  0x04, 0x00, 0x00, 0x00, 0x01, 0x00, 0x00, 0x00, 0x0E, 0x00,
  0x00, 0x00, 0x04, 0x00, 0x00, 0x00, 0x0D, 0x00, 0x00, 0x00,
  0x03, 0x00, 0x00, 0x00, 0x03, 0x00, 0x00, 0x00, 0x04, 0x00,
  0x00, 0x00, 0x00, 0x00, 0x0E, 0x00, 0x1A, 0x00, 0x14, 0x00,
  0x10, 0x00, 0x0C, 0x00, 0x0B, 0x00, 0x04, 0x00, 0x0E, 0x00,
  0x00, 0x00, 0x24, 0x00, 0x00, 0x00, 0x00, 0x00, 0x00, 0x20,
  0x24, 0x00, 0x00, 0x00, 0x28, 0x00, 0x00, 0x00, 0x01, 0x00,
  0x00, 0x00, 0x00, 0x00, 0x0E, 0x00, 0x08, 0x00, 0x00, 0x00,
  0x00, 0x00, 0x00, 0x00, 0x00, 0x00, 0x04, 0x00, 0x0E, 0x00,
  0x00, 0x00, 0x01, 0x00, 0x00, 0x00, 0x01, 0x00, 0x00, 0x00,
  0x0D, 0x00, 0x00, 0x00, 0x04, 0x00, 0x00, 0x00, 0x0C, 0x00,
  0x00, 0x00, 0x01, 0x00, 0x00, 0x00, 0x02, 0x00, 0x00, 0x00,
  0x02, 0x00, 0x00, 0x00, 0x00, 0x00, 0x0E, 0x00, 0x16, 0x00,
  0x00, 0x00, 0x10, 0x00, 0x0C, 0x00, 0x0B, 0x00, 0x04, 0x00,
  0x0E, 0x00, 0x00, 0x00, 0x18, 0x00, 0x00, 0x00, 0x00, 0x00,
  0x00, 0x37, 0x18, 0x00, 0x00, 0x00, 0x1C, 0x00, 0x00, 0x00,
  0x00, 0x00, 0x06, 0x00, 0x08, 0x00, 0x07, 0x00, 0x06, 0x00,
  0x00, 0x00, 0x00, 0x00, 0x00, 0x02, 0x01, 0x00, 0x00, 0x00,
  0x0C, 0x00, 0x00, 0x00, 0x01, 0x00, 0x00, 0x00, 0x00, 0x00,
  0x00, 0x00, 0x01, 0x00, 0x00, 0x00, 0x16, 0x00, 0x00, 0x00,
  0x01, 0x00, 0x00, 0x00, 0x00, 0x00, 0x00, 0x00, 0x17, 0x00,
  0x00, 0x00, 0x64, 0x0E, 0x00, 0x00, 0xF0, 0x0D, 0x00, 0x00,
  0x7C, 0x0D, 0x00, 0x00, 0x2C, 0x0D, 0x00, 0x00, 0xDC, 0x0C,
  0x00, 0x00, 0x90, 0x0C, 0x00, 0x00, 0x1C, 0x0C, 0x00, 0x00,
  0xB0, 0x0B, 0x00, 0x00, 0x7C, 0x0A, 0x00, 0x00, 0x30, 0x09,
  0x00, 0x00, 0x04, 0x08, 0x00, 0x00, 0x58, 0x06, 0x00, 0x00,
  0x0C, 0x06, 0x00, 0x00, 0xBC, 0x05, 0x00, 0x00, 0x68, 0x05,
  0x00, 0x00, 0xD8, 0x04, 0x00, 0x00, 0xCC, 0x03, 0x00, 0x00,
  0x38, 0x03, 0x00, 0x00, 0x24, 0x02, 0x00, 0x00, 0x90, 0x01,
  0x00, 0x00, 0x14, 0x01, 0x00, 0x00, 0x80, 0x00, 0x00, 0x00,
  0x04, 0x00, 0x00, 0x00, 0x0E, 0xF2, 0xFF, 0xFF, 0x00, 0x00,
  0x00, 0x01, 0x18, 0x00, 0x00, 0x00, 0x20, 0x00, 0x00, 0x00,
  0x3C, 0x00, 0x00, 0x00, 0x17, 0x00, 0x00, 0x00, 0x00, 0x00,
  0x00, 0x09, 0x50, 0x00, 0x00, 0x00, 0x02, 0x00, 0x00, 0x00,
  0xFF, 0xFF, 0xFF, 0xFF, 0x02, 0x00, 0x00, 0x00, 0xF4, 0xF1,
  0xFF, 0xFF, 0x08, 0x00, 0x00, 0x00, 0x10, 0x00, 0x00, 0x00,
  0x01, 0x00, 0x00, 0x00, 0x80, 0xFF, 0xFF, 0xFF, 0xFF, 0xFF,
  0xFF, 0xFF, 0x01, 0x00, 0x00, 0x00, 0x00, 0x00, 0x80, 0x3B,
  0x19, 0x00, 0x00, 0x00, 0x53, 0x74, 0x61, 0x74, 0x65, 0x66,
  0x75, 0x6C, 0x50, 0x61, 0x72, 0x74, 0x69, 0x74, 0x69, 0x6F,
  0x6E, 0x65, 0x64, 0x43, 0x61, 0x6C, 0x6C, 0x3A, 0x30, 0x00,
  0x00, 0x00, 0x02, 0x00, 0x00, 0x00, 0x01, 0x00, 0x00, 0x00,
  0x02, 0x00, 0x00, 0x00, 0x86, 0xF2, 0xFF, 0xFF, 0x00, 0x00,
  0x00, 0x01, 0x18, 0x00, 0x00, 0x00, 0x20, 0x00, 0x00, 0x00,
  0x3C, 0x00, 0x00, 0x00, 0x16, 0x00, 0x00, 0x00, 0x00, 0x00,
  0x00, 0x09, 0x68, 0x00, 0x00, 0x00, 0x02, 0x00, 0x00, 0x00,
  0xFF, 0xFF, 0xFF, 0xFF, 0x02, 0x00, 0x00, 0x00, 0x6C, 0xF2,
  0xFF, 0xFF, 0x08, 0x00, 0x00, 0x00, 0x10, 0x00, 0x00, 0x00,
  0x01, 0x00, 0x00, 0x00, 0x0A, 0x00, 0x00, 0x00, 0x00, 0x00,
  0x00, 0x00, 0x01, 0x00, 0x00, 0x00, 0x01, 0x15, 0x09, 0x3D,
  0x30, 0x00, 0x00, 0x00, 0x73, 0x65, 0x71, 0x75, 0x65, 0x6E,
  0x74, 0x69, 0x61, 0x6C, 0x2F, 0x64, 0x65, 0x6E, 0x73, 0x65,
  0x2F, 0x4D, 0x61, 0x74, 0x4D, 0x75, 0x6C, 0x3B, 0x73, 0x65,
  0x71, 0x75, 0x65, 0x6E, 0x74, 0x69, 0x61, 0x6C, 0x2F, 0x64,
  0x65, 0x6E, 0x73, 0x65, 0x2F, 0x42, 0x69, 0x61, 0x73, 0x41,
  0x64, 0x64, 0x00, 0x00, 0x00, 0x00, 0x02, 0x00, 0x00, 0x00,
  0x01, 0x00, 0x00, 0x00, 0x02, 0x00, 0x00, 0x00, 0x16, 0xF3,
  0xFF, 0xFF, 0x00, 0x00, 0x00, 0x01, 0x18, 0x00, 0x00, 0x00,
  0x20, 0x00, 0x00, 0x00, 0x3C, 0x00, 0x00, 0x00, 0x15, 0x00,
  0x00, 0x00, 0x00, 0x00, 0x00, 0x09, 0x50, 0x00, 0x00, 0x00,
  0x02, 0x00, 0x00, 0x00, 0xFF, 0xFF, 0xFF, 0xFF, 0x00, 0x04,
  0x00, 0x00, 0xFC, 0xF2, 0xFF, 0xFF, 0x08, 0x00, 0x00, 0x00,
  0x10, 0x00, 0x00, 0x00, 0x01, 0x00, 0x00, 0x00, 0x80, 0xFF,
  0xFF, 0xFF, 0xFF, 0xFF, 0xFF, 0xFF, 0x01, 0x00, 0x00, 0x00,
  0x7C, 0x4E, 0x18, 0x3C, 0x1A, 0x00, 0x00, 0x00, 0x73, 0x65,
  0x71, 0x75, 0x65, 0x6E, 0x74, 0x69, 0x61, 0x6C, 0x2F, 0x66,
  0x6C, 0x61, 0x74, 0x74, 0x65, 0x6E, 0x2F, 0x52, 0x65, 0x73,
  0x68, 0x61, 0x70, 0x65, 0x00, 0x00, 0x02, 0x00, 0x00, 0x00,
  0x01, 0x00, 0x00, 0x00, 0x00, 0x04, 0x00, 0x00, 0x8E, 0xF3,
  0xFF, 0xFF, 0x00, 0x00, 0x00, 0x01, 0x18, 0x00, 0x00, 0x00,
  0x28, 0x00, 0x00, 0x00, 0x44, 0x00, 0x00, 0x00, 0x14, 0x00,
  0x00, 0x00, 0x00, 0x00, 0x00, 0x09, 0x60, 0x00, 0x00, 0x00,
  0x04, 0x00, 0x00, 0x00, 0xFF, 0xFF, 0xFF, 0xFF, 0x08, 0x00,
  0x00, 0x00, 0x08, 0x00, 0x00, 0x00, 0x10, 0x00, 0x00, 0x00,
  0x7C, 0xF3, 0xFF, 0xFF, 0x08, 0x00, 0x00, 0x00, 0x10, 0x00,
  0x00, 0x00, 0x01, 0x00, 0x00, 0x00, 0x80, 0xFF, 0xFF, 0xFF,
  0xFF, 0xFF, 0xFF, 0xFF, 0x01, 0x00, 0x00, 0x00, 0x7C, 0x4E,
  0x18, 0x3C, 0x22, 0x00, 0x00, 0x00, 0x73, 0x65, 0x71, 0x75,
  0x65, 0x6E, 0x74, 0x69, 0x61, 0x6C, 0x2F, 0x6D, 0x61, 0x78,
  0x5F, 0x70, 0x6F, 0x6F, 0x6C, 0x69, 0x6E, 0x67, 0x32, 0x64,
  0x5F, 0x31, 0x2F, 0x4D, 0x61, 0x78, 0x50, 0x6F, 0x6F, 0x6C,
  0x00, 0x00, 0x04, 0x00, 0x00, 0x00, 0x01, 0x00, 0x00, 0x00,
  0x08, 0x00, 0x00, 0x00, 0x08, 0x00, 0x00, 0x00, 0x10, 0x00,
  0x00, 0x00, 0x1E, 0xF4, 0xFF, 0xFF, 0x00, 0x00, 0x00, 0x01,
  0x18, 0x00, 0x00, 0x00, 0x28, 0x00, 0x00, 0x00, 0x48, 0x00,
  0x00, 0x00, 0x13, 0x00, 0x00, 0x00, 0x00, 0x00, 0x00, 0x09,
  0xE0, 0x00, 0x00, 0x00, 0x04, 0x00, 0x00, 0x00, 0xFF, 0xFF,
  0xFF, 0xFF, 0x10, 0x00, 0x00, 0x00, 0x10, 0x00, 0x00, 0x00,
  0x10, 0x00, 0x00, 0x00, 0x0C, 0xF4, 0xFF, 0xFF, 0x08, 0x00,
  0x00, 0x00, 0x14, 0x00, 0x00, 0x00, 0x01, 0x00, 0x00, 0x00,
  0x80, 0xFF, 0xFF, 0xFF, 0xFF, 0xFF, 0xFF, 0xFF, 0x00, 0x00,
  0x00, 0x00, 0x01, 0x00, 0x00, 0x00, 0x7C, 0x4E, 0x18, 0x3C,
  0x9D, 0x00, 0x00, 0x00, 0x73, 0x65, 0x71, 0x75, 0x65, 0x6E,
  0x74, 0x69, 0x61, 0x6C, 0x2F, 0x64, 0x65, 0x70, 0x74, 0x68,
  0x77, 0x69, 0x73, 0x65, 0x5F, 0x63, 0x6F, 0x6E, 0x76, 0x32,
  0x64, 0x2F, 0x52, 0x65, 0x6C, 0x75, 0x3B, 0x73, 0x65, 0x71,
  0x75, 0x65, 0x6E, 0x74, 0x69, 0x61, 0x6C, 0x2F, 0x64, 0x65,
  0x70, 0x74, 0x68, 0x77, 0x69, 0x73, 0x65, 0x5F, 0x63, 0x6F,
  0x6E, 0x76, 0x32, 0x64, 0x2F, 0x42, 0x69, 0x61, 0x73, 0x41,
  0x64, 0x64, 0x3B, 0x73, 0x65, 0x71, 0x75, 0x65, 0x6E, 0x74,
  0x69, 0x61, 0x6C, 0x2F, 0x64, 0x65, 0x70, 0x74, 0x68, 0x77,
  0x69, 0x73, 0x65, 0x5F, 0x63, 0x6F, 0x6E, 0x76, 0x32, 0x64,
  0x2F, 0x64, 0x65, 0x70, 0x74, 0x68, 0x77, 0x69, 0x73, 0x65,
  0x3B, 0x73, 0x65, 0x71, 0x75, 0x65, 0x6E, 0x74, 0x69, 0x61,
  0x6C, 0x2F, 0x64, 0x65, 0x70, 0x74, 0x68, 0x77, 0x69, 0x73,
  0x65, 0x5F, 0x63, 0x6F, 0x6E, 0x76, 0x32, 0x64, 0x2F, 0x42,
  0x69, 0x61, 0x73, 0x41, 0x64, 0x64, 0x2F, 0x52, 0x65, 0x61,
  0x64, 0x56, 0x61, 0x72, 0x69, 0x61, 0x62, 0x6C, 0x65, 0x4F,
  0x70, 0x00, 0x00, 0x00, 0x04, 0x00, 0x00, 0x00, 0x01, 0x00,
  0x00, 0x00, 0x10, 0x00, 0x00, 0x00, 0x10, 0x00, 0x00, 0x00,
  0x10, 0x00, 0x00, 0x00, 0x2E, 0xF5, 0xFF, 0xFF, 0x00, 0x00,
  0x00, 0x01, 0x18, 0x00, 0x00, 0x00, 0x28, 0x00, 0x00, 0x00,
  0x44, 0x00, 0x00, 0x00, 0x12, 0x00, 0x00, 0x00, 0x00, 0x00,
  0x00, 0x09, 0x60, 0x00, 0x00, 0x00, 0x04, 0x00, 0x00, 0x00,
  0xFF, 0xFF, 0xFF, 0xFF, 0x30, 0x00, 0x00, 0x00, 0x30, 0x00,
  0x00, 0x00, 0x10, 0x00, 0x00, 0x00, 0x1C, 0xF5, 0xFF, 0xFF,
  0x08, 0x00, 0x00, 0x00, 0x10, 0x00, 0x00, 0x00, 0x01, 0x00,
  0x00, 0x00, 0x80, 0xFF, 0xFF, 0xFF, 0xFF, 0xFF, 0xFF, 0xFF,
  0x01, 0x00, 0x00, 0x00, 0x53, 0xB7, 0xA7, 0x3B, 0x20, 0x00,
  0x00, 0x00, 0x73, 0x65, 0x71, 0x75, 0x65, 0x6E, 0x74, 0x69,
  0x61, 0x6C, 0x2F, 0x6D, 0x61, 0x78, 0x5F, 0x70, 0x6F, 0x6F,
  0x6C, 0x69, 0x6E, 0x67, 0x32, 0x64, 0x2F, 0x4D, 0x61, 0x78,
  0x50, 0x6F, 0x6F, 0x6C, 0x00, 0x00, 0x00, 0x00, 0x04, 0x00,
  0x00, 0x00, 0x01, 0x00, 0x00, 0x00, 0x30, 0x00, 0x00, 0x00,
  0x30, 0x00, 0x00, 0x00, 0x10, 0x00, 0x00, 0x00, 0xBE, 0xF5,
  0xFF, 0xFF, 0x00, 0x00, 0x00, 0x01, 0x18, 0x00, 0x00, 0x00,
  0x28, 0x00, 0x00, 0x00, 0x44, 0x00, 0x00, 0x00, 0x11, 0x00,
  0x00, 0x00, 0x00, 0x00, 0x00, 0x09, 0xD8, 0x00, 0x00, 0x00,
  0x04, 0x00, 0x00, 0x00, 0xFF, 0xFF, 0xFF, 0xFF, 0x60, 0x00,
  0x00, 0x00, 0x60, 0x00, 0x00, 0x00, 0x10, 0x00, 0x00, 0x00,
  0xAC, 0xF5, 0xFF, 0xFF, 0x08, 0x00, 0x00, 0x00, 0x10, 0x00,
  0x00, 0x00, 0x01, 0x00, 0x00, 0x00, 0x80, 0xFF, 0xFF, 0xFF,
  0xFF, 0xFF, 0xFF, 0xFF, 0x01, 0x00, 0x00, 0x00, 0x53, 0xB7,
  0xA7, 0x3B, 0x99, 0x00, 0x00, 0x00, 0x73, 0x65, 0x71, 0x75,
  0x65, 0x6E, 0x74, 0x69, 0x61, 0x6C, 0x2F, 0x63, 0x6F, 0x6E,
  0x76, 0x32, 0x64, 0x2F, 0x52, 0x65, 0x6C, 0x75, 0x3B, 0x73,
  0x65, 0x71, 0x75, 0x65, 0x6E, 0x74, 0x69, 0x61, 0x6C, 0x2F,
  0x63, 0x6F, 0x6E, 0x76, 0x32, 0x64, 0x2F, 0x42, 0x69, 0x61,
  0x73, 0x41, 0x64, 0x64, 0x3B, 0x73, 0x65, 0x71, 0x75, 0x65,
  0x6E, 0x74, 0x69, 0x61, 0x6C, 0x2F, 0x64, 0x65, 0x70, 0x74,
  0x68, 0x77, 0x69, 0x73, 0x65, 0x5F, 0x63, 0x6F, 0x6E, 0x76,
  0x32, 0x64, 0x2F, 0x64, 0x65, 0x70, 0x74, 0x68, 0x77, 0x69,
  0x73, 0x65, 0x3B, 0x73, 0x65, 0x71, 0x75, 0x65, 0x6E, 0x74,
  0x69, 0x61, 0x6C, 0x2F, 0x63, 0x6F, 0x6E, 0x76, 0x32, 0x64,
  0x2F, 0x43, 0x6F, 0x6E, 0x76, 0x32, 0x44, 0x3B, 0x73, 0x65,
  0x71, 0x75, 0x65, 0x6E, 0x74, 0x69, 0x61, 0x6C, 0x2F, 0x63,
  0x6F, 0x6E, 0x76, 0x32, 0x64, 0x2F, 0x42, 0x69, 0x61, 0x73,
  0x41, 0x64, 0x64, 0x2F, 0x52, 0x65, 0x61, 0x64, 0x56, 0x61,
  0x72, 0x69, 0x61, 0x62, 0x6C, 0x65, 0x4F, 0x70, 0x31, 0x00,
  0x00, 0x00, 0x04, 0x00, 0x00, 0x00, 0x01, 0x00, 0x00, 0x00,
  0x60, 0x00, 0x00, 0x00, 0x60, 0x00, 0x00, 0x00, 0x10, 0x00,
  0x00, 0x00, 0xC6, 0xF6, 0xFF, 0xFF, 0x00, 0x00, 0x00, 0x01,
  0x18, 0x00, 0x00, 0x00, 0x28, 0x00, 0x00, 0x00, 0x48, 0x00,
  0x00, 0x00, 0x10, 0x00, 0x00, 0x00, 0x00, 0x00, 0x00, 0x09,
  0x5C, 0x00, 0x00, 0x00, 0x04, 0x00, 0x00, 0x00, 0xFF, 0xFF,
  0xFF, 0xFF, 0x60, 0x00, 0x00, 0x00, 0x60, 0x00, 0x00, 0x00,
  0x01, 0x00, 0x00, 0x00, 0xB4, 0xF6, 0xFF, 0xFF, 0x08, 0x00,
  0x00, 0x00, 0x14, 0x00, 0x00, 0x00, 0x01, 0x00, 0x00, 0x00,
  0x80, 0xFF, 0xFF, 0xFF, 0xFF, 0xFF, 0xFF, 0xFF, 0x00, 0x00,
  0x00, 0x00, 0x01, 0x00, 0x00, 0x00, 0x00, 0x00, 0x80, 0x3F,
  0x1A, 0x00, 0x00, 0x00, 0x73, 0x65, 0x71, 0x75, 0x65, 0x6E,
  0x74, 0x69, 0x61, 0x6C, 0x2F, 0x72, 0x65, 0x73, 0x68, 0x61,
  0x70, 0x65, 0x2F, 0x52, 0x65, 0x73, 0x68, 0x61, 0x70, 0x65,
  0x00, 0x00, 0x04, 0x00, 0x00, 0x00, 0x01, 0x00, 0x00, 0x00,
  0x60, 0x00, 0x00, 0x00, 0x60, 0x00, 0x00, 0x00, 0x01, 0x00,
  0x00, 0x00, 0xC2, 0xF7, 0xFF, 0xFF, 0x00, 0x00, 0x00, 0x01,
  0x14, 0x00, 0x00, 0x00, 0x14, 0x00, 0x00, 0x00, 0x0F, 0x00,
  0x00, 0x00, 0x00, 0x00, 0x00, 0x02, 0x30, 0x00, 0x00, 0x00,
  0xAC, 0xF7, 0xFF, 0xFF, 0x20, 0x00, 0x00, 0x00, 0x73, 0x65,
  0x71, 0x75, 0x65, 0x6E, 0x74, 0x69, 0x61, 0x6C, 0x2F, 0x72,
  0x65, 0x73, 0x68, 0x61, 0x70, 0x65, 0x2F, 0x52, 0x65, 0x73,
  0x68, 0x61, 0x70, 0x65, 0x2F, 0x73, 0x68, 0x61, 0x70, 0x65,
  0x00, 0x00, 0x00, 0x00, 0x01, 0x00, 0x00, 0x00, 0x04, 0x00,
  0x00, 0x00, 0x12, 0xF8, 0xFF, 0xFF, 0x00, 0x00, 0x00, 0x01,
  0x14, 0x00, 0x00, 0x00, 0x14, 0x00, 0x00, 0x00, 0x0E, 0x00,
  0x00, 0x00, 0x00, 0x00, 0x00, 0x02, 0x30, 0x00, 0x00, 0x00,
  0xFC, 0xF7, 0xFF, 0xFF, 0x20, 0x00, 0x00, 0x00, 0x73, 0x65,
  0x71, 0x75, 0x65, 0x6E, 0x74, 0x69, 0x61, 0x6C, 0x2F, 0x72,
  0x65, 0x73, 0x68, 0x61, 0x70, 0x65, 0x2F, 0x73, 0x74, 0x72,
  0x69, 0x64, 0x65, 0x64, 0x5F, 0x73, 0x6C, 0x69, 0x63, 0x65,
  0x00, 0x00, 0x00, 0x00, 0x00, 0x00, 0x00, 0x00, 0x5E, 0xF8,
  0xFF, 0xFF, 0x00, 0x00, 0x00, 0x01, 0x14, 0x00, 0x00, 0x00,
  0x14, 0x00, 0x00, 0x00, 0x0D, 0x00, 0x00, 0x00, 0x00, 0x00,
  0x00, 0x02, 0x28, 0x00, 0x00, 0x00, 0x48, 0xF8, 0xFF, 0xFF,
  0x18, 0x00, 0x00, 0x00, 0x73, 0x65, 0x71, 0x75, 0x65, 0x6E,
  0x74, 0x69, 0x61, 0x6C, 0x2F, 0x72, 0x65, 0x73, 0x68, 0x61,
  0x70, 0x65, 0x2F, 0x53, 0x68, 0x61, 0x70, 0x65, 0x00, 0x00,
  0x00, 0x00, 0x01, 0x00, 0x00, 0x00, 0x03, 0x00, 0x00, 0x00,
  0xA6, 0xF8, 0xFF, 0xFF, 0x00, 0x00, 0x00, 0x01, 0x14, 0x00,
  0x00, 0x00, 0xE8, 0x00, 0x00, 0x00, 0x0C, 0x00, 0x00, 0x00,
  0x00, 0x00, 0x00, 0x09, 0x7C, 0x01, 0x00, 0x00, 0x0C, 0xF8,
  0xFF, 0xFF, 0x08, 0x00, 0x00, 0x00, 0x8C, 0x00, 0x00, 0x00,
  0x10, 0x00, 0x00, 0x00, 0x00, 0x00, 0x00, 0x00, 0x00, 0x00,
  0x00, 0x00, 0x00, 0x00, 0x00, 0x00, 0x00, 0x00, 0x00, 0x00,
  0x00, 0x00, 0x00, 0x00, 0x00, 0x00, 0x00, 0x00, 0x00, 0x00,
  0x00, 0x00, 0x00, 0x00, 0x00, 0x00, 0x00, 0x00, 0x00, 0x00,
  0x00, 0x00, 0x00, 0x00, 0x00, 0x00, 0x00, 0x00, 0x00, 0x00,
  0x00, 0x00, 0x00, 0x00, 0x00, 0x00, 0x00, 0x00, 0x00, 0x00,
  0x00, 0x00, 0x00, 0x00, 0x00, 0x00, 0x00, 0x00, 0x00, 0x00,
  0x00, 0x00, 0x00, 0x00, 0x00, 0x00, 0x00, 0x00, 0x00, 0x00,
  0x00, 0x00, 0x00, 0x00, 0x00, 0x00, 0x00, 0x00, 0x00, 0x00,
  0x00, 0x00, 0x00, 0x00, 0x00, 0x00, 0x00, 0x00, 0x00, 0x00,
  0x00, 0x00, 0x00, 0x00, 0x00, 0x00, 0x00, 0x00, 0x00, 0x00,
  0x00, 0x00, 0x00, 0x00, 0x00, 0x00, 0x00, 0x00, 0x00, 0x00,
  0x00, 0x00, 0x00, 0x00, 0x00, 0x00, 0x00, 0x00, 0x00, 0x00,
  0x00, 0x00, 0x00, 0x00, 0x00, 0x00, 0x10, 0x00, 0x00, 0x00,
  0x60, 0x34, 0x2E, 0x37, 0x14, 0xC4, 0xED, 0x36, 0x3A, 0x03,
  0x20, 0x37, 0x54, 0x12, 0x12, 0x37, 0x19, 0xE4, 0x82, 0x37,
  0x6F, 0x15, 0xD6, 0x36, 0x47, 0xE5, 0xD3, 0x36, 0x94, 0x67,
  0xE0, 0x36, 0x4D, 0x4B, 0xE8, 0x36, 0x5A, 0x7A, 0x2B, 0x37,
  0x6E, 0x4A, 0xFC, 0x36, 0xFB, 0x90, 0x13, 0x37, 0x3D, 0x21,
  0xB5, 0x36, 0x9A, 0x33, 0xF3, 0x36, 0xB1, 0x01, 0xED, 0x36,
  0xA7, 0xA1, 0x06, 0x37, 0x98, 0x00, 0x00, 0x00, 0x73, 0x65,
  0x71, 0x75, 0x65, 0x6E, 0x74, 0x69, 0x61, 0x6C, 0x2F, 0x63,
  0x6F, 0x6E, 0x76, 0x32, 0x64, 0x2F, 0x52, 0x65, 0x6C, 0x75,
  0x3B, 0x73, 0x65, 0x71, 0x75, 0x65, 0x6E, 0x74, 0x69, 0x61,
  0x6C, 0x2F, 0x63, 0x6F, 0x6E, 0x76, 0x32, 0x64, 0x2F, 0x42,
  0x69, 0x61, 0x73, 0x41, 0x64, 0x64, 0x3B, 0x73, 0x65, 0x71,
  0x75, 0x65, 0x6E, 0x74, 0x69, 0x61, 0x6C, 0x2F, 0x64, 0x65,
  0x70, 0x74, 0x68, 0x77, 0x69, 0x73, 0x65, 0x5F, 0x63, 0x6F,
  0x6E, 0x76, 0x32, 0x64, 0x2F, 0x64, 0x65, 0x70, 0x74, 0x68,
  0x77, 0x69, 0x73, 0x65, 0x3B, 0x73, 0x65, 0x71, 0x75, 0x65,
  0x6E, 0x74, 0x69, 0x61, 0x6C, 0x2F, 0x63, 0x6F, 0x6E, 0x76,
  0x32, 0x64, 0x2F, 0x43, 0x6F, 0x6E, 0x76, 0x32, 0x44, 0x3B,
  0x73, 0x65, 0x71, 0x75, 0x65, 0x6E, 0x74, 0x69, 0x61, 0x6C,
  0x2F, 0x63, 0x6F, 0x6E, 0x76, 0x32, 0x64, 0x2F, 0x42, 0x69,
  0x61, 0x73, 0x41, 0x64, 0x64, 0x2F, 0x52, 0x65, 0x61, 0x64,
  0x56, 0x61, 0x72, 0x69, 0x61, 0x62, 0x6C, 0x65, 0x4F, 0x70,
  0x00, 0x00, 0x00, 0x00, 0x04, 0x00, 0x00, 0x00, 0x10, 0x00,
  0x00, 0x00, 0x03, 0x00, 0x00, 0x00, 0x03, 0x00, 0x00, 0x00,
  0x01, 0x00, 0x00, 0x00, 0x4E, 0xFA, 0xFF, 0xFF, 0x00, 0x00,
  0x00, 0x01, 0x14, 0x00, 0x00, 0x00, 0xE4, 0x00, 0x00, 0x00,
  0x0B, 0x00, 0x00, 0x00, 0x00, 0x00, 0x00, 0x02, 0x08, 0x01,
  0x00, 0x00, 0xB4, 0xF9, 0xFF, 0xFF, 0x08, 0x00, 0x00, 0x00,
  0x88, 0x00, 0x00, 0x00, 0x10, 0x00, 0x00, 0x00, 0x00, 0x00,
  0x00, 0x00, 0x00, 0x00, 0x00, 0x00, 0x00, 0x00, 0x00, 0x00,
  0x00, 0x00, 0x00, 0x00, 0x00, 0x00, 0x00, 0x00, 0x00, 0x00,
  0x00, 0x00, 0x00, 0x00, 0x00, 0x00, 0x00, 0x00, 0x00, 0x00,
  0x00, 0x00, 0x00, 0x00, 0x00, 0x00, 0x00, 0x00, 0x00, 0x00,
  0x00, 0x00, 0x00, 0x00, 0x00, 0x00, 0x00, 0x00, 0x00, 0x00,
  0x00, 0x00, 0x00, 0x00, 0x00, 0x00, 0x00, 0x00, 0x00, 0x00,
  0x00, 0x00, 0x00, 0x00, 0x00, 0x00, 0x00, 0x00, 0x00, 0x00,
  0x00, 0x00, 0x00, 0x00, 0x00, 0x00, 0x00, 0x00, 0x00, 0x00,
  0x00, 0x00, 0x00, 0x00, 0x00, 0x00, 0x00, 0x00, 0x00, 0x00,
  0x00, 0x00, 0x00, 0x00, 0x00, 0x00, 0x00, 0x00, 0x00, 0x00,
  0x00, 0x00, 0x00, 0x00, 0x00, 0x00, 0x00, 0x00, 0x00, 0x00,
  0x00, 0x00, 0x00, 0x00, 0x00, 0x00, 0x00, 0x00, 0x00, 0x00,
  0x00, 0x00, 0x00, 0x00, 0x00, 0x00, 0x10, 0x00, 0x00, 0x00,
  0x60, 0x34, 0x2E, 0x37, 0x14, 0xC4, 0xED, 0x36, 0x3A, 0x03,
  0x20, 0x37, 0x54, 0x12, 0x12, 0x37, 0x19, 0xE4, 0x82, 0x37,
  0x6F, 0x15, 0xD6, 0x36, 0x47, 0xE5, 0xD3, 0x36, 0x94, 0x67,
  0xE0, 0x36, 0x4D, 0x4B, 0xE8, 0x36, 0x5A, 0x7A, 0x2B, 0x37,
  0x6E, 0x4A, 0xFC, 0x36, 0xFB, 0x90, 0x13, 0x37, 0x3D, 0x21,
  0xB5, 0x36, 0x9A, 0x33, 0xF3, 0x36, 0xB1, 0x01, 0xED, 0x36,
  0xA7, 0xA1, 0x06, 0x37, 0x28, 0x00, 0x00, 0x00, 0x73, 0x65,
  0x71, 0x75, 0x65, 0x6E, 0x74, 0x69, 0x61, 0x6C, 0x2F, 0x63,
  0x6F, 0x6E, 0x76, 0x32, 0x64, 0x2F, 0x42, 0x69, 0x61, 0x73,
  0x41, 0x64, 0x64, 0x2F, 0x52, 0x65, 0x61, 0x64, 0x56, 0x61,
  0x72, 0x69, 0x61, 0x62, 0x6C, 0x65, 0x4F, 0x70, 0x00, 0x00,
  0x00, 0x00, 0x01, 0x00, 0x00, 0x00, 0x10, 0x00, 0x00, 0x00,
  0x76, 0xFB, 0xFF, 0xFF, 0x00, 0x00, 0x00, 0x01, 0x28, 0x00,
  0x00, 0x00, 0xFC, 0x00, 0x00, 0x00, 0x0A, 0x00, 0x00, 0x00,
  0x00, 0x00, 0x00, 0x09, 0x1C, 0x01, 0x00, 0x00, 0x00, 0x00,
  0x12, 0x00, 0x10, 0x00, 0x00, 0x00, 0x00, 0x00, 0x0C, 0x00,
  0x08, 0x00, 0x00, 0x00, 0x00, 0x00, 0x04, 0x00, 0x12, 0x00,
  0x00, 0x00, 0x03, 0x00, 0x00, 0x00, 0x08, 0x00, 0x00, 0x00,
  0x88, 0x00, 0x00, 0x00, 0x10, 0x00, 0x00, 0x00, 0x00, 0x00,
  0x00, 0x00, 0x00, 0x00, 0x00, 0x00, 0x00, 0x00, 0x00, 0x00,
  0x00, 0x00, 0x00, 0x00, 0x00, 0x00, 0x00, 0x00, 0x00, 0x00,
  0x00, 0x00, 0x00, 0x00, 0x00, 0x00, 0x00, 0x00, 0x00, 0x00,
  0x00, 0x00, 0x00, 0x00, 0x00, 0x00, 0x00, 0x00, 0x00, 0x00,
  0x00, 0x00, 0x00, 0x00, 0x00, 0x00, 0x00, 0x00, 0x00, 0x00,
  0x00, 0x00, 0x00, 0x00, 0x00, 0x00, 0x00, 0x00, 0x00, 0x00,
  0x00, 0x00, 0x00, 0x00, 0x00, 0x00, 0x00, 0x00, 0x00, 0x00,
  0x00, 0x00, 0x00, 0x00, 0x00, 0x00, 0x00, 0x00, 0x00, 0x00,
  0x00, 0x00, 0x00, 0x00, 0x00, 0x00, 0x00, 0x00, 0x00, 0x00,
  0x00, 0x00, 0x00, 0x00, 0x00, 0x00, 0x00, 0x00, 0x00, 0x00,
  0x00, 0x00, 0x00, 0x00, 0x00, 0x00, 0x00, 0x00, 0x00, 0x00,
  0x00, 0x00, 0x00, 0x00, 0x00, 0x00, 0x00, 0x00, 0x00, 0x00,
  0x00, 0x00, 0x00, 0x00, 0x00, 0x00, 0x10, 0x00, 0x00, 0x00,
  0x24, 0x80, 0x2F, 0x3B, 0xA5, 0xD7, 0x09, 0x3B, 0x48, 0x01,
  0x14, 0x3B, 0xAC, 0x1A, 0x4A, 0x3B, 0x8C, 0xDA, 0xF1, 0x3A,
  0x62, 0x36, 0x77, 0x3A, 0x23, 0xF5, 0x1E, 0x3B, 0x10, 0x15,
  0x88, 0x3A, 0x95, 0xE0, 0xBC, 0x3A, 0xED, 0xD1, 0xA3, 0x3A,
  0x5C, 0x7F, 0xCC, 0x3A, 0x77, 0x8C, 0x2D, 0x3B, 0x3F, 0x08,
  0x08, 0x3B, 0x5D, 0x77, 0x51, 0x3B, 0x00, 0x78, 0xFB, 0x3A,
  0xBE, 0xA8, 0x52, 0x3B, 0x25, 0x00, 0x00, 0x00, 0x73, 0x65,
  0x71, 0x75, 0x65, 0x6E, 0x74, 0x69, 0x61, 0x6C, 0x2F, 0x64,
  0x65, 0x70, 0x74, 0x68, 0x77, 0x69, 0x73, 0x65, 0x5F, 0x63,
  0x6F, 0x6E, 0x76, 0x32, 0x64, 0x2F, 0x64, 0x65, 0x70, 0x74,
  0x68, 0x77, 0x69, 0x73, 0x65, 0x00, 0x00, 0x00, 0x04, 0x00,
  0x00, 0x00, 0x01, 0x00, 0x00, 0x00, 0x08, 0x00, 0x00, 0x00,
  0x08, 0x00, 0x00, 0x00, 0x10, 0x00, 0x00, 0x00, 0xBE, 0xFC,
  0xFF, 0xFF, 0x00, 0x00, 0x00, 0x01, 0x14, 0x00, 0x00, 0x00,
  0xE4, 0x00, 0x00, 0x00, 0x09, 0x00, 0x00, 0x00, 0x00, 0x00,
  0x00, 0x02, 0x10, 0x01, 0x00, 0x00, 0x24, 0xFC, 0xFF, 0xFF,
  0x08, 0x00, 0x00, 0x00, 0x88, 0x00, 0x00, 0x00, 0x10, 0x00,
  0x00, 0x00, 0x00, 0x00, 0x00, 0x00, 0x00, 0x00, 0x00, 0x00,
  0x00, 0x00, 0x00, 0x00, 0x00, 0x00, 0x00, 0x00, 0x00, 0x00,
  0x00, 0x00, 0x00, 0x00, 0x00, 0x00, 0x00, 0x00, 0x00, 0x00,
  0x00, 0x00, 0x00, 0x00, 0x00, 0x00, 0x00, 0x00, 0x00, 0x00,
  0x00, 0x00, 0x00, 0x00, 0x00, 0x00, 0x00, 0x00, 0x00, 0x00,
  0x00, 0x00, 0x00, 0x00, 0x00, 0x00, 0x00, 0x00, 0x00, 0x00,
  0x00, 0x00, 0x00, 0x00, 0x00, 0x00, 0x00, 0x00, 0x00, 0x00,
  0x00, 0x00, 0x00, 0x00, 0x00, 0x00, 0x00, 0x00, 0x00, 0x00,
  0x00, 0x00, 0x00, 0x00, 0x00, 0x00, 0x00, 0x00, 0x00, 0x00,
  0x00, 0x00, 0x00, 0x00, 0x00, 0x00, 0x00, 0x00, 0x00, 0x00,
  0x00, 0x00, 0x00, 0x00, 0x00, 0x00, 0x00, 0x00, 0x00, 0x00,
  0x00, 0x00, 0x00, 0x00, 0x00, 0x00, 0x00, 0x00, 0x00, 0x00,
  0x00, 0x00, 0x00, 0x00, 0x00, 0x00, 0x00, 0x00, 0x00, 0x00,
  0x10, 0x00, 0x00, 0x00, 0x8A, 0xF4, 0x65, 0x37, 0xC5, 0x9C,
  0x34, 0x37, 0xA6, 0xED, 0x41, 0x37, 0x21, 0x68, 0x84, 0x37,
  0xC3, 0x72, 0x1E, 0x37, 0x82, 0xF5, 0xA1, 0x36, 0x7D, 0x47,
  0x50, 0x37, 0x61, 0x4E, 0xB2, 0x36, 0x86, 0x7B, 0xF7, 0x36,
  0x84, 0xA6, 0xD6, 0x36, 0x86, 0xF9, 0x05, 0x37, 0xD3, 0x65,
  0x63, 0x37, 0x96, 0x3D, 0x32, 0x37, 0xDE, 0x3A, 0x89, 0x37,
  0x5C, 0xBF, 0x24, 0x37, 0xEF, 0x02, 0x8A, 0x37, 0x32, 0x00,
  0x00, 0x00, 0x73, 0x65, 0x71, 0x75, 0x65, 0x6E, 0x74, 0x69,
  0x61, 0x6C, 0x2F, 0x64, 0x65, 0x70, 0x74, 0x68, 0x77, 0x69,
  0x73, 0x65, 0x5F, 0x63, 0x6F, 0x6E, 0x76, 0x32, 0x64, 0x2F,
  0x42, 0x69, 0x61, 0x73, 0x41, 0x64, 0x64, 0x2F, 0x52, 0x65,
  0x61, 0x64, 0x56, 0x61, 0x72, 0x69, 0x61, 0x62, 0x6C, 0x65,
  0x4F, 0x70, 0x00, 0x00, 0x01, 0x00, 0x00, 0x00, 0x10, 0x00,
  0x00, 0x00, 0xEE, 0xFD, 0xFF, 0xFF, 0x00, 0x00, 0x00, 0x01,
  0x14, 0x00, 0x00, 0x00, 0x34, 0x00, 0x00, 0x00, 0x08, 0x00,
  0x00, 0x00, 0x00, 0x00, 0x00, 0x09, 0x44, 0x00, 0x00, 0x00,
  0x54, 0xFD, 0xFF, 0xFF, 0x08, 0x00, 0x00, 0x00, 0x14, 0x00,
  0x00, 0x00, 0x01, 0x00, 0x00, 0x00, 0x00, 0x00, 0x00, 0x00,
  0x00, 0x00, 0x00, 0x00, 0x00, 0x00, 0x00, 0x00, 0x01, 0x00,
  0x00, 0x00, 0xA9, 0xAB, 0x22, 0x3B, 0x17, 0x00, 0x00, 0x00,
  0x73, 0x65, 0x71, 0x75, 0x65, 0x6E, 0x74, 0x69, 0x61, 0x6C,
  0x2F, 0x64, 0x65, 0x6E, 0x73, 0x65, 0x2F, 0x4D, 0x61, 0x74,
  0x4D, 0x75, 0x6C, 0x00, 0x02, 0x00, 0x00, 0x00, 0x02, 0x00,
  0x00, 0x00, 0x00, 0x04, 0x00, 0x00, 0x56, 0xFE, 0xFF, 0xFF,
  0x00, 0x00, 0x00, 0x01, 0x14, 0x00, 0x00, 0x00, 0x30, 0x00,
  0x00, 0x00, 0x07, 0x00, 0x00, 0x00, 0x00, 0x00, 0x00, 0x02,
  0x50, 0x00, 0x00, 0x00, 0xBC, 0xFD, 0xFF, 0xFF, 0x08, 0x00,
  0x00, 0x00, 0x10, 0x00, 0x00, 0x00, 0x01, 0x00, 0x00, 0x00,
  0x00, 0x00, 0x00, 0x00, 0x00, 0x00, 0x00, 0x00, 0x01, 0x00,
  0x00, 0x00, 0x97, 0x8F, 0xC1, 0x37, 0x27, 0x00, 0x00, 0x00,
  0x73, 0x65, 0x71, 0x75, 0x65, 0x6E, 0x74, 0x69, 0x61, 0x6C,
  0x2F, 0x64, 0x65, 0x6E, 0x73, 0x65, 0x2F, 0x42, 0x69, 0x61,
  0x73, 0x41, 0x64, 0x64, 0x2F, 0x52, 0x65, 0x61, 0x64, 0x56,
  0x61, 0x72, 0x69, 0x61, 0x62, 0x6C, 0x65, 0x4F, 0x70, 0x00,
  0x01, 0x00, 0x00, 0x00, 0x02, 0x00, 0x00, 0x00, 0xC6, 0xFE,
  0xFF, 0xFF, 0x00, 0x00, 0x00, 0x01, 0x14, 0x00, 0x00, 0x00,
  0x14, 0x00, 0x00, 0x00, 0x06, 0x00, 0x00, 0x00, 0x00, 0x00,
  0x00, 0x02, 0x28, 0x00, 0x00, 0x00, 0xB0, 0xFE, 0xFF, 0xFF,
  0x18, 0x00, 0x00, 0x00, 0x73, 0x65, 0x71, 0x75, 0x65, 0x6E,
  0x74, 0x69, 0x61, 0x6C, 0x2F, 0x66, 0x6C, 0x61, 0x74, 0x74,
  0x65, 0x6E, 0x2F, 0x43, 0x6F, 0x6E, 0x73, 0x74, 0x00, 0x00,
  0x00, 0x00, 0x01, 0x00, 0x00, 0x00, 0x02, 0x00, 0x00, 0x00,
  0x0E, 0xFF, 0xFF, 0xFF, 0x00, 0x00, 0x00, 0x01, 0x14, 0x00,
  0x00, 0x00, 0x14, 0x00, 0x00, 0x00, 0x03, 0x00, 0x00, 0x00,
  0x00, 0x00, 0x00, 0x02, 0x30, 0x00, 0x00, 0x00, 0xF8, 0xFE,
  0xFF, 0xFF, 0x22, 0x00, 0x00, 0x00, 0x73, 0x65, 0x71, 0x75,
  0x65, 0x6E, 0x74, 0x69, 0x61, 0x6C, 0x2F, 0x72, 0x65, 0x73,
  0x68, 0x61, 0x70, 0x65, 0x2F, 0x52, 0x65, 0x73, 0x68, 0x61,
  0x70, 0x65, 0x2F, 0x73, 0x68, 0x61, 0x70, 0x65, 0x2F, 0x33,
  0x00, 0x00, 0x00, 0x00, 0x00, 0x00, 0x5A, 0xFF, 0xFF, 0xFF,
  0x00, 0x00, 0x00, 0x01, 0x14, 0x00, 0x00, 0x00, 0x14, 0x00,
  0x00, 0x00, 0x04, 0x00, 0x00, 0x00, 0x00, 0x00, 0x00, 0x02,
  0x30, 0x00, 0x00, 0x00, 0x44, 0xFF, 0xFF, 0xFF, 0x22, 0x00,
  0x00, 0x00, 0x73, 0x65, 0x71, 0x75, 0x65, 0x6E, 0x74, 0x69,
  0x61, 0x6C, 0x2F, 0x72, 0x65, 0x73, 0x68, 0x61, 0x70, 0x65,
  0x2F, 0x52, 0x65, 0x73, 0x68, 0x61, 0x70, 0x65, 0x2F, 0x73,
  0x68, 0x61, 0x70, 0x65, 0x2F, 0x31, 0x00, 0x00, 0x00, 0x00,
  0x00, 0x00, 0xA6, 0xFF, 0xFF, 0xFF, 0x00, 0x00, 0x00, 0x01,
  0x14, 0x00, 0x00, 0x00, 0x14, 0x00, 0x00, 0x00, 0x03, 0x00,
  0x00, 0x00, 0x00, 0x00, 0x00, 0x02, 0x38, 0x00, 0x00, 0x00,
  0x90, 0xFF, 0xFF, 0xFF, 0x28, 0x00, 0x00, 0x00, 0x73, 0x65,
  0x71, 0x75, 0x65, 0x6E, 0x74, 0x69, 0x61, 0x6C, 0x2F, 0x72,
  0x65, 0x73, 0x68, 0x61, 0x70, 0x65, 0x2F, 0x73, 0x74, 0x72,
  0x69, 0x64, 0x65, 0x64, 0x5F, 0x73, 0x6C, 0x69, 0x63, 0x65,
  0x2F, 0x73, 0x74, 0x61, 0x63, 0x6B, 0x5F, 0x31, 0x00, 0x00,
  0x00, 0x00, 0x01, 0x00, 0x00, 0x00, 0x01, 0x00, 0x00, 0x00,
  0x00, 0x00, 0x16, 0x00, 0x1C, 0x00, 0x18, 0x00, 0x17, 0x00,
  0x10, 0x00, 0x0C, 0x00, 0x08, 0x00, 0x00, 0x00, 0x00, 0x00,
  0x00, 0x00, 0x07, 0x00, 0x16, 0x00, 0x00, 0x00, 0x00, 0x00,
  0x00, 0x01, 0x18, 0x00, 0x00, 0x00, 0x18, 0x00, 0x00, 0x00,
  0x02, 0x00, 0x00, 0x00, 0x00, 0x00, 0x00, 0x02, 0x38, 0x00,
  0x00, 0x00, 0x04, 0x00, 0x04, 0x00, 0x04, 0x00, 0x00, 0x00,
  0x26, 0x00, 0x00, 0x00, 0x73, 0x65, 0x71, 0x75, 0x65, 0x6E,
  0x74, 0x69, 0x61, 0x6C, 0x2F, 0x72, 0x65, 0x73, 0x68, 0x61,
  0x70, 0x65, 0x2F, 0x73, 0x74, 0x72, 0x69, 0x64, 0x65, 0x64,
  0x5F, 0x73, 0x6C, 0x69, 0x63, 0x65, 0x2F, 0x73, 0x74, 0x61,
  0x63, 0x6B, 0x00, 0x00, 0x01, 0x00, 0x00, 0x00, 0x01, 0x00,
  0x00, 0x00, 0x00, 0x00, 0x16, 0x00, 0x20, 0x00, 0x1C, 0x00,
  0x1B, 0x00, 0x14, 0x00, 0x10, 0x00, 0x0C, 0x00, 0x00, 0x00,
  0x00, 0x00, 0x08, 0x00, 0x07, 0x00, 0x16, 0x00, 0x00, 0x00,
  0x00, 0x00, 0x00, 0x01, 0x18, 0x00, 0x00, 0x00, 0x30, 0x00,
  0x00, 0x00, 0x50, 0x00, 0x00, 0x00, 0x01, 0x00, 0x00, 0x00,
  0x00, 0x00, 0x00, 0x09, 0x68, 0x00, 0x00, 0x00, 0x03, 0x00,
  0x00, 0x00, 0xFF, 0xFF, 0xFF, 0xFF, 0x60, 0x00, 0x00, 0x00,
  0x60, 0x00, 0x00, 0x00, 0x0C, 0x00, 0x0C, 0x00, 0x00, 0x00,
  0x00, 0x00, 0x08, 0x00, 0x04, 0x00, 0x0C, 0x00, 0x00, 0x00,
  0x08, 0x00, 0x00, 0x00, 0x14, 0x00, 0x00, 0x00, 0x01, 0x00,
  0x00, 0x00, 0x80, 0xFF, 0xFF, 0xFF, 0xFF, 0xFF, 0xFF, 0xFF,
  0x00, 0x00, 0x00, 0x00, 0x01, 0x00, 0x00, 0x00, 0x00, 0x00,
  0x80, 0x3F, 0x1F, 0x00, 0x00, 0x00, 0x73, 0x65, 0x72, 0x76,
  0x69, 0x6E, 0x67, 0x5F, 0x64, 0x65, 0x66, 0x61, 0x75, 0x6C,
  0x74, 0x5F, 0x72, 0x65, 0x73, 0x68, 0x61, 0x70, 0x65, 0x5F,
  0x69, 0x6E, 0x70, 0x75, 0x74, 0x3A, 0x30, 0x00, 0x03, 0x00,
  0x00, 0x00, 0x01, 0x00, 0x00, 0x00, 0x60, 0x00, 0x00, 0x00,
  0x60, 0x00, 0x00, 0x00, 0x09, 0x00, 0x00, 0x00, 0xB0, 0x00,
  0x00, 0x00, 0x94, 0x00, 0x00, 0x00, 0x84, 0x00, 0x00, 0x00,
  0x74, 0x00, 0x00, 0x00, 0x60, 0x00, 0x00, 0x00, 0x40, 0x00,
  0x00, 0x00, 0x2C, 0x00, 0x00, 0x00, 0x18, 0x00, 0x00, 0x00,
  0x04, 0x00, 0x00, 0x00, 0xC0, 0xFF, 0xFF, 0xFF, 0x19, 0x00,
  0x00, 0x00, 0x02, 0x00, 0x00, 0x00, 0x00, 0x00, 0x00, 0x19,
  0xD0, 0xFF, 0xFF, 0xFF, 0x09, 0x00, 0x00, 0x00, 0x04, 0x00,
  0x00, 0x00, 0x00, 0x00, 0x00, 0x09, 0xE0, 0xFF, 0xFF, 0xFF,
  0x04, 0x00, 0x00, 0x00, 0x03, 0x00, 0x00, 0x00, 0x00, 0x00,
  0x00, 0x04, 0xF0, 0xFF, 0xFF, 0xFF, 0x11, 0x00, 0x00, 0x00,
  0x02, 0x00, 0x00, 0x00, 0x00, 0x00, 0x00, 0x11, 0x0C, 0x00,
  0x10, 0x00, 0x0F, 0x00, 0x00, 0x00, 0x08, 0x00, 0x04, 0x00,
  0x0C, 0x00, 0x00, 0x00, 0x03, 0x00, 0x00, 0x00, 0x03, 0x00,
  0x00, 0x00, 0x00, 0x00, 0x00, 0x03, 0xDC, 0xFF, 0xFF, 0xFF,
  0x16, 0x00, 0x00, 0x00, 0x00, 0x00, 0x00, 0x16, 0xE8, 0xFF,
  0xFF, 0xFF, 0x53, 0x00, 0x00, 0x00, 0x00, 0x00, 0x00, 0x53,
  0xF4, 0xFF, 0xFF, 0xFF, 0x2D, 0x00, 0x00, 0x00, 0x00, 0x00,
  0x00, 0x2D, 0x0C, 0x00, 0x0C, 0x00, 0x0B, 0x00, 0x00, 0x00,
  0x00, 0x00, 0x04, 0x00, 0x0C, 0x00, 0x00, 0x00, 0x4D, 0x00,
  0x00, 0x00, 0x00, 0x00, 0x00, 0x4D
};
const unsigned int model_tflite_len = sizeof(model_tflite);
